▁يۈر
▁الصحة
▁كثيرة
。(
▁គ្មាន
وره
▁లాంటి
мел
▁որոշում
ଯିବା
▁země
▁приложения
▁እንደሚያ
▁зохиол
ўскага
▁இய
pál
शाला
ഭാഗ
्रे
▁सम्बन्धी
álna
वारी
▁ልማት
ĉo
▁များ
▁sonrasında
▁Νομ
▁тілінде
بري
sä
▁దిగ
ఫ
افية
▁δρ
▁آشنایی
▁ਆਪਣਾ
▁Đình
▁праздник
เดอร์
▁acasă
▁redaktə
▁जगत
カ
▁ខ្
▁Будь
생
▁대부분
드는
szerelés
дељ
брана
ສາກົນ
▁الطلاب
▁Č
▁حرارت
▁uzņēmuma
еміз
১৫
ejše
フォ
ជនជាតិ
▁അത്ര
まとめ
ფს
▁министри
ντι
▁აბა
先に
▁характера
▁ຂໍ້
τικός
οξ
▁آبادی
▁الدور
▁выплат
▁комисия
ट्र
mä
وزی
▁катар
▁медиуми
ທ່ອງທ່ຽວ
프
▁फायदे
абыз
▁jauniešu
▁الصلاة
▁světě
മാക്ക
▁จุด
▁लिग
აუ
மூ
้อย
▁münasibət
осо
팔
Ду
ામ
주세요
кті
▁söka
нети
▁ಬಳಕೆ
დუ
▁상담
▁السا
▁چەك
▁ພາບ
▁Српски
ۋاتقان
▁gói
▁Академи
▁ଗତ
ӨН
▁Ē
ачки
▁મુક
멘
▁عيد
שית
▁دیکھنے
केश
▁община
▁αυτής
ბაზ
▁небес
▁รวมทั้ง
▁Добав
▁تجد
▁ಸಲ್ಲಿಸ
▁одяг
zić
▁menší
▁бабу
▁çal
▁चन्द्र
▁පිරිස
графічн
▁соз
▁жаны
▁Ngài
▁حقيقي
être
щее
▁잔
мышлен
▁Råd
▁유럽
▁қатыс
евіч
തര
İS
▁tələbələr
▁निरा
остей
რეთ
čkih
เชิญ
▁العلاقات
▁ಸ್ಪ
▁소재
▁ඔබගේ
لحق
▁ستاره
▁жада
▁akció
czkę
ড়ে
رحم
▁ලියන
عنا
נעמען
վիր
▁цените
कले
ว์
▁அதில்
јски
▁idées
れ
▁šeimos
▁Opći
▁نشانه
▁Тарас
▁ወያኔ
▁uçak
▁ເມ
ාගේ
▁قدیمی
اعي
▁инди
длын
ຈັກ
▁صفر
ėjimą
▁өмч
ျမန္မာ
отека
▁приведен
ër
▁ኪ
▁ببر
▁ኃላፊ
ダウンロード
▁Sánchez
▁взаимо
▁тұрақты
▁의견
▁жители
▁עולה
▁undersøgelse
లర్
▁లేక
▁Віль
▁hüququ
▁กําลัง
▁आउन
だった
chová
▁تكن
▁처
▁відправ
पाट
çısı
βα
▁ສາມາດ
▁गर्दछ
▁수
िन्छ
▁행동
▁düşük
ใช้เวลา
ināšana
▁apkārt
▁øje
▁rămas
سية
▁maioría
▁수행
▁दोस्त
▁ქა
తూ
ාට
▁воспита
جائزة
基本的に
▁ಮ್ಯಾ
▁Tên
رقة
▁Черно
φύγ
ાને
مساعدة
▁диви
áin
저
▁créé
▁жазыл
ഭവ
▁žali
者は
▁ہوا۔
▁مقررات
▁කථා
্টার
▁있음
▁συνεργ
qı
▁ការងារ
ഓ
▁השו
▁bữa
▁постепенно
▁старонку
▁rừng
▁السلطة
ì
▁vết
ცხო
▁جاده
▁বার্তা
សម្
ҮР
▁מגוון
▁пяти
ë
штај
ਾਤ
คล้าย
▁gyümölcs
▁сотрудников
▁നിറഞ്ഞ
▁ਪੇਸ਼
▁cúi
سيطر
▁българските
ටුව
დარ
▁בקר
ელთა
тику
kák
▁πρωί
▁Коз
▁තෙ
óban
▁zë
ងាយ
döntő
กางเกง
▁Gábor
▁കാഴ്ച
になる
เจอร์
통신
▁गराउन
▁เป็นต้น
▁Perché
▁відділу
▁биолог
▁začel
▁šventė
्दी
гүл
شب
ûrê
παρα
ШЕ
رفت
▁göstərən
▁муниципал
▁Қазіргі
▁scène
อัพ
▁Поради
▁Абай
▁शव
رأ
сцей
▁корисник
ดุ
もらえ
▁ປະເທດ
सित
▁مشتریان
ాల్సి
บอร์ด
▁жау
▁yerdə
わたし
▁পেয়ে
képzés
▁моменти
▁Определение
▁povedať
ทั่ว
▁Анан
▁ക്കുന്ന
ативни
បាត់
▁egészen
ુર
▁දෙනෙකු
▁בריאות
▁öffentlichen
▁එකෙන්
▁məqalələr
▁ایپ
▁ေတြ
ziņu
ć
▁Türk
ИГ
▁uspešno
▁болохоор
▁приче
▁команди
▁Rusiyanın
▁стоял
чылі
▁свр
વાસ
▁определи
szerkesztés
▁الجزائر
▁مطالبہ
ורג
▁فقر
▁филма
▁الحسن
лардан
બાર
▁своему
▁스
▁видели
úirt
ក្បាល
▁ব্যাংক
▁नोटिफिकेशन
ေထာက္
▁зави
▁لماذا
▁Für
altı
▁التج
▁இல்ல
IŠ
▁Oyunları
▁అడుగు
ьян
ೀಕರಣ
▁모
▁säker
혁신
чылар
▁καιρό
ўскай
trí
สภา
▁өзгерістер
Монгол
スタイル
▁நம்ம
▁hətta
▁долг
▁одсто
▁recuperación
▁වන්න
▁метода
▁고려
▁ຈັດ
mático
▁զոհ
▁хама
▁хү
पत्
▁кайсы
▁максат
▁hämta
િસ
פתי
Ազատություն
Жи
વાળા
▁Thần
▁ਸਿਰ
▁Ró
▁निगम
ົ້
▁ο
поз
▁radhë
▁ട്ട
ອະ
скре
срочно
▁खि
▁gắn
▁원
ολογίας
▁пережива
▁لڳو
방송
▁проверя
▁Аллах
▁živali
ère
▁Šport
основан
يدا
овое
▁στρ
▁ล้าน
점이
に対応
ില്ലാത്ത
טבע
ಾರ್ಥ
yanı
▁පී
θος
▁имати
▁användas
▁pamięta
ကံ
trž
ь
▁૧૯
ляться
▁जानते
лювати
▁tủ
中で
▁Фин
जनक
▁موافق
▁راحتی
▁ጋ
тую
▁воно
환경
▁مفاد
ório
ුන්
hơ
પૂર્ણ
▁ఆంధ్రప్రదేశ్
ขวา
íð
▁shkollë
ాని
▁يخ
اسات
▁حوال
▁ሆነው
кажите
▁løse
িয়ার
▁تونس
▁Рис
प्ट
ющими
▁társaság
▁яриа
γεται
よ
ப்படி
▁الحد
▁κοινό
▁යාම
▁कल्याण
▁مميز
▁Já
▁내용을
▁думал
▁මතු
▁трэ
ნდო
ある
īšanu
▁интересов
▁РУ
عجز
▁ລັດຖະບານ
▁ısı
▁növel
سيل
арен
▁것이
▁meðan
▁தெரிய
체
▁trông
내
▁گهرجي
▁השירות
▁ಹೆಸರ
خاص
▁کھا
ਫੀ
ščine
ल्लो
የሁ
▁neskôr
৩১
도
חוף
▁말을
▁França
▁şəxslərin
▁գործընկեր
ītes
ており
▁સંબંધ
▁yavaş
▁दाखल
ුනා
ახლო
өөд
ুম
▁представник
ыч
ിക്കുകയും
ировки
▁ప్రారంభ
▁선
વલ
ልም
ργα
▁преду
▁пря
▁коришћења
▁다른
▁ਆਉਣ
▁прибыль
ที่ถูก
少なく
זרים
ГРА
▁Høy
▁አፍሪካ
▁množství
▁ομάδας
▁grupė
▁Prä
енной
스코
▁θέσεις
▁ενεργ
▁которому
өрө
законодательства
▁יהודה
▁նվիրված
▁ऋण
แมน
νση
▁tečaj
▁मंडळ
өз
▁kući
ჰა
▁ұлт
▁şef
▁Сот
▁žym
▁χ
▁இங்கு
▁қосыл
mé
▁noč
rëve
ይል
▁خرج
▁عهده
▁szolgáltatások
▁сферы
▁প্রদান
ליק
▁ത്തകള്
ແປ
▁ئۈچ
୧୩
ブル
сјед
▁הפס
식을
खो
фирм
ବାସ
▁बन्न
міністр
വാസ
гори
▁ਲੈਣ
▁กรุณา
▁شعور
◎
ເຟສບຸກ
▁фантасти
▁भदौ
орда
▁részére
▁तिच्या
원이
tà
ðar
▁φ
णु
گۇ
ตั้งอยู่
▁Má
▁कमल
್ತಾ
ەتتى
ендер
vänlig
ı
▁Ła
್ರ
▁великим
▁എത്ത
▁pişt
▁kialakítás
▁кноп
ភ្ជាប់
▁आणखी
▁bekezdés
▁явдал
▁kéz
▁גור
ліс
학년
Cũng
▁ඉදි
▁جنګ
▁Počas
▁ದಿನಗಳ
rić
▁කිරි
変わって
▁Diễn
▁истакна
▁మాట్లాడుతూ
▁לצאת
▁жигит
лец
▁mreže
ರಾಗ
ْ
კან
▁результати
דירה
பார
▁مشخصات
▁паказ
▁ব্যবস্থা
▁eşit
▁Põ
▁дуп
▁drošības
▁पत
mainīt
▁даяр
rí
▁традицій
▁Івана
▁ქარ
เป้าหมาย
КОМ
▁نان
ደርስ
sjö
luğunu
גדר
▁egyszerűen
▁نیرو
▁ေပး
ۇلغان
▁menü
مسلم
▁qaldı
établissement
▁السر
فتاح
▁Mọi
▁хэмжээнд
силь
▁중심
법
▁vprašanja
연합
▁şair
రని
צפו
ibilità
НОСТ
стон
▁айында
▁ಮನೆಯ
ლოგი
▁черно
▁මෙහෙම
▁gło
▁автомобіль
▁المواطنين
ก้า
▁основание
▁الوضع
▁mājās
डिया
ಜೀ
▁dóm
▁коз
▁мани
▁የደ
дает
▁dúvidas
▁אליו
▁보도
គាំទ្រ
▁místa
▁yapacağı
adevăr
▁Kér
жиж
ボタン
▁පියවර
▁ταινία
▁بنسټ
▁tiesību
▁ಸರ್ಕಾರಿ
▁หน้าแรก
କରଣ
▁ഉപയോഗിക്ക
▁läge
▁Защото
▁pełne
▁Đào
▁תח
なら
לשון
ımıza
▁छाप
היסטוריה
िस्ट
▁โดยเฉพาะ
▁тоқта
▁കുട
ਗਲ
▁ಲೋಕ
▁ప్రకటించ
▁súil
▁Kỹ
альны
класс
оўка
▁көрсө
▁Սե
ម៉
▁بدأت
▁трас
ģis
▁ბიჭ
目を
▁książ
▁ухааны
もので
оген
वो
▁במקרה
▁trụ
▁සුව
▁کونسل
kiaľ
▁погоди
▁blá
▁felelősség
ώνα
▁отдельно
լուսանկարներ
▁Нұр
보이
▁sál
şir
정을
▁образовательн
▁искате
سة
▁لکي
росс
▁мускул
్ర
▁त्यसपछि
▁구입
คุณสมบัติ
▁пилот
▁državno
▁તેમજ
▁тобой
्ड
чких
валось
▁Község
ფოთ
▁náklady
▁घेतला
لىنىپ
פייסבוק
юри
ক্ষণ
ទិញ
ように
▁കുട്ടികള്
រវាង
▁şəxsi
▁дзён
▁تعامل
ತೆಯ
höz
▁игрок
▁رج
നങ്ങള്
ەتتە
▁Народно
رسید
▁судом
जात
▁دستی
eceğiz
▁вакцин
σθητ
▁దర్శకుడు
▁ցանկանում
▁الهي
айын
рика
▁Naši
▁एफ
고
വല്
ുള്ളത്
سود
යො
さえ
ίνω
กฎ
ፁ
Ì
▁دلایل
▁Стран
▁میوه
မျှ
▁précis
ტიკა
خصص
▁культура
▁õpetaja
офи
መላ
▁þy
נדי
▁ਸੁਣ
kjørt
▁ដើម
клю
ებების
양
▁голямо
▁মনোনয়ন
תרגום
▁janúar
▁përsëri
タ
이자
▁lõpuks
▁változás
▁беретін
מיים
ložiť
▁φοβ
▁måltid
▁하는
็ง
▁செய்வ
▁pyörä
اسية
▁وتن
▁речовин
ંઘ
ڊي
▁نگرانی
▁కింద
▁Nästa
▁catégorie
▁užívateľ
▁giường
▁برجام
포트
▁প্রা
▁vehículos
▁košík
ვებ
▁Καθ
ਚੀ
로
▁őt
täminen
▁déanta
ત્રી
▁வருகை
ನ್ನೇ
ىلى
रत्न
еста
▁ດ້ານ
もの
▁भट्टराई
þ
▁ٺاهي
▁أسعار
పోతున్న
▁විශ්වාස
▁функционира
자들이
▁миг
▁ţări
ตัดสินใจ
್ತ
▁Фре
મુ
▁demandé
رائي
▁Świe
▁новости
ഠ
ंदी
▁ਚੁੱਕ
▁الدي
อันตราย
▁Оқу
▁במרכז
▁bölmə
▁Рак
▁грижи
ໍາ
การสร้าง
הגנה
▁Første
▁całą
▁كف
čkim
រួម
яви
▁резултатите
ल्यास
▁ант
യാക
▁маселелер
узи
ńska
▁зрител
▁негізінде
▁қатынастар
ನ್ಯಾ
▁засоби
▁اکس
▁μισ
▁өткізу
šķi
луб
▁љуб
▁ιδι
▁उत्पाद
▁ఎక్కువగా
▁είχα
▁Krás
্যান
▁какую
▁гарах
的な
біл
▁చేస్తూ
fähr
ръс
▁بینک
ჯობ
▁รอบ
ผู้ที่
২৮
▁турш
ৰী
▁ditën
▁медиа
قرر
ลี่
▁හමුදාව
▁συγκεκριμένο
▁spät
▁המלא
ుకుంటూ
それぞれの
że
▁anlaşma
▁قبض
▁നേടിയ
▁пах
▁ڪپ
▁duración
▁క్ల
▁graži
▁üveg
▁السب
зици
▁уряд
▁חומ
ագրություն
▁ಮಟ್ಟ
▁කවි
കേ
▁позив
▁статья
вс
▁පෙන්න
በራ
վեցին
ኦሮሞ
õhk
▁동의
▁დაგ
▁მესამე
ሁን
▁энергии
обща
ىسىنىڭ
▁الحركة
▁شبه
▁харагд
ますので
запад
▁квалификации
මී
▁разве
▁populær
ของคน
దేశ
▁കഴിക്ക
▁татко
osztás
קטור
▁თამაშ
▁موجودہ
zał
ච්චි
▁পদ
▁سامنا
▁стопа
лесно
ındır
чност
▁κόσμος
sindən
ФО
▁зачем
ఫె
▁ذیل
ières
роид
▁खुला
▁نقطة
بصر
▁سوء
ଛୁ
रिक
▁rău
▁ශිෂ්
▁سنتی
▁успеха
▁ráda
▁እርሱ
intérieur
▁աշխատանք
▁ผ้า
▁человеком
▁cvič
váz
▁חסר
▁οικονομική
чае
▁تاش
▁होऊ
のことを
ที่เคย
सम्पादन
ជនសង្ស័យ
となり
▁التدريب
зві
▁सीएम
▁alí
▁사용
ძა
▁منجر
▁መለስ
▁වාර්තාව
▁lënë
înd
▁premiér
드립니다
▁ætti
זין
▁قوی
prä
یټ
▁tår
រាជធានីភ្នំពេញ
▁Kështu
▁경우
▁اچھا
▁ਚੋਣਾਂ
▁хоць
▁պայման
▁természetesen
▁горад
▁Όσο
حار
การจัดการ
الح
५०
スタン
▁programación
▁उड
expérience
▁ತಾಯಿ
دس
▁Služb
لاند
▁krävs
▁συμφων
▁বিচার
▁արձանագր
ложить
▁શક્ય
▁상
ניג
ંસ
حذر
▁mobilní
पूर्व
▁দাবি
ระบุ
▁محتوای
▁развоја
кія
▁професионални
ନର
▁نکرد
เข้าสู่
▁худалдаа
メリット
▁سماعت
▁Gerçek
ختار
اٹ
ገበያ
ичан
dé
ເກັບ
ئٹ
▁Рада
▁умира
ганы
▁Vše
▁спр
▁искрен
▁Βι
▁районе
నెట్
▁órgão
πια
▁egyéni
சர
▁horário
تذكر
کلی
▁அழக
भिः
όλι
gún
▁ಅಧಿಕಾರ
▁förhållande
▁nejaké
▁чергу
ロン
▁вака
kkejä
▁наявності
▁ਬਦਲ
▁സംഗീത
ممارسة
▁деяких
▁संदेश
▁місяців
とは
▁අරන්
▁یار
▁바
มิน
felé
กล่าวว่า
נש
ก็ยัง
常に
하던
▁знают
डू
▁재
тото
▁эв
وقوف
▁примени
ийгмийн
▁Αυγούστου
ଠାରେ
▁разгледа
▁عالي
▁ඕක
szolgáltató
▁خلاصه
dzę
יטי
ロ
▁срам
▁בפר
▁діл
ná
ваўся
▁जरूरत
▁содержание
▁Думаю
וכים
▁कोष
▁öne
▁твоя
ахад
▁любви
▁याच
бю
▁začetku
▁קבלת
▁чадахгүй
▁tè
▁скажу
▁şeker
▁ಮತ
σος
▁المص
▁člana
ಯವರ
▁знали
จอด
▁ගම්
▁সাংবাদিক
▁všeobecn
▁бүлэг
▁ОХУ
▁जमीन
ஹ்
കൊണ്ട്
▁отметил
▁Запо
▁ፓ
▁nhàng
สเตอร์
välja
וסף
જ્ઞાન
тички
▁حقوقی
▁ప్రజలు
ର୍କ
▁העבר
▁długi
iyalı
▁하
▁одржан
svjež
▁мав
▁вест
лоб
▁sõbra
▁അവര
強く
▁Іс
ಒ
önd
▁läser
społeczn
▁Zobraziť
▁Министерства
▁Русији
εσαι
▁៩
▁mät
▁الأع
гиб
▁Άν
▁kézi
храни
▁большим
▁São
תור
മല
غار
ādē
džer
መጀመሪያ
▁үндэс
ማንኛውም
богат
▁астам
▁Начин
행
кір
▁ስል
▁šū
▁hatékony
▁рожден
▁مذ
īcija
申し
▁альбо
▁この
▁проведение
점
▁колдо
▁fordít
ഒരു
మంది
▁ważny
▁منصوب
ၤ
กรุงเทพ
▁První
▁경찰
▁ألا
▁ಪ್ರಕಟ
▁тихо
▁tiče
тражи
▁усп
▁פּאַ
▁српских
ψαν
δων
íny
▁көлік
▁системата
▁ας
вард
ották
▁நட
čih
Qəbələ
▁Tätigkeit
▁послове
מלחמה
▁дамуы
▁Треба
▁پرویز
▁закр
▁함께
опт
πως
▁όρο
これで
τερη
▁жұмыстары
rání
abileceğiniz
काे
▁خم
▁ярилц
תמיכה
▁नंतर
τος
▁विजयी
fón
エ
▁egyház
▁కేంద్రం
▁ਆਖ
▁차량
৪০
ධාර
▁ಬಳಸಿ
▁අන්
▁oddział
хоо
▁وست
のための
▁заряд
▁위해
توان
のではないか
▁Ποι
▁термо
ປະກອບ
קבוצות
▁responsabilità
ರೆಯ
▁Nüüd
കുമാര
▁tudás
ською
▁автори
▁Колко
들도
▁požar
лёт
îtî
▁پزشک
하지
▁gösteren
ملك
एसपी
▁металл
▁बहन
kės
วิว
پاکستان
▁Tết
▁አፍ
רשטאג
▁यसअघि
▁корот
▁седмици
▁расходы
обо
▁Có
غیر
นวด
ફા
▁valóság
▁мужчын
מפגש
▁кампания
▁ಹುಟ್ಟ
▁кажем
ถา
▁операцій
▁toţi
ግጥ
▁کاش
സ്ഥിതി
▁εκδ
ுதல்
▁համայնքի
▁पराजित
▁섹스
▁फी
يئر
ғым
▁인생
▁ګډ
▁مرجع
▁הברית
äkin
りする
▁dále
▁એસ
▁Ú
▁špič
збе
▁ගල්
▁හැද
जना
ájában
ባዊ
▁نیٹ
ರ್ಯ
్రా
▁абарон
স্প
▁Yardım
▁මුළු
ಖಾ
▁Paşa
▁کوریا
▁행정
▁رە
▁Фін
▁глаз
▁müharibə
алося
ացավ
▁Коп
нуло
▁Иса
στες
▁பாதுகாப்பு
▁কত
rūs
▁întreg
▁кызык
▁kêu
ਤਮ
▁المسؤول
▁σκληρ
▁மோடி
ær
▁اداري
mån
▁Σα
▁모습을
▁طويلة
▁Δρ
▁милион
▁каком
ιότητα
▁одигра
реал
▁масла
▁gazdaság
▁хүлээ
▁حاکم
ௌ
Ç
▁تقاضا
▁jälgi
▁두
بعة
▁कोणी
んですよ
skutečn
▁сусед
वेश
▁друку
уша
ијског
▁buluş
▁dřev
▁vehículo
лён
ивно
តូច
▁التس
президент
▁Sähkö
▁караганда
▁Dziś
▁жашы
گذاری
▁Поста
することを
uðum
បើក
▁mệt
ತೆಗೆ
ڌو
인가
▁ເຂົາ
▁제한
выкана
खिल
ಾಂತ
▁gáz
ませ
визија
owaną
कालीन
▁жыйын
จุดด่างดํา
▁цвета
▁Đi
▁کیو
▁השנים
ரம
аасаа
▁rīt
▁បន្ថែម
ઈન
ராம்
▁مستمر
روف
▁sāka
▁नियुक्त
▁қарасты
▁මාර්ගය
▁пошта
näitus
▁ትውልድ
järve
ضيع
dýr
টের
▁പ്രശ്
▁мужчина
tóir
ව්ව
ങ്ങനെ
глянути
▁աշխատանքային
▁Här
▁деякі
▁معاملہ
بسيط
▁بوی
▁قىلىنغان
▁Noël
▁бөлүм
▁причем
эра
▁странице
▁işə
▁מסת
▁รอง
cția
ценка
ündə
▁Због
কট
▁óg
▁المدني
▁거
▁установе
ිණි
▁האישי
gjör
▁Alþingi
ն՝
▁अर्थात
ישה
קוב
▁वर्षमा
യാണ
考える
owców
sszük
▁šele
īnā
▁የህ
ാക്കിയ
əcə
▁семья
νουμε
▁등장
▁süs
▁კომენტარი
ვდი
ción
лэж
ប៉ុណ្ណោះ
▁jautājums
สนามบิน
▁успіх
▁სხეულ
▁לכתוב
مەس
▁പഠിക്ക
андык
▁ລ້ານ
▁지정
▁verilmiş
▁кіру
▁хам
ೆಲ್ಲಾ
ीने
▁ഉമ്മ
▁денови
ÉK
аттуу
▁විම
▁ਕਰੋੜ
밴
ເຂົ້າຫາ
▁המקום
พนัน
▁наследство
▁taşın
▁קע
Ú
▁története
▁देशभर
▁هاڻ
▁серце
▁ನೋಟ
▁цене
عامل
δημο
ईन
ദം
워
▁니
тици
ٽائي
▁සුබ
▁легенда
위원
▁Formació
▁ქუჩა
▁ierobežo
чести
▁elsősorban
വന്ന
▁شوق
▁ربما
▁३५
рге
▁создава
▁सेयर
▁hár
▁అందరి
פלא
▁నాలుగు
▁وعده
▁ယခု
▁युग
முக
若い
ção
▁במי
શું
енс
אכט
والی
▁Pär
▁Egyesület
▁አስፈላጊ
▁организације
▁हवाई
ədək
ป้าย
▁voilà
터
▁потребители
▁ಜೋ
ആര്
øvelse
ിലേക്കു
▁ställa
دري
▁연
▁औषध
עיר
ሁለተኛ
▁Sağ
شرب
простран
▁বয়স
▁доп
கிற
しましたが
жайы
▁வங்கி
▁והיא
▁μιλά
▁ótimo
líci
なんだ
ІІІ
инвестицион
lendiği
▁تند
▁шатны
арч
ÍS
ቃል
ૂર
▁довго
ाबाद
▁įgyvendin
گھ
▁høyre
βερ
მთ
▁шығарма
▁தெ
มุ่ง
▁ครู
▁uzņēmumu
емый
▁پۇ
អំ
▁ээж
ðu
▁בשם
▁संग्रह
িস
▁urmări
โช
▁acı
توجه
плати
▁گردن
වෙන්න
▁장
นี้เป็น
クリ
ण्यास
▁потребе
علامہ
▁İtalya
▁proximité
▁таможенн
έρι
kā
Ад
közlekedés
мөн
ляга
▁المغ
ealaí
▁فائد
▁বন্ধু
مدرسة
lediği
יקס
kkää
▁ജില്ല
▁کلن
ేష్
▁통합
▁ಮೋ
▁фокус
▁баба
ಭೂಮಿ
ньому
▁Үкімет
значення
▁तिला
▁سازش
▁ਸਕਦੀ
▁взяти
▁पकड़
ФА
▁egészséges
ליים
피
▁അതില്
▁Пят
たい
násob
▁некоја
ministeriö
忘れ
ирую
▁állami
பட்ட
▁سیل
▁המצ
▁açıqlama
▁գրավ
יגן
ιέ
ପାରିବ
▁ਜਾਵੇਗਾ
▁வெளியே
▁priemonės
▁keittiö
λία
▁स्थल
▁iránt
▁ಎನ್ನುವ
▁ప్రాంత
▁கெ
cé
▁۲۳
▁المحت
▁tanıt
רוי
▁fér
IĆ
▁کروا
▁അടിസ്ഥാന
ందే
▁ágúst
ů
▁істеу
ചന്ദ്ര
▁heiß
കട
▁بهار
້ວ
▁saxlanıl
داشت
ශි
▁උත්සාහ
హు
λλο
वेल
технолог
▁mikilvæg
たま
ಪಂ
xé
▁dźwięk
▁ուղղված
БОР
▁байвал
▁ሦስት
▁забране
▁esforço
▁двамата
▁новую
ਐਮ
жилт
▁తెలి
hääl
альное
▁пәні
ዘን
كبر
▁карты
▁منتدى
јно
පී
▁მხარე
пројект
عاب
kér
▁ئىس
▁юридическо
▁Талас
สาขา
▁Кеңеш
▁бүгүн
tòria
ประวัติศาสตร์
▁షో
▁Архив
రక
▁ይሆን
▁경우에는
▁عوض
▁daļu
ós
▁രാമ
▁Reykjavíkur
▁کلک
―
meyeceği
▁ಉಳಿದ
となりました
দ্য
재단
▁песен
▁læring
즈
自分の
เลยค่ะ
มีปัญหา
▁праекта
▁катуу
పూ
▁서
▁মামলা
bhá
マンション
▁Amerîka
▁sərəncam
천
▁Ná
▁iekār
альную
▁посмотрел
▁پرشین
▁показали
▁spécialisé
▁масса
▁лоб
ෙමි
stró
ציות
▁فورم
▁कसे
▁tarafı
▁передбачен
ቂያ
kázal
▁даними
▁מזרח
▁почина
▁αλλαγή
▁публичн
वां
rú
▁සම්පූර්ණ
▁rodziców
▁proszę
áért
สัม
▁සමත්
▁Św
에서
▁elementów
وعة
▁изгуби
知って
▁هوندا
国の
ιακά
డర్
▁având
▁skøn
▁altın
▁líon
のか
▁పేజీ
hånd
メディア
យុវជន
▁πρόταση
หาร
Í
əşə
▁기관
▁Конституция
सै
பூர்
▁الحدود
чилж
▁잘
▁अहिलेसम्म
ເລີ
▁végz
▁တွင်
▁különösen
ıstan
▁المدير
нял
▁ଲୋକେ
▁перші
ající
▁بنياد
▁эзэмш
▁mérkőzés
▁ගිණුම
▁герой
▁саласындағы
▁Nazirlər
▁койгон
▁дійсно
▁අස්
▁අපගේ
▁hökm
cināt
▁förklara
▁अध
▁olacağını
३८
مجلس
१७
ətlər
isiún
▁hören
▁அன்பு
მც
▁הינו
▁ጥያቄዎች
▁età
ଇଲେ
▁خاتم
▁skúsenosti
▁წლებში
▁ખાતે
▁ବଦଳ
▁చూపించ
ليو
ለብ
▁zkušenosti
مائة
▁установки
▁прояви
▁پائ
āļu
▁बैठकमा
há
▁носа
▁napisał
áig
読んで
кової
pür
اين
Π
▁সকাল
ніку
pé
▁হামলা
▁소식
▁επιχειρ
▁성
▁보인다
▁ჭა
聞く
▁מקבל
▁īsteno
बळ
▁płac
خدم
▁ছিলেন
▁തുറന്ന
▁žinoma
tică
പൂര്
બંધ
지
ذاك
▁उनीहरु
に入れ
▁слага
▁મોત
३६
▁Digər
▁ვის
▁хороший
▁ideál
גזר
ζαν
ึก
▁گلو
▁معمولی
▁κατηγορ
▁поступа
ујемо
▁Қор
▁Глава
自分に
▁متهم
चाल
పక్ష
úcháin
▁sød
▁קונ
▁зорилго
▁চৌধুরী
▁febrúar
흑
Хмельницьк
▁मौका
▁핵심
▁лютага
ພາຍໃນ
▁hyviä
ÖS
▁সালের
▁ರೀತಿಯ
▁माह
계
▁വിട്ടു
▁stöðu
szolgáltatás
זון
▁әдіс
ఫల
▁аттуу
സ്ട്ര
ująca
きちんと
타임
そのような
▁bại
フリー
▁કોર્ટ
▁ажилла
לר
▁தினம்
▁အမွတ္
▁हामीलाई
сіі
പ്പെടുന്നു
βλη
それで
ಿಸಿದ್ದಾರೆ
▁síma
ન્ન
▁ສອງ
・・
▁ఉంటా
▁профессионально
ình
брос
▁пошуку
ማል
वन्
беле
▁þótt
เทศ
▁gjëra
▁غرف
အေပၚ
を開催
Në
▁originál
καθ
บ่อย
kového
힐
វិស័យ
▁프랑스
▁განვითარება
တိုင်
▁কৰা
ليا
오는
▁felhasználói
▁ірі
▁انتخابی
ເດືອນ
ක්කු
략
▁Мел
дөй
ળે
ılmasını
を持っている
نور
ブランド
▁Οικονομ
ထောက်
▁હજાર
▁дверь
uré
lässig
▁саясий
tədqiqat
▁незаконно
увани
ಣ್
▁คา
എല്
మన్
ของฉัน
▁вынік
▁Hóa
वृ
▁රෝහල
fesztivál
▁чиглэлээр
má
▁منہ
▁dóna
▁കുറവ
▁tänne
▁мовою
iệm
▁miközben
▁поклон
▁मात
▁Градск
を入れ
▁pü
安い
▁стає
рыць
▁موقعیت
▁ווערט
ძლევ
▁लिएको
თის
κληση
▁자동
▁معها
▁thự
▁தேவ
mått
värdering
▁изделия
▁uçuş
นักท่องเที่ยว
▁bērna
▁تستخدم
▁пуска
▁категорија
▁منظمة
▁duše
водство
▁Лист
ావ
事前に
▁لمح
ánál
▁новы
તમ
სვლის
▁Сем
ሳል
್ತಿ
айт
▁মাস
жную
▁шэраг
▁הני
기사
▁යවරයා
ά
ਫਰ
▁инвестор
▁salın
に関しては
▁ทีม
тельную
파
▁Јан
رانی
現在の
وران
ನಲ್
▁לצד
▁යාල
ستى
ுமா
ที่ต้อง
อนุญาต
▁glücklich
▁본
しばらく
▁نهائي
▁مشرانو
річний
▁فائدہ
లేని
ର୍ଡ
σίες
័រ
элж
ૂં
ხმა
▁válaszol
▁පිය
åringen
കഥ
▁qaç
について
ದ್ರೆ
▁Špan
出てくる
▁башкы
ализира
▁službeni
учени
っている
▁הגב
▁අනි
▁çaba
▁υπουργός
▁النوع
inėmis
▁ដី
▁خواندن
▁sínu
ナル
შვე
▁വെബ്
কন
▁әкімі
▁специално
ランド
▁Више
lē
ร้านอาหาร
ствовал
▁జిల్లాలో
dô
▁ਸੁਖ
▁výroby
▁मज
ลืม
kräfte
▁희망
תחבורה
▁nabídky
▁चक्र
▁tanàna
▁уга
▁اخراج
▁vlerë
ભૂત
ാടി
▁țări
ገራ
心の
▁שיווק
そうで
▁כספי
ადგილ
まあ
ご連絡
▁bölgesinde
cağı
ለሁ።
ካል
▁писать
▁الشو
▁شناخته
▁traže
▁Që
ډي
بھی
внутрен
▁Ernährung
▁अशोक
▁판단
▁कुठे
▁حجت
▁обре
ქტი
ศพ
▁мъже
য়ন
▁пословн
▁شار
▁লগ
▁қоса
▁مطالعات
όμενο
ацією
ອັນ
▁шешу
තය
лекс
চিত্র
تعامل
ଦର୍ଶନ
geschäft
ขอบ
のが
▁الخدمة
ਿਸ਼
▁उज
▁гостей
্যাল
▁पहन
리지
käsi
ுக்
▁सकाळी
ságok
▁сроки
▁пријател
▁ამბები
▁Пен
▁læst
द्वारे
ुप
лья
Отвара
мерен
दश
▁สมาชิก
▁кетип
▁чыгыш
توج
▁mộ
▁arkadaşlar
שמים
സീ
もらって
гчийн
▁اکثریت
위로
ที่ทําให้
შვილის
▁학습
▁فولاد
그룹
▁pät
▁понрави
▁gọn
ശബ്ദ
жати
арно
▁၁။
▁пчел
▁полезны
ვანი
▁भई
▁भूत
ወርቅ
ችሉ
▁താന്
▁työtä
ಿಯಲ್ಲಿ
жаны
▁पासून
▁الليل
▁храма
▁líst
রিয়া
맥
dĺž
တို့ကို
телят
טכנולוגי
ხოვ
дсэн
▁съобщи
ျမိဳ႕
▁државно
▁Мали
▁бодож
▁казалось
▁članova
iečiai
▁يساعد
كوب
▁مصروف
ськ
▁администратор
▁цирк
ውቅ
▁குரு
▁değişim
▁тече
▁tò
▁густ
කේ
ाएका
pół
▁شيئا
чном
ваючы
ционер
▁তুমি
▁посао
▁అతను
디
▁Рах
▁થયેલ
ณา
▁პროექტი
▁toplantısı
업
ФОР
श्वास
▁какого
▁రాత్రి
▁estén
▁ክፍ
▁המא
かい
дек
▁слот
ാണെന്നും
മ്മി
τήρι
▁całe
▁tháinig
▁طولانی
จะช่วย
▁चाहता
ిగా
▁Савет
▁Његов
нист
▁ಬಡ
כאב
▁pāris
포
▁فورا
▁дошло
종
▁põhjust
әрекет
समोर
었는데
▁ویبپاڼ
▁قرب
កំពង់
▁өттү
▁کرلیا
▁நோய்
▁овозможува
▁위해서
なっている
▁prý
ότερη
ę
лски
▁अंत
▁продолжа
▁čuva
▁ნატო
▁Διά
टॉप
ängen
▁କମ
▁Lär
▁ബന്ധപ്പെട്ട
tú
▁германски
▁ühes
daļa
▁обязательств
▁സൈ
სამ
acaksınız
▁இப்ப
śmy
▁стоп
لفت
▁পায়
▁देशमा
відповідальність
▁benötigen
건
▁Εκεί
▁ಮಾಡಿಕೊಳ್ಳ
▁בשעה
▁जरुरी
▁فروغ
▁düşünür
▁ചോദിച്ച
سق
▁бен
いろいろな
Пер
▁моделі
ဒို
یزه
▁компанията
▁düzenlen
əsində
▁հանդիս
질
▁vähemmän
▁구
▁கிராம
が入って
экскурс
▁يوما
▁odborník
สู้
▁도
▁περιβάλλον
▁세
▁ești
▁અસર
▁minél
▁vērtība
▁особливості
▁ավանդ
▁கொலை
▁هرگز
▁ముందుకు
▁ກຸ່ມ
Ако
ريان
▁എൻ
jelző
▁Áll
▁بالن
rī
▁ජනතා
このように
▁आपला
▁консул
▁നേരെ
स्मा
ہری
도시
▁посто
▁англ
توقف
▁ഉപയോഗ
▁ብሔራዊ
세기
▁ھازىر
แถว
▁התורה
lıkla
▁والط
▁заасан
▁আলো
வற்றை
െത്തി
▁घेतले
किन
работва
▁ለእ
▁artırılması
ଷ୍ଟା
▁беш
нып
▁realizará
▁కాల్
티
▁வந்தது
▁алкоголь
타
▁بسيار
تصل
▁شاخص
▁شاندار
▁تستطيع
río
ήμα
▁tõesti
▁médio
itheoirí
場合があります
▁വേദന
▁Зашто
öpp
▁жеңіл
▁χαρά
▁ዘር
អាហារ
ящих
▁Канада
▁פרסום
▁உள்
меняется
▁Италија
▁хүрээ
크
வர்களுக்கு
금을
▁nyilvános
▁ਚਾਰ
ไบ
грес
▁mreža
▁घेतली
▁kylmä
ποίηση
▁envío
ும
▁పడి
ማሪ
▁тарту
▁пријатели
するための
운
なんです
▁аналог
বাজার
เข้ม
▁ਔਰਤ
▁değerlendir
▁браузер
▁দলের
▁болжээ
ვნის
vení
▁страну
▁Ант
▁Пир
तुर
▁görüşme
सिया
▁करीत
▁дэвш
▁کارگران
▁открыл
▁røde
▁маја
▁እውነት
Лі
던
▁Треб
ēšanās
ಿದ್ದೆ
чкиот
წამ
▁Định
すこと
▁понуди
ño
▁reúne
وضح
▁probléma
▁إنها
éag
▁तिन
ช่องทาง
▁българи
جانب
▁לשמור
jelölt
もらえる
Хамгийн
▁Затоа
νεται
▁κολ
اهر
үүсү
▁dövrü
▁получать
ກອງ
ضخم
콜걸
フォーム
▁чиг
▁espécie
▁ictimaiyyət
ถวาย
探し
▁қаласының
▁хэрэглэгч
tämällä
УРА
▁വിമാന
▁гараж
▁нагород
തേ
▁közt
สมเด็จพระ
គាត់
బోయ
ജന്
६५
kodás
јам
రస
र्जी
▁خاور
łu
▁потребителя
▁предложил
▁ჩანაწერ
साहेब
ແຫ່ງຊາດ
▁اثرات
йтін
▁Maž
ován
тою
▁तद्
▁បំ
▁unabhängig
ювали
▁заиста
нуцца
Манас
ბერი
▁됐다
▁aký
יחת
でしょう
ገባው
▁luftës
ējums
▁νέου
▁αίμα
▁এলাকা
járás
▁колега
วุฒิ
▁nämligen
▁beträgt
ציוד
▁риз
帰り
▁Λέ
▁справі
▁nadležn
▁malá
▁český
▁träna
っても
▁ത്ഥി
jamā
▁مارك
を見た
▁மலை
▁рећи
▁Kır
素晴らしい
口コミ
▁Толькі
טס
▁carrière
▁уметност
▁týmto
▁pokušava
०८
ದಾಗ
दुर
ওয়ে
үнөн
▁Első
▁मधेश
▁کاربردی
▁elämää
मराठ
úr
студ
するか
வற்ற
▁адзнач
▁Bölüm
▁משפטי
▁الاتصال
▁تىر
▁ቃለ
▁етаж
épített
ປັບປຸງ
▁Botëror
▁dúbida
▁قضایی
▁pomóc
▁إنتاج
▁വീട്ടില്
▁nekünk
▁жената
▁चलते
ភ្ល
▁решить
▁новыя
▁линија
não
ෙමින්
▁міг
▁priču
▁детал
▁අධික
▁เหรียญ
▁글
▁مذہب
तया
▁показывает
▁hàm
Δ
ኗ
▁모든
新たな
▁rəisi
▁ماہرین
▁дазваляе
▁Lääne
నాడు
શક્તિ
▁भाषण
▁паслуг
αστικό
▁vurğu
thā
▁саналат
ељ
▁Заң
ИНА
▁सरकारने
ché
▁гүл
▁stavební
▁Позна
▁додава
▁العسكري
lú
▁اذ
໋
бактылуу
▁великі
▁дешава
▁پورے
دىڭ
▁यासाठी
Οι
हृ
▁собственник
ніцтва
▁нысан
▁ມະ
▁populära
▁hösten
▁presă
коммун
ทิศ
บัว
Школ
работодател
େଶ
▁ସ୍ଥାନ
▁ágy
▁إس
การเรียนรู้
▁саясаты
▁Fórum
▁olcsó
▁bármilyen
▁مطلق
▁szépen
▁लागले
▁ప్రచారం
▁वही
▁Към
लम
▁зору
પલ
▁سلا
▁спрем
▁bénéficier
ებელ
▁зөвлөл
וקה
ລາຍການ
▁godkänner
▁říct
เจาะ
▁تنظيف
▁أف
▁الثورة
▁односа
▁Црне
▁întreb
▁مونکي
▁जै
▁nærmeste
▁పది
▁keçən
اهو
▁आयो
тыс
ίσουμε
▁büdcə
זיקה
монт
ολογική
▁என்றார்
▁۱۳۹۴
ೀನ್
▁තෝරා
▁fórmula
ਰਜ
מטי
▁संपूर्ण
rædd
▁ඉහත
▁Dafür
▁تۈرك
▁höll
▁vähene
▁समोर
พิษ
▁ხალხი
▁સમયે
▁શબ્દ
▁ПОД
גברים
▁înalt
▁느낌
ัท
▁Σημ
▁સરસ
பக
▁дође
اتك
▁დარჩე
▁୧୮
▁κυρ
ъци
ર્થ
▁ražošana
▁lasīt
زوج
▁немало
တုိ
غط
MÄ
레
алагічны
▁płat
▁құқықтары
的に
▁السكر
▁жою
▁γ
▁hesabı
▁Ох
ทริป
▁لاره
याः
바
ものと
▁открыты
ತರ
plí
▁ákvörðun
▁többször
▁මල
ό
▁дитина
▁kļūst
▁अगले
▁හොඳම
нтов
▁রোড
▁többség
▁निघ
▁ಹಂತ
발
▁បក្ស
▁méně
▁Тэг
áček
ค่าใช้จ่าย
▁فخر
క్త
стрем
▁güvenli
ไม่เกิน
▁شپ
▁préfér
लिन
▁предлагает
▁போக
ुभयो
▁প্রয়োজন
▁입
▁zərər
▁רואה
역
▁визу
ାଳୟ
▁جيدا
කරණය
▁foregår
は何
▁Крис
▁منهن
жақты
штаб
シ
▁เส้นเลือดขอด
jährigen
▁എഴുത്ത
▁ընտրություններ
▁შვილი
īns
▁Miño
▁ത്തക
민
▁العاب
БЛ
▁основні
ค่าย
నంద
▁സംശയ
톡
▁Yıldırım
▁rejstřík
▁včera
ІС
▁dövründə
トル
▁Ermənistanın
álnej
▁медичн
▁באש
álacha
ຫັດ
türk
▁სკოლა
čnog
▁पर्वत
яны
▁Мили
▁ढा
▁ضرورة
와의
lógico
техничк
▁সাহিত্য
▁מצליח
▁श्रम
▁bekväm
ことを
▁höfðu
食べる
▁అందు
▁немец
ලක්
शः
þe
▁ආදර
▁свете
▁پات
▁hjálpa
él
▁자세한
▁अंदर
ที่กําลัง
▁poderán
▁приводит
▁работници
váltás
مايدۇ
تنظيم
визи
▁независим
されている
्जा
תכו
ρης
▁chặn
عالج
▁וועג
ാഴ്ച
과
دغې
▁yanğın
なのですが
▁domů
σι
올림픽
κάλυψη
▁ήθελα
אַקט
ээсээ
ულო
ā
מבנה
زات
▁פרע
▁되면
▁жилд
▁järk
ಬಿಗ್
ശീല
▁славян
▁استاندار
กิจ
ുമൊക്കെ
పేట
موت
▁ফেসবুক
သမ္မတ
▁بشپړ
▁хоногийн
▁السابع
▁사는
όσ
くれる
▁ପ୍ରା
▁súťaže
▁fă
▁választott
▁부모
▁ಕಷ್ಟ
ในวันที่
дент
▁पैदा
лаад
ाट
▁møteplass
ේද
▁яах
тігін
▁úspech
▁zadań
▁Нужно
ଗୁଡିକ
▁የአንድ
▁įranga
▁Informació
పాటి
ขนม
▁ग्या
▁міндет
▁드립니다
वाणी
شین
آور
à
▁વાતો
▁бош
▁የቅ
ሰነ
ΑΚ
ạ
した場合
rún
▁पड़ा
▁செல்வ
▁Министар
▁аткаруу
▁можам
▁општини
▁കേള്
نديون
▁הטיפול
empêche
נין
▁огр
वू
▁екстре
حية
تعيين
▁이르
▁තරම
పుడు
ಗೌಡ
▁τρόπος
öð
дира
▁വെച്ച
▁süreç
▁исследова
▁võimaluse
▁статистик
▁балл
▁хэлэлц
▁ரூபாய்
▁통해
▁خواجہ
▁કવિતા
cházejí
▁Tiếp
▁საბჭოს
▁아동
▁svētki
▁vitória
▁ಹಾಗ
żał
느
▁Ifølg
ões
تعل
▁행위
വം
ැති
liğinde
▁आती
▁команды
дердин
▁انتظامی
đeni
ගත්ත
lı
ทดลอง
êm
▁detaylı
▁гезит
▁araşdırma
▁persoană
▁pagină
▁നാലു
▁îţi
▁இன
▁өңдеу
▁Павлов
▁Систем
високи
եին
▁தோன்ற
కాలం
▁पाप
▁ಹೂ
ドル
▁भगव
▁ਵੇ
▁монопол
▁poté
▁alî
▁शीर्ष
áil
▁çekme
▁спя
▁කවුරු
පං
បញ្ជី
스타그램
▁ngọt
▁كۆرسىت
รถไฟ
دیا
▁Večer
▁kıs
▁שונה
▁сабой
な
▁našoj
Сан
▁občut
മന്ത്രി
ขนส่ง
▁نفرت
けど
خري
ഘട്ട
から
gęs
▁ປະທານ
▁груб
▁തകര്
▁الشريف
ەڭ
▁soluções
▁президенти
▁başladığı
▁tendência
▁isključivo
ብዙ
▁호텔
тельное
▁допустим
בלע
▁സാഹചര്യ
válasz
kék
ордон
▁mīl
▁kožo
▁ଆଦି
ทับ
▁குறித்த
▁યોજ
▁шляху
▁ہل
셜
オンライン
แขก
éducation
▁Ақтөбе
▁סעיף
itä
▁tüdruk
▁заснован
감
ختص
▁लाइफ
▁الفرنسية
▁estación
stämma
▁زند
ή
ेत्
▁vəzifələr
گيري
▁стабилност
ಾಗುವ
▁jāie
▁sürət
早い
▁հանդիպման
▁เที่ยว
▁øye
▁дайым
▁پیچ
▁bæta
ανά
▁праблем
ائى
▁લઇ
Категорија
▁əmlak
dición
ಗೊ
ച്
ወድ
▁الثالثة
çiler
čiams
dıklarını
१३
▁සේවක
▁dårlige
ываем
▁принципе
▁ຫມາຍ
▁kokë
சரி
ляли
▁이하
дачу
▁జరిగి
▁भारतको
▁පිලි
ОВЕ
▁síðast
▁මුලින්ම
あ
▁गरेपछि
▁કઈ
▁francés
▁ଗଣ
▁domače
четком
▁برائے
▁Скоп
ର୍ଟ
▁молча
▁বাংলাদেশে
росли
▁ସିଂହ
음
▁måneden
▁وشي
▁අයිතිය
▁نيست
▁Зі
ману
ফিক
▁болуш
графія
▁почеток
യറ്റ
इंग्रजी
입
▁příběh
▁نباشد
▁obračun
▁Média
▁übernehmen
▁көрө
ରିକ
ēna
▁química
▁чувствува
▁نواب
جلة
▁දන්න
▁жасаған
▁ಕೃಷ್ಣ
มูลค่า
▁kérdése
خلص
нева
▁калк
▁ഒരേ
ുണ്ടാക
агдсан
▁žalost
▁оформлен
▁תה
ార్థ
сік
▁sèrie
▁крім
ន្ធ
▁पढ़े
へ
تخصص
▁tərkib
▁præsentere
▁wyraż
ೆಗೆ
ពាន់
пес
▁жеткізу
มาถึง
lüyü
▁исключен
▁særligt
▁vẽ
▁وجل
ෙට
▁Страх
แน่น
▁béo
лівы
იყ
▁pròpies
▁Silahlı
ຫຼວງ
▁సంతోష
kõ
▁шинээр
전주
ટિંગ
周り
▁његово
баў
▁mbështetje
▁İz
▁पूर्वी
സ്റ്റാ
▁reál
บุก
▁encontrará
ведено
loží
▁манастира
▁ночь
▁правите
ため
▁získá
▁במחיר
▁അന്വേഷണം
▁సమయం
ដែលបាន
▁משום
▁баланы
जीवन
שמאל
ወል
▁هاء
လံ
▁comentário
▁маці
▁команду
▁때는
▁pārāk
ទស្ស
▁הסת
ਪੰਜਾਬ
▁தெரிவித்த
ımızı
ເຮັດວຽກ
постави
▁yolları
▁ມາດ
▁бреме
▁животу
ന്നാ
▁الرابع
ମାନଙ୍କର
wają
▁izraža
▁складається
ΙΚ
▁trương
▁jakoś
▁مشت
▁rrugën
と言われています
ιμα
▁ריי
▁производството
그
уудад
индеги
▁иду
ркі
cină
దూ
බැ
çek
▁한다
ÁM
▁الاجتماع
إصابة
ески
▁आफै
▁идеолог
ゆっくり
▁sənaye
▁arrivé
▁байгуулсан
රයක්
▁επε
▁ئايرى
最後に
체계
klī
▁چلے
▁допълнителни
▁Mục
ផ
ရုပ္
▁пришли
ిస్తుంది
Δεν
▁şekil
рық
▁слави
октябр
јети
వన్
▁közzé
Đ
▁explotación
▁programação
▁предпринима
▁газраас
γερ
▁цифров
▁адрас
▁ارتقا
▁Xã
▁ጉዳት
▁טיול
▁फोरम
▁ජාති
ราม
を受けた
▁আলী
▁जरा
являється
ულს
පල්
పర
▁произнес
คาสิโน
päätöksen
▁καλοκαίρι
▁skutečně
▁매력
▁хүмүүсийн
▁делото
▁నిన్న
▁Între
▁Σι
ვედ
▁ишмер
žų
ξ
ставляет
матри
ποί
▁خوند
ടക്കം
▁познато
०७
▁हॉ
ସ୍ଥଳ
▁měsíce
▁օգտագործել
▁билдирүү
রুল
កើត
▁تبصره
ประสิทธิภาพ
▁Bölge
▁특성
▁használható
لوگ
▁लढ
▁때문
ໄຫ
▁krí
▁thánh
مبادرة
▁تاسیس
▁သူတို႔
▁získať
▁करण्याचा
▁देखते
جبهة
ህል
ämä
▁státní
▁извршен
იდი
▁پیٹ
ასი
▁둘
▁буди
▁vašu
▁незна
ਦਾਸ
설
▁دولتي
▁içer
▁लाई
ありました
▁резко
▁chúc
▁okamžit
สารสนเทศ
ວັດທະນະທໍາ
줘
▁развитию
▁श्रद्धा
간
รุ่ง
▁хэт
laşıb
▁يزيد
▁රටට
совет
▁Není
földi
기자
▁dhí
▁неким
▁Ей
نظار
▁بيانات
त्स
▁ზედა
▁Žensk
സമ്പ
▁코드
דון
ફે
▁Склад
ІТ
▁käib
▁الاب
येत्
ッ
▁distância
▁звернення
ഹര
▁носител
ส้ม
▁االله
ЫР
▁خواسته
▁vecí
чё
ღერ
Так
беларуску
යෝග
▁ponaša
아트
לול
রাই
▁lietošanas
ບໍລິສັດ
▁Ø
ത്തിനായി
▁фамил
ष्टा
ಜ್ಞ
▁الفور
▁érint
▁ನೆನಪ
ສະເຫນີ
▁нууц
▁Процес
▁қаласында
▁මෙහිදී
▁рекла
▁riittää
▁novým
▁lág
ပါပဲ။
▁ලැබේ
▁നായകന
▁жұмысы
færslu
▁ოჯახის
▁Интересно
зул
▁приехал
വിട
▁öğrencilerin
ค้น
tivní
oucí
とにかく
פתרונות
▁vurğulayıb
սենյակ
▁Разбира
▁नेम
พระเจ้า
▁चिकित्सक
▁продуктів
ところが
▁менің
فائل
கிறேன்
เสือ
▁שמן
ärer
▁решението
▁തോന്നി
কেল
▁පට
jó
ुं
खत
በለ
Cilvēk
▁мобилни
▁מישהו
זמנים
▁క్రీ
▁елдің
wiązk
▁উপজেলার
ಿಯನ್
▁ręcz
▁comisión
を食べ
▁Špe
iktų
▁딱
운전
اچ
▁vaših
▁विल
▁szállítás
▁මිනිහ
തുകൊണ്ട്
ഷൻ
قيد
▁بگذار
pój
зії
▁किंमत
▁vâ
cyjną
▁многи
▁bölgede
โชค
ার্ট
▁خطا
ాయ్
ደቡብ
▁miało
▁Кому
ଦେଇ
мија
▁Præ
മത
გამო
▁강
▁ونحن
▁beställa
▁হওয়ার
ιακής
▁שינויים
قاع
▁Aztán
lənib
▁ਮਹਿ
▁datë
တာကို
▁валюта
օրինակ
▁відкрив
▁نقص
ঈ
▁బ్ల
▁največji
▁바다
īri
ചിത
اعية
льними
ใช้บริการ
▁சம்ப
▁پڙه
ఢ
주셔서
튜
▁хочешь
▁münasibətilə
▁स्वदेश
▁халықтың
▁قيد
ıç
▁пределах
שותף
▁වර්ෂ
த்தது
▁संदर्भ
▁なお
▁افکار
▁በቅ
▁поднял
ることで
éért
주년
ነቱን
ੰਗਾ
▁желаю
ត្ត
சிங்க
▁करावे
باي
▁절대
तुल
МБ
▁המון
няв
மர்
ਜਰ
づくり
▁Закарпат
▁Председател
▁કાર્યક્રમ
▁sākumā
дневен
▁तौर
адам
▁حلف
▁rádio
▁løbe
▁цяло
▁actuacións
▁எண்
lamış
▁பெண்ண
ধু
▁катастрофа
▁скра
▁요금
▁unnið
▁päätös
みる
▁løn
▁Одлука
▁עסקי
があると
دے
▁պատմության
▁использован
නයේ
▁कपिल
럭
ยื่น
▁بەرگەن
▁설계
▁förvänta
▁África
ушки
තාවය
וכח
увався
λεκτρ
▁ताज
ằm
▁tänava
ひとり
dzię
تحول
▁Вашите
ישות
▁جميعا
ੰਸ
гүүр
ուխ
▁जाऊ
ພ້ອມ
▁קני
▁정확
▁паўста
កម្មករ
เยือน
เพียงแค่
▁убежден
▁የኦሮሞ
▁мањи
▁जिम्मेवारी
plní
ങ്ങൾക്ക്
ڊا
▁அவர்களுக்கு
यन्त्र
▁sieť
▁musíme
▁մարմնի
פנים
สร้างความ
▁αλλα
োনা
▁المناسب
▁маалыматтар
КӨ
зло
▁үгүй
▁реф
▁давхар
▁шума
▁растения
ווייַ
тычныя
ციული
▁단
▁naročil
最初の
▁რომელთა
▁Джу
ІІ
▁qüvvələri
ાંક
வுடன்
▁డై
тааны
▁британски
▁підстав
▁дълг
år
கல
ಚಿತ್ರ
▁സ്ഥല
▁पाउन
▁спомена
కున్న
し
▁часта
▁національного
tööd
▁கதைகள்
▁постојат
▁분명
▁sonuçları
▁ორგანიზაცია
▁కథలు
▁పైగా
▁ගන්නවා
гъ
▁básico
မူး
ánach
▁законодав
אָפּ
▁безбедности
غوا
ก็สามารถ
▁осам
ვნი
átka
▁ଫେରି
াক
▁발
കാര്യ
▁ચાલુ
▁complète
▁vzdeláva
▁сестри
lā
▁pokračuj
▁उससे
▁άμεση
▁éco
▁attól
५६
▁লীগ
బాబు
▁꾸
കരമായ
િટી
ІЯ
▁একই
▁წავი
ર્ષ
స్తున్నాయి
▁digitáln
▁эсте
තක්
▁የቤተ
▁دستگیر
レッスン
▁conférence
▁ล้านบาท
▁Stáit
▁zajęć
▁მოგვ
āt
▁అధికారులు
▁영업
სხვა
▁øyne
▁karşılık
▁લોકોને
שיעור
▁борби
▁зустрічі
▁ανακ
▁großes
▁Сталин
оном
ολόγιο
▁روزها
▁الجب
คลิก
▁využití
устойчив
▁станц
▁бүхэн
fíci
களுக்கும்
▁වැඩසටහන
▁нарийн
いろんな
▁Trọng
ተካሄደ
निमित्त
▁کلتور
▁എഴുതി
▁అప్పుడు
▁المعروف
▁છેલ્લા
통
▁přijde
▁माजी
▁କଣ
▁মধ্য
▁словно
▁پنجم
▁једини
▁الدراسي
▁دومین
த்தையும்
▁урбан
LÍ
ପର
▁программе
▁агуу
byśmy
▁narių
▁чара
タイミング
▁распаўсюд
▁колледж
▁kırmızı
▁ბათუმი
▁ବିରୋଧରେ
▁ավտո
▁Δημοκρατίας
▁వారిని
бын
متع
▁программу
▁სახის
▁جناح
▁opportunità
▁počtu
ចាស់
▁þína
▁höjd
นู
غىنى
४९
▁مواطن
▁Ülke
▁రాజ్
ött
▁прекр
▁мери
▁अन्न
▁خانہ
тину
hôtel
เน็ต
aplicació
ುತ್ತಾನೆ
絶対に
제도
け
ுற
▁పరిచయం
▁שפי
▁generación
▁סופר
▁глави
▁frö
▁провежда
staviť
▁Опис
▁کرام
▁раёне
▁بوي
▁фасад
ിക്കാന
أزمة
▁мезгил
зважаючи
ంటాయి
ирајте
▁بلاول
คริส
▁ಖಾತೆ
▁غنی
ምርጫ
ψ
강
▁боловсруулах
남
тэт
관광
▁چالش
मंड
▁सरल
stawić
生まれ
▁разрешен
▁бій
cího
▁لکيو
लिका
▁difusión
▁저
ñez
▁ਦੇਖ
▁другая
▁direcció
▁यसका
토
ساس
▁Savienības
▁волос
стройств
▁המחשב
▁газов
▁اخرى
ስል
akên
▁túc
▁같은
▁රිකා
ریس
▁ശിവ
ГРАД
▁सारी
ਦੇਸ਼
ાનો
▁ਮਹਿਲਾ
័យ
പിന്ന
пустили
لند
分け
というか
เข้าถึง
▁பொருள்
▁Ελληνική
▁населени
▁alıp
▁Škoda
▁ослободи
▁темы
▁בשנה
▁кстати
ундагы
▁դատարանի
▁görüşüb
하며
íochtaí
▁იქნებ
▁زمن
▁Муж
▁المحلي
ოვი
টিভি
នារី
▁મૂક
תיאור
▁слуг
▁መረጃዎች
▁páxinas
▁가장
höf
▁мої
▁μονο
מרחב
ложено
იდა
面白い
арство
トレーニング
▁ਅਨ
રાષ્ટ્ર
▁ऑस्ट्रेलिया
▁Луганськ
▁ভগ
▁၂၀၀
▁اللعبة
বীর
прозрач
ванняў
▁औषधि
▁југ
▁réuni
▁ölkələrdə
قون
થે
▁келтір
०९
โดยไม่
ීමේ
довольн
శారు
лц
▁شادي
เปล่า
アドバイス
ദൃശ്യ
▁Vždy
คุ้มค่า
▁بېرته
▁مشترك
▁önüne
▁לקנות
▁الكمبيوتر
ডা
рый
▁jūt
Гол
▁študentov
▁بدین
현
ነገረ
हरे
קסי
ефективни
▁kiribû
իլի
מיקום
ಟೋ
▁нормы
いて
Não
оров
ຄອບຄົວ
มูลนิธิ
▁aģentūra
▁Gửi
▁අනෙක්
▁забезпечує
ുവാൻ
▁τρί
▁hổ
ガン
▁јавног
▁ходи
Бал
люд
▁politică
▁ಅಪ್ಪ
▁värd
▁πιά
መንግስት
▁інвест
ાર્થ
보증
▁завршен
Все
▁nêu
▁крови
なかった
рахування
vrši
▁Wrocław
▁kedvezmény
▁scríobh
▁текстови
▁त्यानंतर
▁çalışması
▁요소
νές
번째
висока
oài
сіў
▁værd
ნდი
▁راهکار
▁kādas
▁חובה
▁færre
▁udělal
व्हा
вођење
ពីរ
▁вълн
▁zaključi
कर्त
▁ஆப்
تني
▁موڪلي
ићи
そもそも
▁díreach
▁Chiến
mā
សុទ្ធ
▁протести
▁mélange
▁يعيش
େନ୍ଦ୍ର
කුරු
үлдү
▁കരുതി
▁बनाएको
fehér
риан
▁අවි
▁døds
ລາດ
язы
ғанда
▁لکڻ
හන
య్యా
▁রান
سكو
심
▁pé
▁ସମ୍ପର୍କ
ប្រជុំ
スキル
▁долги
ปรึกษา
ók
▁Ég
פייה
원은
かかって
▁машине
▁өч
▁sälja
კული
ಕಾಯಿ
▁많은
▁støv
▁Élet
만을
න්නෙ
ріл
▁төменде
רוד
ଗେ
▁బాల
škim
▁දිවි
നാട്
▁dilê
▁خلالها
▁kölcsön
▁വെടി
▁jednání
▁këngëtar
임
▁وحدة
コーヒー
kläd
だけ
▁Kodėl
▁tăi
▁commencé
▁cieľ
▁روايت
čaka
▁במה
▁දරුව
коруп
▁Норма
ለን፡፡
ზღ
▁навукова
▁Флор
▁θέλω
ád
मैन
чнага
ไม่ควร
дзю
వచ్చ
ဇီ
▁Förder
áků
ความจริง
جنس
▁индустрия
परी
brä
ประเด็น
▁Təbii
▁துணை
▁Văn
▁бичгийн
ტარი
▁מבחינת
▁ئۆس
▁кездесу
larımıza
▁zählt
▁turės
▁javítás
івський
ยาน
▁usuário
여성
▁чиглэл
آپ
വിനെ
▁préparer
▁älska
書いた
▁sæson
▁هى
▁цэнтра
ดูรายละเอียด
▁దూరం
▁намаз
▁vatandaş
とりあえず
▁મુદ્દ
▁있던
▁tamaşa
▁ਛੇ
▁módulo
▁ценности
правда
▁आँखा
▁сиромаш
리스트
▁സത്യം
▁отпуска
▁ұш
▁جنگی
ຂອງການ
▁Məsələn
▁나서
▁मुह
▁жетки
치고
▁వెళ్ళి
ותם
שמע
ديس
षि
▁સ્ત્રી
▁التركي
▁Idő
없
ങ്ങളിലെ
hờ
▁শিক্ষার্থী
သုိ႔
▁بىلدۈر
▁вежба
ស្ស
▁ايندڙ
▁그리고
▁φάση
онт
▁качан
)。
▁صفحة
부터
▁අහන්න
▁Центра
ጠቁ
రేషన్
▁првог
▁బ్రహ్మ
▁વસ
አቀ
พุ
▁teljesít
▁Трен
ผู้ป่วย
▁මැතිවරණය
▁రకాల
▁смърт
şîr
ຍາກ
תוצאה
പ്രസംഗ
ość
▁చేస్తుంది
▁turpmāk
ನಾಥ್
▁فندق
ירוש
kü
ಾಯಿತು
▁כעת
▁आफूले
Тур
▁तदा
იზაცია
▁danışma
▁سۈرەت
នុ
▁работите
▁екологічн
алж
▁кыймыл
elės
▁хуульд
евдин
▁نڪري
tinę
▁сенс
ฝรั่งเศส
▁społeczeństw
▁đuổi
▁सिम
▁výstup
أفلام
▁الطبيعية
▁Србима
සක
rätten
værdig
▁العمال
▁שהיו
▁маска
ىرىپ
្ត
очный
ාගාර
▁الزمن
ém
лія
rādi
▁econòmica
▁klíč
سین
の方々
▁nişan
ിക്കാം
▁Sitä
▁običaj
జూ
ଖଣ୍ଡ
▁جستجوی
▁बाग
оўнік
šajte
っていました
τίθεται
▁hodiaŭ
キ
▁részlet
pišite
ຊົມ
▁ΜΑΣ
▁szülő
▁어
▁Също
▁الكبيرة
لىنىدۇ
ленген
ਦਿ
യാണെന്ന്
ālis
баяр
לאנג
▁érkezett
▁шарты
რვა
비가
さん
ਛਾ
▁ਕੇਸ
ទី២
▁включает
▁좋은
▁چای
▁माणसा
รวบรวม
▁izstāde
▁английско
▁Главная
ເຈັບ
▁охраны
▁स्वच्छ
ひと
▁Itä
▁xərclə
manî
დონ
▁soutěže
اعتماد
になって
際に
▁заклик
▁добавил
ΟΥΝ
ఠ
▁आयात
догу
طعام
▁групу
▁גלו
▁Parabéns
હે
▁කිහිප
▁शरद
θυμ
▁مجاني
▁ambaŭ
▁змогу
بولي
▁থাকা
▁الكرة
▁घुम
ឧ
Gənc
Труд
▁Presentació
▁beállítás
▁монах
▁rodičov
▁سورة
חיבור
▁провеждане
▁еко
ιχν
ለሰ
▁Прем
▁класі
வேளை
कुश
▁بالی
lícula
▁Själv
ús
▁남북
스럽
▁ћете
▁hóf
▁дисциплін
▁Иска
ేషన్
んだ
▁վկայ
▁знања
piemēro
вство
מקום
▁കോള
をはじめ
▁คุณสามารถ
▁მახ
▁Μην
▁رہے۔
しますが
▁आउट
▁ಪತ್ರಿಕೆ
เทียม
rä
α
▁γκολ
ອ່ານ
▁поняла
▁اليڪشن
▁majorité
られる
▁관심을
ইস
▁الاقتصادي
▁القضاء
▁информацията
▁내용은
▁uğurla
تكم
▁keçirdiyi
▁ارض
حسين
жень
▁გუნდი
▁باران
▁Дараа
▁втория
қай
▁دوو
▁seçenekleri
dön
▁қыс
▁Путін
۳۱
іздің
ਇਰ
টায়
▁közönség
밍
šené
▁δίπλα
▁பயணம்
björn
▁ಹಿಂದಿನ
▁خسته
▁þekki
насил
머니
▁réteg
▁ገብረ
dığında
ണോ
ဖတ်
눈
ような
hlásil
▁ප්ර
▁모르
бърз
らなかった
▁ኢትዮጵያን
▁પદ
▁хэрэглээ
대의
નાથ
なんと
ക്കാനുള്ള
▁невин
▁земља
▁Оқушылар
ផ្ញើ
▁որոշակի
▁uzmanību
▁Атанас
▁übrigens
▁kakšne
▁მდგომარეობა
▁боловч
더
▁בפייסבוק
తిని
ιακού
ណ្ឌ
▁жолдо
követ
▁पॅ
טת
стям
አሜሪካ
▁צעד
ਪਤੀ
ũng
ரெ
▁játékok
▁دانه
▁játszott
です
ంగి
▁студэнт
เนียน
▁dotyczących
όνων
▁ਪਹਿਲੀ
▁Τσίπρας
ويض
▁Ами
ล่าง
tettävä
▁bivši
▁персональн
▁mõista
석
تغي
▁దర్శక
▁штук
▁особам
▁نوی
▁විශේෂයෙන්
:「
▁интересу
ໃນວັນທີ
ผิวหนัง
হত
▁Мени
▁въведе
čiui
สังเกต
▁Слободан
ο
▁итд
▁היד
ൻഡ്
søgt
▁ресторант
▁لكنه
אפט
▁Сапар
▁төс
▁Віктар
перс
ЕКС
များအတွက်
ห่าง
▁фестиваль
▁гражданско
ఫర్
십시오
▁priemonė
വിരുദ്ധ
ห่วง
▁освободи
kêş
▁τ
друго
働く
השקעות
▁seleção
▁남
ЛЕК
▁בחיי
▁ቅር
ऐ
ník
▁употребу
прием
▁ରିପୋର୍ଟ
sträck
▁НАС
ਰਾਜ
▁España
מול
▁жетекчиси
▁szépség
▁കാറ
ροι
ሕይወ
▁ਕਿਸਾਨ
▁वास्तव
▁아이폰
▁дәрігер
cción
▁მთავრობა
ជាប់
სპექტ
▁Вел
નીય
røy
▁పుస్తకం
▁герман
▁مزا
▁पुगे
▁Základní
▁hænge
▁సాయి
▁ലാല
なんで
სტო
호텔
▁түсті
▁viděl
მწვანე
▁দিনে
หว
お仕事
▁prøv
járól
stöðum
ителем
▁пацієнт
▁Akademiyası
させて頂きます
ประทับใจ
▁ਜਿਨ੍ਹਾਂ
▁신뢰
▁игровых
▁رویکرد
▁gjennomført
▁असतील
▁vašega
▁virðist
▁البيئة
្រា
တည်း
่อง
▁nádob
▁сабак
سوق
▁عده
ństwa
▁Модел
੍ਹਾ
▁syytä
ирања
भक्त
前から
▁вважають
▁férfiak
ット
トン
▁ಪಂದ್ಯ
ディング
πρόεδρο
สํารวจ
▁Szövetség
▁măsură
▁különbség
▁المؤسسة
▁Polaków
겠지만
▁הצליח
▁пратеници
▁предпоч
▁Свобода
▁делом
▁règlement
。“
ുകളെ
▁филмови
స్తాయి
▁खरं
▁åkte
▁маск
▁прэм
ፊል
▁Mária
▁நடு
မန်
▁מוצא
ИЙГ
▁උදා
▁tlači
ຫມາກ
▁വിശേഷ
▁войска
يمان
ပံ
▁Еуропа
▁דארף
fjarðar
▁الموافق
λμ
▁பயன்
เซล
тельности
▁ánimo
háló
▁ומא
▁نفسك
षु
▁независност
ι
มม
▁rolę
▁новог
▁접수
▁ჩარ
▁екз
ઇટ
น้ําตาล
Тоо
▁мільйон
böl
បញ្ជា
▁ದೆಹಲಿ
▁Търново
ბერძნ
Оюун
頂く
öiden
증권
▁μπορώ
▁főleg
▁darbā
▁کچه
ציג
នាម
કારી
▁위한
▁цэнтры
ряжен
なく
▁ورزی
ючі
چىلار
▁Пријав
شناسی
▁פלי
ところに
▁прогноза
▁හීන
סיכוי
ົ້າ
ພຽງແຕ່
▁тоглолт
▁빠르게
▁гурав
▁принципа
সংযোগ
▁کښې
ანდა
հետ
bháil
▁Швед
▁работна
▁अंग्रेजी
それら
experiència
헤
ვნე
▁مظاهر
मेन
▁ଟଙ୍କାର
▁படத்தை
▁փաստաթղթեր
מפי
▁هوس
īgiem
ম্বা
▁geändert
állomány
▁παιχνίδια
▁գործով
leştiril
აციო
▁அவருக்கு
▁ተነ
ਿਨ
포항
▁пусна
▁දාන
▁categorías
테크
нүүд
بقي
이라면
ສາມ
▁Vég
▁ከወ
▁Кине
តំបន់
▁Плат
▁ئۇچ
วรรณ
beszél
▁sākot
فيه
דיא
▁اہلکار
▁ಕುರಿತ
ネットワーク
一人で
seirbhís
ซ่อม
▁fytyrë
▁всякакви
ثنائية
ಯವರು
▁повреди
▁Comissão
▁реше
▁satışı
јка
▁дәлел
▁бивши
વડા
인은
っていう
출
▁τηλε
を進め
▁बाळ
その時
▁பிடிக்க
ຂ່າວສານ
▁നൽകിയ
ânica
サービスの
▁ഇള
の中から
ക്തി
▁дуртай
ജോ
とお
థా
ставляем
への
жені
앙
ônica
záleží
《
▁උතුරු
▁અમારી
גוף
▁बहि
▁कसैले
▁товары
▁पुगेका
▁níž
▁Mỹ
▁любых
ystävä
▁راستای
待ち
žimo
▁kariér
виконав
をご紹介
▁Batı
▁Лип
беля
▁Zlín
론
▁engedélyez
เดีย
▁pašā
▁إست
▁विद्यार्थ्यां
▁Gjykatë
▁Přihlásit
▁increíble
▁اسکا
▁felhasznál
σοφ
선거
rö
▁összesen
▁xalqın
▁szeretnék
▁ამისა
▁številne
çıların
が高く
▁بنائے
vést
ിപ്പിച്ചു
▁ысы
▁qardaş
▁gjuhës
▁встановлено
ตื่น
ເຊີນ
▁önálló
ડ્ર
▁धारणा
จัดทํา
▁പ്രശ്ന
ádá
▁વધી
▁максатында
ఎఫ్
▁самиот
▁ਸੁਰ
æl
▁патот
▁помогнат
거래
▁invité
▁Tác
ėlio
▁никад
▁agrícola
▁folosește
▁اړوند
▁երբեք
▁policisë
▁Güvenlik
sí
ړن
ことが
हरूमा
▁пожал
▁موقت
▁Yaşam
▁галіне
▁серии
▁poroča
▁учурунда
ატორი
ୁର
ỹ
▁euró
▁nadšen
▁автомобиля
гуль
▁приобретен
▁파
대행
ทําลาย
なくなり
▁kamēr
▁बाप
▁funció
ιτς
▁példá
පාන
เมล็ด
▁Aslında
▁geschützt
▁зорилт
▁təkcə
▁предпри
СТРА
▁облысында
ทราย
の間に
▁chargé
حاق
ბორ
▁кінці
▁עבודת
▁çıkart
▁Sər
▁izvrši
େଟ
▁அதிகாரி
▁простой
▁عسکر
▁sakinləri
▁ölç
▁хоће
ичката
たちの
▁wiedział
▁ਪਿਆ
ВАНЕ
▁lekë
নিউজ
ردن
▁Také
ทั่วประเทศ
ทะเบียน
ตั๋ว
▁täynnä
▁účinky
フレ
▁الإعلان
▁تنهنجي
▁चोर
▁მაისი
▁ദൈവം
Κ
▁යෝජනාව
기
시티
ቤተክርስቲያን
▁formában
ניצח
▁முடிந்த
▁firmę
▁Марковић
▁ජාතිය
▁دفن
▁이
ไน
▁estética
Ř
▁détail
▁طراح
нууд
hân
▁গ্র
▁хүлээж
▁Дес
▁나오는
▁pěti
▁közvetlen
ሒ
▁кеңейт
▁національної
▁සුළු
▁بېرىپ
▁nyilván
▁Güneş
버튼
아시아
რეალ
▁Boże
▁преп
▁برده
력
▁المعلم
клик
แจก
▁بردار
วางแผน
łaś
قع
ການຮ່ວມມື
▁Møte
▁válik
ထာ
કારો
▁pensé
노
świat
▁деңгейін
▁көбі
ництва
▁அமெரிக்க
ερ
▁स्वतंत्र
▁техническо
っぽ
クラブ
▁кітапхана
▁түмэн
▁қанша
▁надлежно
▁запазва
ערה
▁ചൈന
▁الكتب
život
▁مفيد
▁огне
▁क्षेत्रका
ాము
ພົວພັນ
▁būklės
▁የተቀ
วิทยาลัย
▁જોઇએ
▁העור
▁образовања
▁зүйлийг
▁ظفر
ສວນ
mérnök
▁cărui
▁الرياضية
▁çizgi
▁växa
っていない
ционные
વાં
▁представление
נעל
▁மகா
ányok
▁адносін
ंमध्ये
▁ಆಡ
цова
▁Котор
▁ähnlich
Ну
▁अरुण
ण्ट
ಬಂದ
ልስ
ливий
▁գործերի
▁попита
▁দেবে
▁internațional
ದ್ದೇ
ჯილდო
▁ଖାଇବା
▁skończy
▁podobný
▁അദ്ദേഹത്തിന്റെ
▁لديك
▁κάποιοι
▁qoşul
▁δομ
▁വച്ച്
▁знайде
lő
▁ایالت
▁તને
ുന്നവര്
▁процедуры
▁büdcəsi
fusión
▁등으로
▁singură
អន្តរជាតិ
▁установленном
▁싶어
▁komentáre
▁новац
▁پراخ
পাত
▁შემდგომ
▁പച്ച
शिप
ΑΝΤ
ವರೆಗೂ
ुका
▁епі
▁பெரும்
버
klę
lääkäri
دوار
▁tanıma
▁többek
▁αριθμό
배

ארוחת
▁zaščite
▁ଘଟି
▁შევი
▁smör
િશ
▁آخري
છા
ຫຼັງຈາກ
▁Воло
▁රවී
▁سرڪاري
ባረ
ości
▁seçimi
▁سايت
サイトの
Ogóln
▁силна
ຍິງ
▁electrònica
ることができ
სათვის
▁مجدد
ΙΑΣ
АБА
▁சமய
▁स्मार्ट
▁இல்லாமல்
▁سلسلة
▁đậu
▁Cənubi
▁ചെയ്യൂ
▁изгради
▁potrošn
▁הבלוג
▁выража
▁জনের
บุตร
▁представления
▁చిత్రంలో
▁असली
▁följd
▁कैद
▁bón
▁тешки
ασμός
ישער
▁γιορτ
▁ഉണ്ടാവ
▁नेताहरु
▁Тот
▁ստանալ
▁తాగ
▁skolā
ോസ്
öljy
ផ្សារ
▁øjeblik
▁oživ
เยาวชน
▁Fotoğraf
ūs
▁رہتا
▁ప్రో
లొ
▁காரண
▁Умовы
▁चरणमा
▁матері
ασμένο
átok
▁Вики
৩০
▁ئاخىر
ंद्र
▁spí
▁решавање
▁lämnar
▁belê
▁μ
هري
▁lancé
▁дозволе
ЕНТ
▁оставить
▁Hazır
▁Nä
▁labā
▁específicos
▁தெரிவிக்க
ацијом
▁körülmények
▁ستونزو
सारख्या
▁المقرر
полнение
פֿן
וניים
لاشتۇرۇش
clé
▁fëmijëve
▁четко
▁айтыш
▁مانا
แผนที่
سوس
화가
▁اللهم
▁gördük
ījusi
▁شوهر
ляції
nā
▁სიტყვები
▁පොර
ærer
ύρη
▁ئىشلى
ወጣው
കാരന്
▁இள
ρεί
▁Heç
▁ырда
plé
▁يحب
ပစၥည္း
ഛ
▁выкарыстання
▁Андрэй
▁چڪو
▁səfəri
▁전환
▁ततः
домашн
kártya
の
ล้ม
▁ümid
▁համարվում
▁kalın
▁dûr
နို
औँ
tekintés
ଳୁ
ُّ
▁δ
ుంది
▁여
увало
Kö
οντα
வில
ੰਦਾ
बुद्ध
▁õnnestu
▁հասնել
tumėte
▁පුර
▁אלינו
пустити
▁ремонта
▁साँ
▁തട്ടി
lī
▁միջավայր
▁ଖୋଲି
▁επιστροφή
▁шийдвэрлэх
▁වුවත්
▁његовим
▁компаниуд
▁ოპერაცი
▁അതിനെ
▁κυβερνητικ
▁ଆଇନ
ၾကည့္
▁салуу
▁bağı
ාධිපති
ğumuz
スポット
▁límites
klá
ରାଇ
arðandi
δα
▁알아보
▁දවසක
születés
▁மார்
▁группе
▁называют
▁сећа
▁биха
▁шешім
▁καταφέρ
だし
▁Ошондо
អាមេរិក
▁учебни
▁объединен
▁Hợp
▁άσκηση
▁клітин
август
▁mínútu
▁сусід
▁особе
आज
▁tiếc
▁öte
▁Βασιλ
▁بينها
▁الوجه
▁محم
▁사람의
wóz
ುದು
▁sonuçlar
िणी
▁духовни
▁свободы
ടും
▁gratuït
câ
وسط
▁आयु
влечение
▁nút
▁агентство
ੈਂਸ
ນາຍ
ília
ؒ
▁ngừa
ຖາມ
▁شیشه
दम
▁सक्षम
▁удаагийн
▁የትምህርት
▁gjerë
▁ايف
들을
Единствен
sýni
▁शकते
▁كنيد
лерінің
ရႈ
ذلك
ሏል
▁рачунар
ნქ
▁leşker
дэнт
ановић
ቤቱ
ىلدى
соціал
стил
ційної
▁Programı
▁खड
▁એમાં
Мобил
መቅ
▁കാട്ട
▁tokį
สงขลา
▁καφέ
▁sübut
ហ៊
förbund
▁논의
ಕರಣ
ເນື້ອ
แทบ
직
▁օդ
▁لگی
▁اختصاصی
खेल
▁hız
ບໍ່ໄດ້
▁ಅಷ್ಟ
▁ჟურნალისტ
▁показват
ระเบียบ
ທີ່ເປັນ
▁কমিটি
ក្រោម
▁последно
वाडी
พลาสติก
▁hvenær

▁निर्यात
สู
▁đốt
▁영역
תוספת
▁מעניין
▁برطرف
▁gdzieś
ाधिक
▁пісні
වීමෙන්
▁xâm
자들은
▁дето
▁заявіў
kvöld
рения
णार्
јско
ótica
▁അച്ഛന്
お問い合わせください
▁лицом
▁მთელ
▁ზღვა
▁оборони
vægt
▁първа
чувати
పడుతున్న
▁दिव्य
έφερε
▁потребности
넓
▁оприлюдн
▁Qüvvələri
반
▁ବିଜୁ
▁літак
▁актілер
▁എന്നതാണ്
▁თვე
▁ದೂರು
שיפור
▁अत
σιμη
▁péri
▁недель
▁വാങ്ങി
▁ചെന്ന
терорист
дух
୧୨
ებოდნენ
▁явуул
свобод
ivité
当たり前
▁ідзе
▁დადგ
▁básicas
▁страха
▁mərkəz
รบกวน
небудзь
▁σημαντικά
▁henkilöstö
▁шкіл
▁tətbiqi
▁לידי
▁الجوية
▁ističe
कुठ
ný
ជាមួយនឹង
▁каждому
дици
נגר
نضمام
кок
▁мења
קומה
▁mədəni
▁kurām
មួយចំនួន
informació
▁кыйын
▁западни
▁tränar
▁megnéz
î
▁pruži
▁написать
▁ಕಾಮ
▁अट
自分は
▁tədbirləri
▁idején
▁фудбалер
▁síður
▁хуралд
ให้เห็น
דרכה
▁маси
フランス
ಳಿಗೆ
▁المسجد
하려면
▁centrál
▁Бидний
▁వీడియోలు
▁притвор
érő
▁näitab
▁մանկ
▁qayğı
слыша
▁מבית
জ্ঞ
▁chả
ետադարձ
ьба
ጥራት
▁ଦିଗ
▁učiteľ
▁ನುಡಿ
ತೋ
▁വലിച്ച
▁Správ
▁Данил
▁xatırla
▁amaç
▁Kā
ிக்கும்
に必要な
нцев
▁לבר
▁pracovník
▁nástroje
▁《
āli
ਰੀਆ
ផ្នែក
▁стању
ទៅកាន់
▁previše
▁nuværende
▁खाद्य
▁дошао
▁vəkili
сады
▁የኮ
▁получават
彼は
αφή
▁художн
▁గాయ
▁Стари
▁ತಿಳಿಸಿ
▁மனம்
▁түсіндір
▁затвора
řízení
يوې
ثور
라고
▁tıklayın

▁kažko
▁майрам
ത്തുന്ന
▁chối
عترف
▁неопходн
▁Γιάννης
▁сѐ
▁Brü
જ્
▁යාපාරය
గ్గ
▁משחקי
βό
ುತ್ತಿವೆ
▁өгүүл
▁درصدی
▁замисли
▁କରା
▁ಮಾತನಾಡಿ
▁παραγωγή
▁місяці
▁kjære
▁минава
▁Abşeron
▁ausführlich
▁varumärke
képes
▁більшості
▁искуства
▁красива
ЕННЯ
ष्टि
ுகிறார்
▁kvalitné
▁глазах
▁Источн
društven
ವರಿ
▁भारतात
▁распоред
▁ಹತ್ತಿರ
▁나를
ようになります
▁төгс
▁explicación
▁күніне
▁عرفان
ૂલ
ธร
▁বাংলাদেশি
چونڊن
▁정보
കുറി
▁ସଂଖ୍ୟା
チケット
▁Рэспубл
▁nghìn
डम
לום
▁myšlen
▁måder
▁Дуже
නාව
▁타고
▁серця
зіць
▁ректор
▁направят
päivää
ዎችና
вршен
▁передан
חזה
ച്ചാ
인
▁cù
ได้ยิน
▁моє
▁Билим
▁එල
என்ன
ស៊ូ
歩いて
▁Γιώργο
▁دیدم
▁निवास
▁adayı
▁βήμα
▁అద్భుత
▁چوڭقۇر
ঢ়
▁것이다
▁Možda
▁دشوار
▁очекива
▁втрат
આર
▁그들은
▁Grön
قاعدہ
▁موسى
▁مدة
▁Navíc
홈
єкти
ינר
▁подій
מגוון
▁पाठव
▁ფონდი
▁проценти
ЕЧ
fähigkeit
Γ
▁ప్రయత్నం
▁депутата
▁наступа
loženie
적이고
▁मोहन
▁əmr
▁काठमाडौंमा
▁মানব
▁דמ
متحان
▁reunió
ttömyys
ຂະຫນາດ
▁háirithe
▁분쟁
▁ਕਰਦਿਆਂ
▁বাবে
▁הציבורי
▁አቅ
▁особисто
▁ஆறு
▁вестник
연구원
▁главным
▁тіркеу
сайхан
امات
موضوع
ጌታ
eszköz
▁веће
▁يرى
▁kümme
▁పైన
▁வேக
держав
▁текстове
голяма
وجد
ופו
Հայաստան
డిగా
▁брут
▁λιγ
▁بچی
ഃ
▁αληθ
▁döntött
gebühr
▁ismerős
▁ಕಾಯ
▁ಮತ್ತ
▁першай
पुरुष
ฮั
ضبط
Cİ
ണര്
ያደርገ
▁دیکھی
פרד
▁Апа
шүү
태
ခတ္
▁седми
▁pád
▁obično
▁куди
▁Новий
▁silný
▁የተሰጠ
▁හිතුන
สาวๆ
▁gjennomføre
▁Вит
▁izvērtē
▁Μάρ
▁რამდენი
ศิลป
···
Korisničko
▁iegādāties
શાસ્ત્ર
▁верзија
▁വരിക
▁अंध
▁მოძრაობის
árás
▁Uzņēm
▁вреди
▁مهمی
სწავლა
▁ανάπτυξης
▁компанијата
ניסיון
ερό
тяга
▁ڏنا
おいて
νομο
▁вышел
ક્રો
່ວ
႐ွိ
▁යුත්
νδυ
نسي
▁انگلیس
maðurinn
▁makinë
▁πρά
שואה
▁Cố
▁આપના
סטודנט
▁ಪ್ರಚಾರ
ຈັບ
▁esperança
▁נולד
ເຈົ້າຫນ້າທີ່
▁ഭക്ഷണം
▁lägre
▁알
യാണു
sūtīju
ፈልግ
▁جراح
ସାଇ
வீடியோ
▁прават
▁lăsat
▁قهرمان
▁deputetë
▁ماست
īs
מטופל
feltétel
▁سماجي
▁위
▁പതിവ
രചന
▁podkreśla
》
なので
▁کانون
▁qetë
부를
▁seçə
▁الثلاث
シーズン
kaké
▁δικαιώματα
▁кабінет
▁शेअर
▁თემაზე
▁atuação
▁pārbau
▁оплату
▁Tôn
▁Česku
▁ਸਵਾਲ
ვდნენ
ባቸውን
ଗର
▁säilita
واری
далеку
시험
▁կարգավորման
ルーム
▁ئۈز
माझ
▁nepār
долларын
משרד
дзень
льская
▁Онда
▁አላቸው
ഭ്
▁kaçır
Академ
▁naročila
▁инициатива
ప్రదేశ్
Калифорни
▁հայերեն
▁Trị
란
▁Максім
કલ્પ
เหลือง
▁erősít
ಿರಬೇಕು
▁عباد
▁duši
ಬಹುದ
▁న్యాయ
מנים
気がする
лазе
▁تسم
▁дохода
ицама
そう
▁węd
▁технички
▁független
▁végét
▁دانشجویی
での
▁zayıf
▁özünə
▁родителям
лянд
технолошк
▁ഹര്
▁خمسة
やす
▁ölüb
▁окремо
래
വിശ്വാസ
▁विना
ΣΑ
ڑوں
szyć
▁araçları
ກວດ
▁pięknie
іміздің
▁किम
ν
飲んで
▁చూసిన
▁ଓଡ଼ିଶାର
▁կտր
▁партиясы
▁また
寄り
ଫର
θρησκ
éirigh
เกณฑ์
▁Alapítvány
일
▁örugg
▁Değer
▁측정
arrêter
▁പേടി
▁ذڪر
▁központi
▁박
되는
غيب
▁معلوماتو
▁chùa
▁любые
▁tillögu
▁불
▁xalqı
λαϊκ
вшиеся
سلطة
ுவதாக
ילן
เนื่อง
▁ტექსტი
▁miesiąca
▁katılma
▁ජාල
▁Технологи
▁бутон
pojení
אוט
დრა
▁корак
ىكى
▁законодателство
इन्
▁והן
၂၂
▁мектепте
▁Ет
กัด
▁прекрасни
ադրբեջանական
हिल्यै
▁пристигна
▁þörf
▁प्रतिष्ठान
했어요
▁complètement
ຄອງ
ຂໍ້
▁Phá
▁рукой
▁încet
बृ
▁rodiče
बन्दी
Забав
▁العرض
କାଶ
jímá
完全に
▁كەنت
ಬಾರ
▁квартира
bú
▁неког
▁ಅಪ್
▁aylarında
▁குண
▁വാർത്ത
▁അവിട
laşmış
▁sədr
δοση
ിറങ്ങിയ
ట్టే
始まり
▁тийиш
Ử
▁Eskişehir
▁associé
▁სჭირდება
තුංග
▁үлдээ
▁কমিটির
ปั่น
▁rodinné
فارق
▁детайл
▁φθ
▁gật
ίνοντας
גרסה
бежал
▁социјални
▁Правилник
በዛ
▁готелі
प्रमुख
▁olmayı
ČA
▁հայերի
▁قىلىن
▁великом
▁hoče
▁нацист
▁доктора
گې
▁színes
▁الإيراني
କଙ୍କ
▁경
닌
ѕ
▁bestätigt
▁деңгейде
▁Über
▁नेताओं
▁окончания
▁ראוי
▁ніби
▁матэрыялы
▁hänelle
▁Словен
ún
▁ഉട
▁આવેલા
▁ավագանու
▁Предмет
▁அறிவ
▁Αθήνας
ସୀ
▁مراجع
мындан
จากปรสิต
▁بیچ
▁vương
▁dĩ
▁võimalda
крыть
доста
픈
μακρ
▁Budějovic
▁Ní
▁vesmír
▁గతంలో
▁सहमत
▁fariĝis
ódó
धाम
▁مسول
заавал
କ୍ଷା
▁bông
برای
▁уақыты
▁mně
▁záver
が好き
▁kultūra
▁идеята
▁kamarát
▁የማያ
▁производа
▁ਖੁਸ਼
▁Παναγ
▁ይፈ
▁новому
▁बॉस
▁varēja
даецца
화재
▁Jesteś
▁басқармасы
セキュリティ
ゾ
랭
😎
εχθρ
▁позволяют
▁ነዉ።
▁часопис
là
▁tworzą
▁시절
▁모양
▁שיכול
▁улаз
▁نبوده
ចរ
στολή
▁झाड
▁раствор
▁स्टेट
▁подготвен
▁ogłosz
▁Тодор
▁պարտավոր
ዓት
विद्य
ศิริ
▁composición
ējusi
భాగ
२४
▁časom
ącego
▁সমা
▁نیت
ികളെ
▁пассажир
됨
▁конструктив
▁친절
▁کیجیے
▁legătură
▁військових
ბდა
▁এক্স
rā
▁Бъ
▁вибрати
색
пруж
õppe
▁õhtul
▁жакында
▁radosť
▁Прилеп
Ψ
▁користувача
▁የክ
▁කාන්තාවන්
ມັດ
▁უმაღლესი
äisiä
ાક
▁نماد
đe
▁покушај
▁बनाएर
стоп
それだけ
६२
имся
オリジナル
ພະຍາຍາມ
ໂຮງຮຽນ
에서는
▁приложи
δότηση
சோ
▁ወረ
보건
▁घु
ésében
▁கொண்டிருந்த
▁बोलत
▁çekdar
▁резултате
▁ಲಾಭ
▁תס
▁бербей
ździ
▁пружи
▁własnym
לסי
▁İzle
សូម
▁підприємство
কাৰ
급
▁дистриб
maß
させていただきました
bürger
▁qëndron
▁Ĉar
▁Shumë
▁المنتجات
ריז
କ୍ଷଣ
▁उम्मीदवार
▁εταιρείας
▁ఆరు
άδ
々に
ருவ
▁мәселелер
▁פּל
▁قوية
품
地域の
αρχία
▁ეროვნულ
పోయ
▁söyleyen
▁sørger
▁ይታ
ttiä
▁весник
▁plače
дъх
▁knižn
▁şansı
▁duminică
ศิลปิน
▁болашақ
▁прадстаўнікоў
▁aprobación
▁онези
▁જેવું
▁Орон
▁تنب
▁ھوقۇقى
▁оқып
▁изнад
▁yağı
പോയി
ликова
ड्र
に応じて
▁крайна
▁నాని
եւոր
▁රාව
▁Япония
ଚର
▁ունենում
▁విషయాల
▁návrhu
▁încerca
▁කාර්
린
だよ
טווח
▁атасы
▁τέλει
▁ملازم
▁پابند
영어
ඥ
זש
ລັງ
مملكة
▁مورخ
▁සිටීම
വേഗ
웅
▁überzeugen
ເຊົ້າ
▁déanaí
▁നേതാവ്
▁կարողանում
масов
▁dnů
▁Επιτροπής
ສະຫະ
ראית
▁මරා
РВ
ЫП
▁ביים
▁думала
▁хүрэх
बिया
มวย
▁असता
न्थ
щастлив
▁состава
ๆๆๆ
▁δυνατό
▁aralarında
፩
▁läinud
▁भक्तपुर
yydestä
ტესტ
เปิดเผย
▁찾을
▁защити
öv
▁زهرا
ക്കുമ്പോള്
습니다
สาระ
▁మొదలు
の影響
▁ایسنا
लग
மய
▁موڪل
ለሙ
ပါပဲ
▁فلز
ിച്ചിരുന്നു
の違い
۴۵
▁Araç
ένο
ρούν
▁عسکری
▁nhá
ėlis
▁yüklə
ЕЊЕ
ነቶች
▁예
▁управување
▁שמואל
تىڭ
ΟΥΣ
▁جزا
▁Lê
▁амьдралын
▁ففي
▁мерапрыемства
クリーム
丁寧に
mpiä
▁hljóð
▁московск
นิยาย
▁Νέο
▁үүнийг
إزالة
▁ጤና
▁hả
▁výše
데
აღიარებ
märkt
เมตร
Универ
▁salīdzināt
കൃ
▁خالص
▁خورده
ի՞
മായിരുന്ന
håndtering
▁பிள
צדיק
▁مناسبی
▁کفش
シェ
овують
ბოს
▁Миле
▁fəaliyyətinin
お楽しみ
หรู
▁ĐH
▁υπουργείο
適切な
ТП
▁федерального
▁Барселона
▁skaitā
หัก
زرق
▁시각
▁oğlan
▁இவை
שמת
▁הקבוצה
נופש
వంతు
▁түзүү
לינג
मेट
হাজ
คุณแม่
▁تمدن
系の
▁شویم
ходила
▁주로
▁nëntor
▁तिथि
▁приступа
▁составлен
២១
▁származ
▁հիմնադրամի
▁równie
ผา
กระตุ้น
▁تنازع
öt
▁πήγα
▁חזרה
▁лічыць
▁ndarë
töötle
▁Dũng
izëm
исани
の声
▁Phân
▁સત્ય
▁മനസ്സില്
▁אישה
▁సమస్యలు
▁මිනිස්
rými
ποδ
▁nè
▁zināšanas
uš
ッと
சார
▁Эмне
ບາຍ
רנ
૧૪
בוס
ستعمل
▁సెట్
ништва
γερμαν
▁배
বার্ষিক
อวัยวะเพศชาย
▁महासचिव
▁хліб
▁למנוע
▁우려
▁jaučia
▁située
▁патрон
▁נושאים
গুলোর
▁ואל
เชื่อมต่อ
▁пунктов
▁ämnen
▁שירותים
▁וחצי
ອັດ
▁yaklaşım
▁தேடி
ברר
▁методолог
ጠነ
ิ้ง
▁حملة
▁ಹೊತ್ತ
▁ସାମ
▁смысла
▁پدیده
▁hilbijartinê
ในปัจจุบัน
ことだ
ੈਂਟ
▁שטו
וניות
▁követel
으로
뒷
▁어머니
▁Принцип
▁개
▁أمريكي
エステ
แบน
▁ആവശ്യപ്പെട്ട
▁услугите
▁ළමා
▁تروریستی
حسین
▁قهرمانی
▁излаз
▁Féin
▁ಕರೆಯ
▁клиентите
▁الأمة
хаб
طرد
▁коюу
▁בהן
▁сыйла
▁મેળવી
▁vairākas
▁الأسد
▁കുട്ടികളുടെ
▁верну
யிலும்
アジア
▁препятств
▁Trátase
▁ameaça
▁교환
▁Triều
▁посочени
▁معطل
▁მასთან
▁über
▁представляют
▁природних
เรื่องการ
▁баруун
ారావు
väestö
АЊА
▁రాసిన
üm
▁അത്തര
普通に
▁حبيب
▁kožu
▁причината
រីក
فوض
▁гэв
매
▁अल्प
▁штамп
lägga
▁udhëtim
ović
▁앞에
ボード
▁రేప
▁Respublikasında
▁übrig
クリニック
▁бъдеще
อ่าง
▁충분히
pośród
속
ទូទៅ
▁szórakoz
▁እስር
▁유명한
▁присутни
▁वर्षी
▁обећа
▁مبارك
▁головой
▁المناسبة
▁источников
▁сууц
▁någonting
▁rendőrség
▁여부
▁Наші
▁арман
تصميم
වීම්
▁ആദ്യമായി
이나
▁Слово
▁Доро
▁навео
▁плац
▁добили
ಶೆ
เป็นสมาชิก
▁काठमाडौ
▁दिनुहोस
án
വത്
ষণ
▁minučių
▁États
ในโรคสะเก็ดเงิน
▁розмірі
▁Üye
▁ফলে
борд
▁Vö
ക്സി
પાન
škog
▁열
▁მუნიციპალიტეტის
▁okazało
թուրքական
▁sreča
▁ଆଶା
ೇಶನ್
തിനുള്ള
▁miałem
▁značaja
malısınız
ക്കൊപ്പം
ാകുന്ന
▁şəkil
מכירות
სახე
элдэг
あくまで
仕組み
▁ոլորտի
ລະອຽດ
▁αδελφ
ធម៌
tés
すると
▁ордуна
käytäntö
▁भर्ना
▁heilbrigðis
▁البريطانية
sztrál
өсөн
▁maître
▁холодно
خيل
брид
කැ
▁Продава
じ
▁законы
▁אורח
тпай
▁piešķir
▁Först
▁лежи
ነሣ
がよく
始めて
æfing
▁średnio
▁شروعات
▁ആന
▁киргизүү
ಮಾಡ
▁සැල
സിനെ
▁үйлчилгээг
চক
ക്ഷന്
▁அவள
▁бібліотека
▁이용할
ናችን
쌓
▁njëjtën
နည္းပညာ
▁נעשה
schläge
ý
▁gətirib
▁πάρα
▁підвищен
▁насилие
берене
▁진
▁میکرد
▁пријава
▁معينة
▁الفوز
▁سالگی
▁સમા
▁уряду
▁המאה
▁желба
्याची
▁ähnliche
насьці
▁ସର୍
▁కాగా
▁ਮਿਲੀ
側の
▁مسیح
▁מסע
▁유리
▁њихова
▁отац
▁култури
KÁ
ดีที่สุด
กระชับ
▁Chọn
ରାଷ୍ଟ୍ର
▁beskæftige
▁envoyé
▁יורק
▁акцыі
▁확장
▁Χαρ
▁لأي
▁öffentliche
▁راضی
▁دفاعی
▁končí
▁Район
אנק
ၾကြ
▁Paš
անքներ
▁വേണ
סיקה
▁நிர
лбай
▁qurumları
▁تقريب
▁bì
▁акумул
ымыздың
புர
ຂອງຕົນ
ಡಿಸಿ
ერების
▁мөөнөт
▁κομμάτι
厳しい
ကမ္ဘာ
ፔ
rá
▁vroeë
▁እግር
▁Театр
▁נכתב
▁последици
▁размещения
▁পথে
राख
πραγματοποιήθηκε
▁elää
▁úkol
▁நினைக்க
▁Чаму
▁সকালে
▁طاهر
▁νησί
வதி
schütz
▁правду
▁οικο
ಲಯ
▁қуат
▁Поповић
ଡୁ
використовуються
▁සති
▁መቀ
බර්
▁პროდუქტი
ოდნენ
▁үх
လိုက္ပါ
անյան
तौ
ಂದ್ರ
▁невероятн
▁júna
لەن
▁veřejné
▁hayırlı
фикации
▁लोकांना
▁ଆପଣଙ୍କୁ
hé
лёг
ła
▁ποιος
▁ترین۔
အသုံး
▁léi
▁преимуществ
▁양
▁Lån
▁మార్గ
ıyorlar
ισμών
konkurenčn
▁ਸਹਿ
анасы
ουτ
▁galā
▁любить
しまって
よく
▁Çocuklar
▁гени
▁İnstitutu
▁soyqırımı
집
ิ้ล
▁ایستاد
▁efterfølgende
▁کانادا
ർക്ക്
ಕೊಳ್ಳಿ
▁рамка
▁Дакле
▁гдје
อาหารเสริม
▁ලිපියක්
ньняў
▁අවම
션
▁motív
▁Začni
▁savaitė
▁ракета
ತೆಯನ್ನು
▁아는
φί
▁ಕಟ್ಟಿ
▁Адзін
▁кісі
▁materiały
▁харуул
▁бъдете
▁ባለቤት
▁átlagos
üüd
▁začeli
▁फैल
▁копира
▁моди
▁Асан
▁القادر
ประสบ
ויקיפדיה
▁Xüsusi
して
▁부르
▁آٹھ
▁കാണൂ
ປະເພດ
▁Давайте
▁članice
ാലോ
▁실
▁활동을
ారో
▁ליום
▁szczegół
▁susțin
▁ऋत
ברג
▁żoł
ദേവ
▁মহ
פסיכו
▁zápis
त्रिक
گال
▁πιστεύ
צרכים
äl
▁açılışı
öntö
▁blízko
Донбас
สตรี
▁Məcəllə
▁φοιτ
▁گرافیک
▁müzakirələr
▁némi
▁අග්
ಾಗಿದ್ದು
▁конверт
▁hevalê
lán
▁трактор
▁ეკონომიკური
ástica
ുണ്ടെന്ന
▁טאג
▁ಅವು
に対し
▁Слов
행사
ώτη
▁אונדזער
▁боре
ፖለቲካ
ıldığını
పాటు
▁kombëtar
▁وترك
liwość
▁včeraj
▁государственно
スマートフォン
レストラン
▁شۇنداق
ဒဏ်
▁fantástico
멍
αίρεση
▁заходу
▁περιόδου
っ
▁изучава
▁Válasz
▁ბუნებრივი
▁падыход
át
▁ئەمەل
בוב
တွေ့ဆုံ
biór
プ
ങ
Τα
▁пипер
யாள
סמים
▁lähesty
▁spojení
感じ
▁אזרחי
ούσα
ševal
▁نوین
▁નોટ
ਹੋ
தாம்
▁οφείλ
ເທິງ
▁гудамж
▁વિદેશ
▁едновременно
▁árbore
▁líbí
▁πολιτικού
▁šādi
▁rezervēt
соедини
▁suši
▁طبی
▁한글
▁Срок
▁својом
Ер
ಿದಾಗ
▁დოლარი
▁hozzájárul
кард
량이
▁хаана
▁থাকতে
အမည်
▁위기
▁ਸ਼ਾਹ
డితే
▁sviði
ところ
זאַ
американ
▁yönel
▁rõhu
▁представяне
ແສງ
บัณฑิต
ေပမယ့္
▁নিয়ম
▁aðgengi
▁Lietuvių
▁tərəfdaş
จิตใจ
▁cúpla
▁загальної
▁مدنی
▁nihče
vær
▁бизнесмен
fulltrúa
تأثر
בדיקת
յական
НИКА
▁Маз
មន
▁процесів
ännyt
▁પ્રકાર
ജ്ഞാന
▁thâm
▁Сами
جتمع
を行います
ອາດຈະ
▁koža
ঘাত
▁პერიოდი
▁තොරව
▁जप
▁సమావేశ
▁жеңил
ישו
▁замест
久しぶり
فيسبوك
მართლმადიდებ
▁δήλωση
מצרים
▁lõuna
▁හමු
▁içeriği
▁кожи
ล็อก
▁الذكر
mål
▁срца
▁પકડ
मंत्र
лууд
ינסט
ながら
▁છોડી
كذب
ۇنداق
▁Técnico
덜
ঐ
⠀
▁знайшли
▁זמני
▁alterações
▁εμβ
ខាងមុខ
čan
▁עמד
▁종교
▁песні
ούπολη
の流れ
▁مخالفین
дарынын
창원
হান
方も多い
受け入れ
ตึก
▁అనుమతి
್ವಾ
बस
ագրության
▁ഏത്
▁обмеження
▁Црној
ङ्गा
nošenje
émission
良い
ข้า
ès
леныя
▁полов
▁الدولار
▁उपस्थिति
▁José
ómico
方が良い
λπ
▁живут
▁Privātum
▁Mısır
▁mitjà
▁lalàna
▁چڑھ
ł
▁chuột
▁చిత్రాన్ని
▁plaukų
▁ζητά
▁اشغال
▁iekārtas
▁Doğan
дић
▁सतत
▁элге
حزن
내기
▁dráh
ვებული
▁küsimuste
ೀಶ್
бағ
рошен
પતિ
▁гром
اجتماع
▁ມານີ
волод
fjöl
ອະນຸຍາດ
▁fhèin
▁Xesús
▁독립
▁denúncia
▁موٹر
▁používaním
ተለያየ
と思われる
▁бібліотеки
مرض
हिन
▁dərəcədə
ಗತ
▁štít
▁Phố
реакци
వాళ్ళ
▁உடன்
▁സിറ്റി
▁начиная
▁그것이
▁договором
ଦ୍ୱ
سىلەر
▁creştere
▁qalır
iștii
яння
▁świetny
બ્રા
▁அமைப்ப
▁gennemføre
▁anlattı
aménagement
ทั่วไทย
ház
സിലെ
▁informática
▁ändring
מקס
▁گذشتہ
▁Administração
▁કરીએ
▁ಅಮ
မြစ်
▁විභාග
ැහැ
▁вантаж
▁परिषदे
▁verejné
Сер
▁دادم
▁هواپیمای
▁muzikë
▁těla
▁ярко
▁prečíta
гчдын
็ป
कश्मीर
gūst
ปทุมธานี
ፓርላማ
▁բնակչության
▁विशिष्ट
агра
▁Әлем
ต้ม
ମେଣ୍ଟ
▁ክፍለ
▁고통
មាត់
ประการ
▁адамдардын
▁രാജ്യം
▁päiv
▁tớ
▁pořádku
▁পাই
▁ڏيندي
▁بقدر
חופש
▁пэўны
▁создавать
▁محیطی
किल
▁Saç
▁Куз
▁لسان
क्षम
नाम्
▁ആസ്
▁көзү
ଟିଂ
คัพ
프로그램
▁endamên
▁الجولة
▁ਵਿਚੋਂ
ên
▁קאמ
ቴን
אציע
ಸನ
▁ומע
▁értelmez
▁հանցագործ
예
▁активира
▁prepriča
▁пропуска
▁špeciáln
రంగం
▁تيز
▁členem
გაზ
▁برادری
kovým
тримання
редне
エイ
മാക്കിയ
▁iştirakçı
▁پورو
▁ঘরে
مجموع
pořád
เงี่ยน
▁círculo
ຊ່ວຍເຫຼືອ
▁দিয়েছে
съществен
▁Важлив
▁Їх
▁ബാങ്ക്
▁останатите
▁হত্যার
ထားသော
ிப்
▁مبانی
▁الآية
전체
▁ٻڌائي
▁истата
▁දන්
▁કરેલ
▁zemāk
▁제품을
Норматив
വരാണ്
▁zimní
vår
తనం
▁రూపొంద
▁jehož
વણ
▁సమాధానం
▁نوٹ
АТИ
▁yanaşma
▁ஏற்பட
▁чадах
ப்பட்டுள்ள
▁لوبې
पुत्र
콘서트
កម្រិត
▁сарадник
годно
▁қадам
اعتداء
ദന
▁ხარისხის
▁مختار
▁مالیات
▁സംഘം
▁אומרת
पाठ
▁Сім
තො
អូន
▁مشرقی
▁ପ୍ରସ୍ତୁତି
ėdami
という言葉
पाटी
▁서비스
場所に
▁możecie
▁ලෙඩ
கல்
▁ਗੋਲੀ
▁Павла
작
ălă
▁τουρκικ
ग्रहण
izată
രോഗ
▁проверить
รับประทาน
ističke
▁عمرو
アカウント
pénz
▁차
▁eröffnet
후
ば
▁காட்டி
▁우리
▁Müdür
▁알게
▁යමක්
▁ഉടന്
▁فروری
▁خصوصیات
වෙක්
гаараа
▁жител
▁օրերին
▁වෙලාවක
▁قطعی
טאר
▁dəmir
▁nonāk
vější
スト
▁വനിതാ
▁весело
্রো
▁înţelege
▁seguirá
▁نقط
▁megbízható
iĝinta
ဝင္း
▁రాస
αλλαγή
ナ
▁такса
ાયું
▁Έκ
శంకర్
មូលដ្ឋាន
フ
настоящему
▁ուսումնական
▁έτους
▁पत्रकारिता
お待ちしております
▁فطرت
készítő
широк
קוט
▁بہن
▁благодат
▁υπολογισ
การตรวจ
פיין
▁చూస్తున్న
ሰጣቸው
▁klasický
▁kød
▁авио
бывал
ေနတယ္
تعصب
▁бунт
மானது
Ў
▁құралдары
▁svarað
ในเวลา
лепи
အခ
▁Dış
▁प्रत्य
▁නඩු
จังหวะ
▁încercat
သတ်မှတ်
▁बलियो
▁Çay
▁харилцааны
▁գոյություն
▁służą
rozumiał
uotą
▁프로그램을
▁տարիներին
χρυσ
ଂସ
▁الإست
õõr
טיל
▁ఉండి
▁Еден
▁väčší
▁жылдам
มื้อ
▁अहम
▁разъ
తికి
олози
ற்கு
▁ਆਗੂ
ระยอง
āk
▁cất
▁příslušn
▁обсъжда
▁připomí
▁pārtikas
ยิ่งใหญ่
▁अधिकारियों
▁απόδοση
▁myślę
▁прыём
▁النصر
▁predchádza
▁сотрудники
өрдө
qué
▁çoxdur
▁آفيس
dınız
▁செய்கிற
▁Kúp
▁करनी
교류
ეგო
▁ئوت
มีอาการ
អង្គរ
ılacağı
▁суралц
▁अहं
▁રાત
štų
▁открито
▁वाज
βια
втор
▁pojawiają
▁وأس
▁κυρία
▁पाना
ความร่วมมือ
أكاديمي
ş
▁κλικ
▁přístroj
▁căutare
▁тамаша
▁будући
▁члены
▁дадатковы
▁можу
▁istifadəyə
▁пациента
техніка
▁Šodien
रेशन
▁يولغا
เล็กน้อย
аналіз
▁Ăn
▁алдаа
▁келтіру
程度の
▁פריי
ನಾರಾಯಣ
מדת
▁ආරක්ෂා
tymistä
▁Zá
▁povinný
εση
▁könyvek
รึ
ЩИ
نورد
દ્દ
換え
▁Fotó
▁причините
▁કંઈ
متعة
▁సాధారణ
රිතාන්
▁interiør
▁ilusión
▁rådighed
▁żadnego
▁میاشتې
▁큰
▁திட்டம்
▁بالقرب
▁انطلاق
▁écoles
▁piškotkih
▁Vál
▁принципу
кавыя
nél
▁жүрек
▁aŭtoro
থি
」。
ۇلۇپ
▁виявили
คนนี้
▁وقو
▁իրավունքի
चोक
ניתוח
ຣັດ
▁اساسي
Службен
▁mütləq
ເສີມ
▁ņem
アルバム
อเมริกา
▁еліміздің
ထုတ်လုပ်
▁நேர்
▁σταματήσ
นิ่ง
▁wykorzystać
များ၊
மைப்பு
сөз
มีผล
▁Sólo
ગલ
▁dôležit
יגט
εστε
▁segítséget
▁خودروی
▁собственность
×
▁시작
▁Azért
▁успева
जीत
▁susţine
▁сотрудника
वर्धन
▁జీవన
▁المغربي
▁آفيسر
ความสัมพันธ์
ോപ
▁piškotki
marrë
ブック
틸
▁ஊழியர்
딜
폼
κάλεσε
▁kārtībā
સાહેબ
▁Károly
▁वाचलेले
▁약속
▁здравље
▁залишити
▁நீதி
▁veltīt
▁mídia
ຊັບ
▁മറ്റും
かん
▁pošk
сныг
▁даатгалын
▁يمثل
माओवादी
▁بیٹھے
▁земя
ከላከ
▁chão
▁ЈАВН
▁основне
เบร
っております
εικ
ētāji
члан
▁Şeh
▁бяз
ပန္
ფენ
▁بعضها
に入った
▁തെറ്റി
▁Најнови
▁بکار
ほど
ෆි
▁ਖਾਸ
വരുന്ന
ファッション
przedsiębiorc
ทารก
▁ముందే
vā
▁विक्री
▁చేస్తారు
ovacích
▁ανάρτησης
▁कुरामा
працював
▁በቂ
▁погодн
▁편리
▁ведомств
▁Батыс
lična
доллар
▁karşıya
πέρα
ગ્ન
▁Mənim
۰۱
▁műanyag
▁cariño
▁ბანკის
▁игрока
•
▁התחיל
▁удирд
▁крово
▁храму
▁Основа
▁چینل
▁절차
ξτε
▁Khoản
انداز
▁həqiqət
▁имею
▁мій
▁facía
▁засвар
ショッピング
ສະໄຫມ
స్థితి
ช้อป
▁펼쳐
ቅድስት
▁přesvědč
▁Всяка
답니다
ರೆಡ್ಡಿ
▁underkläder
▁דב
▁масово
çu
▁يحاول
分かる
▁националне
▁сплати
ידות
▁ಫ್ಲ
ლებში
▁ыры
ುವುದಕ್ಕೆ
하면
▁rinktinė
▁Švent
▁Mängu
ście
▁მომი
▁туристически
סופי
పుస్తక
اجات
eiről
браў
મૃત
▁изображение
▁pregătit
▁ସମାଜ
▁මරු
ุย
ís
lėktuv
▁अवश्य
▁또는
▁бъдещето
▁şaşır
▁νέους
ჩემი
いけない
हामी
▁чейинки
▁nemají
Ở
▁електронски
▁අනාගතය
▁بخور
လိုက္တာ
▁Pêş
дэс
ಗಾರಿಕೆ
තූ
▁царство
▁øker
полис
▁առաջիկա
ොන්
эф
▁காதல
▁Dé
▁qəti
▁сонце
риб
릉
▁видиш
する
▁роблять
ເຂົາເຈົ້າ
ター
▁सुरेश
▁पहिरो
샘
💕
▁오르
ылжымайтын
▁існуюч
▁स्कुल
들의
▁قابو
▁празнич
▁άρθρου
▁μείνει
▁näytti
▁מקצועית
blaðið
▁проверен
▁bổng
▁따라
увајте
▁مشاهد
▁түүхий
▁Британи
を抱え
شارات
ītājs
територіальн
▁Αυτο
תחומים
▁Жума
▁담아
ランチ
置き
əkə
▁института
▁Европско
ευσε
ັສ
▁만난
▁przegląd
รุ่นใหม่
슴
▁మండలం
▁경력
▁המקצועי
▁జట్టు
▁הקש
▁ఆఫర్
२७
▁etkinliği
▁uppnå
▁премина
ሃብ
▁trój
どういう
▁ürita
▁Атина
טיבי
kienė
რამ
صندوق
▁Κάποι
ልዩ
▁fásta
▁krásny
▁நான்கு
▁ortamı
일간
▁кажете
▁النهائي
விட்டால்
▁günümüz
пэр
drücken
少しずつ
▁нокти
มัธยม
▁bližini
▁бийлиги
▁합니다
▁elämässä
▁компакт
▁пацієнтів
▁במשרד
ഡു
▁konkrétne
▁వస్తా
ագիտության
Гер
водити
slúži
zhľadom
▁пройдет
שירה
▁olası
ኢየሱስ
▁mladší
▁Нишу
▁azından
ได้มีการ
נצל
υ
กุ้ง
▁ओम
▁Служб
اطلاع
들은
▁ഇതാ
ونکې
ТРИ
ΜΠ
නස්
▁לבקש
▁astoņ
▁हद
おそらく
▁어렵
ສະຖານທີ່
ອຸປະກອນ
▁Səhiyyə
הוצאה
เซนต์
▁ამერიკა
▁గుడ్
▁ଅଞ୍ଚଳରେ
▁håb
▁celów
▁همکاران
▁başlayacak
▁вакол
▁보관
▁producător
öm
▁bạch
gé
▁מלח
пробуйте
збек
▁طبعا
대는
▁გამოუ
▁ખુલ
εϊ
▁геолог
οργ
▁زلزل
▁мөнгөн
▁аймак
▁განუ
▁রাজধানী
▁ожидал
ยักษ์
などの
▁hrozí
▁שטארק
▁tvoří
生きて
▁सक्छन्
▁сторінку
▁ପର୍ବ
CĂ
▁fetiš
▁satisfacción
▁கூறு
▁უამრავი
تحالف
▁Faça
▁лежал
▁հերթին
▁यानी
ຫ້ອງການ
ვწერ
ด้านการ
▁जिल्लाका
のだろうか
▁условите
▁циљу
ХАН
▁главу
▁ተቋም
行きたい
ಯಾಗಿದ್ದ
▁செய்திகளை
ट्रिक
▁በመሆኑም
▁ಪ್ರವೇಶ
ไปอีก
ڪيٽ
▁ανθρώπου
કૃત
біріне
ஸல்
ลุง
▁गोविन्द
▁продължават
▁ההורים
▁najnovš
▁dróg
สูญเสีย
▁јавува
▁كبار
▁টাকার
▁Америчк
පද
▁نقدم
ыбызды
▁වළ
▁Urzędu
▁основана
섬
▁생기
▁bölümünde
▁számított
▁việt
ўшыся
▁близу
▁νέος
▁बुला
บาย
▁lámpa
▁کنون
▁간
▁sásta
džić
ωρο
▁ቆይታ
ീം
вършва
▁зголемува
שמירה
▁виконувати
▁Вай
ਰਲ
▁odborné
actualité
នោះទេ
સભા
▁ಕೋರ್
▁человеч
〖
ծառայությունների
▁chruthú
▁déclaration
▁giãn
ປະກອບສ່ວນ
▁čtenář
▁ಡೈ
▁předmět
▁autónoma
nó
▁Trương
கில்
карпа
▁kurulmuş
മാധവ
▁lät
▁ژبه
طيف
▁बातों
บี้
▁завършва
የተ
müştü
によって
ΣΕΙΣ
ફાઇ
maktır
íte
▁способов
▁आलो
したい
▁نقدی
▁сесії
▁ذہن
▁աշխատանքները
バル
гурт
▁прилад
▁تضمین
лыгын
▁воздуха
лордун
संदर्भात
▁이용
▁сакал
증
격
▁વસ્તુઓ
▁हैरान
vāk
увалося
▁кнез
ေၾကာင္
ځل
▁מביא
▁англиски
▁வேற
〗
ゴール
ເວັບໄຊທ໌
พึ่ง
샌
γιάννη
▁കോട്ടയം
▁방
▁neděli
▁байгаагаа
▁کاندید
▁syödä
▁देकर
▁عورتوں
▁Bunların
▁ماري
▁هفتم
ලයේ
ખર
ຢູ່ທີ່
を忘れ
വാര്
ಃ
ളോ
teľná
▁podział
оўскага
▁ფაქტო
ЛИН
ಯಲ್ಲಿರುವ
▁ئېتى
▁sótt
▁शाही
▁перспектива
वस्त्र
▁قىر
▁අවසානයේ
▁విష
닭
밸
▁Francúz
▁lëkurë
▁аймағы
▁вижте
▁pareiškė
▁сојуз
▁կայուն
עיסוק
πεν
▁Grønland
▁تمثل
▁саласында
ප්පු
▁теңіз
תקשורת
▁దుర్
▁răni
▁సర్వే
▁билген
૫૦
▁යාළුව
▁ունենալու
▁ключевы
▁tələblər
▁вираз
▁състоя
የአ
▁그린
やかな
▁kvalitný
▁idők
からね
▁слабы
▁владата
лави
▁ζεστ
ራፊ
повідь
ドイツ
слови
▁Όλοι
▁איצט
▁బయటకు
▁קופ
▁करेगी
أفضل
২২
▁fəaliyyətini
▁simți
▁تلویزیونی
▁сыйлык
▁कमरे
▁łączy
▁додаткові
▁kábel
▁പേർ
ድል
ნიკი
ပရ
したのは
మ్మా
РЭ
▁ndodhë
تعدادی
उदा
▁Ολυμπιακ
ଝା
▁යුතුව
วู
▁ఉంటుంద
▁ଅଞ୍ଚଳ
فاس
▁здійснює
▁коже
を持った
นครราชสีมา
lín
▁civarında
▁felmérés
▁σκεφτ
▁மீள்
▁მართლაც
▁театар
▁זצ
▁выполнить
▁κριτική
▁диагностика
▁살고
▁قياس
▁വിജയം
ύπα
▁նախագծի
▁adından
▁Federació
վետ
ទំនាក់ទំនង
гула
▁Звер
▁בייַ
▁χορηγ
عشر
▁вміст
▁udhëheq
ИЕ
▁обвинител
▁பத
▁прописан
▁литр
▁školní
વાળી
خوت
ທັດ
▁بکش
▁коомчулук
▁едноставно
▁КЫЗ
▁دارویی
ಶೇಖರ
▁кревет
▁تواجه
▁keçib
▁фунт
תקשר
ВП
द्वि
▁gelekî
▁Сары
▁म्हणत
▁Тада
▁पर्न
▁घेता
そんなこと
してみる
▁ಗ್ರಾಮದ
រួច
ശാസ്ത്ര
पाळ
원장
ವಾಗಿದ್ದು
当サイト
සර්
автор
పడిన
เอามา
potřebu
▁случило
কল্প
ឈាម
▁жртви
▁turpinās
▁эдгээр
▁الحساب
ไอเดีย
όπουλο
ということが
▁miłość
▁diákok
を取る
▁хидр
류
▁ነዋሪዎች
▁посеща
မြန်
▁בעלת
จึงได้
▁обес
▁ਮਾਲ
▁Tä
גרה
シア
▁mérite
▁өнері
פונים
▁TÁ
መስል
tvorené
σμένη
▁σχήμα
▁හයි
löf
Бур
▁konfransı
▁الرحم
▁врв
жество
ล้วน
พิพิธภัณฑ์
▁불구하고
왼
듬
▁kakšna
▁Ağdam
▁Până
▁нарығы
ίσματος
▁неудач
водећи
ोऽपि
וסק
▁дакладна
فاح
ფრენ
ခက္
▁መብቶች
▁ఎక్క
ացիոն
▁праша
たかった
▁Духа
ījies
▁חני
▁överens
اتفاق
▁تروریست
чулук
▁لگایا
▁террорист
▁tričko
▁ବିଜେଡିର
▁రాష్ట్రం
▁könny
oktobrī
▁Grüße
oğlu
▁विंडो
▁ашиглаж
▁누구나
▁خطوة
▁اياز
▁تعيش
ケーキ
▁מכיל
▁будућности
こ
▁прапор
▁Ré
▁үлесі
sáv
villä
▁Міжнародни
それほど
▁വെട്ടി
▁کنونی
ଆର୍
をチェック
▁તારી
▁ಕನ್ನಡಿಗ
▁výhody
▁ফির
▁പിഴ
președinte
สายการบิน
ស្រលាញ់
▁ערשטער
▁мемлекеттің
ažymė
▁Béla
▁полезна
▁krajín
▁työllis
▁малюк
▁sõltub
라는
▁കേസില്
▁подряд
▁еткен
ய்யா
▁robią
▁ഒഴിവാക്കുക
▁награду
manızı
ήσαμε
ผู้บริโภค
▁հիմնականում
▁प्रधानमन्त्रीको
เหมา
▁помощник
▁хода
සං
аѓање
▁الطبي
nejša
เคราะห์
မက်
ติ้ง
쌀
чөйрө
īt
▁гордост
σκι
ಲಾದ
との
ЛАГ
▁тұрғындары
▁اللعب
▁затраты
▁कम्पनीको
▁دائرة
具体的な
Жеті
▁намират
▁парков
αλλά
▁instituţii
▁గడి
もん
を提供し
ጊያ
▁সময়ে
▁духу
▁ಕ್ಷೇತ್ರದ
Правіць
▁позволил
béis
וודאי
μπαν
אלימות
▁քննարկում
▁değişiklikler
ยังไม่ได้
▁olunduğu
キャッシング
▁qulluqçu
lö
สัตว์เลี้ยง
▁პირადი
▁қазақтың
▁मिलती
húsinu
▁ሲሆን፣
▁seçkilərin
ਧੂ
▁кніг
añ
▁ଡାକ
▁उठाए
อเร
▁حاکمیت
▁ম্যাচ
▁развојот
چۆ
周りの
ユー
▁काळा
▁budżetu
ویش
ಿರಬಹುದು
▁діяти
▁СПА
లాంటి
▁авдаг
آس
▁යවස්ථා
▁Житомир
▁எழுந்த
▁것은
päivänä
ває
▁வாக்க
キーワード
ɨ
Хэрвээ
줍니다
ಚ್ಛ
▁oublié
▁ବଢ଼ି
▁προφίλ
▁Dział
▁находиться
▁жаңалықтары
▁VỀ
▁legislação
▁распад
▁случаите
லங்கா
များနှင့်
níctvo
දෙනා
வார
หน้าตา
▁Μαρία
▁टैक्स
äh
೦ದು
▁барил
ségének
スピード
ไส้
▁Tarım
リティ
▁प्रदीप
▁pačios
▁жасқа
▁Сирија
▁குழந்தைகள்
▁szabályai
▁Kiadó
đ
▁भनी
드릴
▁mạo
▁презентира
▁водою
вршување
בטא
Ø
▁إليك
жур
▁중에서
ύρωση
▁orientación
බ්බ
▁ගොවි
▁şartları
▁භාවිතය
▁Βαρ
арлық
▁bývalý
▁üstünde
Σχολ
▁изпълни
ירידה
▁시점
▁២០០
▁tretí
▁መፈ
▁ਖ਼ਬਰ
▁українці
▁සංගීත
ແດນ
คลินิก
ราศี
סיכום
ghníomh
▁peşəkar
▁ஒலி
ענדיג
ülüyor
▁गैस
▁Кадыр
خرى
립
▁изпълнението
▁책임을
Graduação
▁Τε
言われて
▁מסוים
▁الحرام
pelejä
▁упомина
rü
▁ақпаратты
▁فقدان
▁매
▁yazıb
키
▁спаса
人は
▁රදේශ
écriv
ប្រព័ន្ធ
▁müdafiəsi
ทั้งสิ้น
▁රහාර
▁گمان
жується
▁ξεν
する必要があります
▁බෙද
▁etdikləri
▁დღეში
と言われる
▁ноћи
▁التجاري
▁содржини
ায়ন
▁аумағы
▁kıyafet
▁fjärde
▁konieczności
▁появится
に合った
▁العاملين
якої
▁ദിവസവും
እንግሊዝ
▁նյութերի
Сподели
▁опасни
▁anunț
▁Mariña
▁видит
▁நல்லது
īsim
▁კომპანი
▁اهواز
▁দশ
δών
ব্র
다
▁भरती
بسط
ებსაც
▁تېز
▁grāmat
▁шифр
ыңызды
ボー
▁ארבעט
▁اتل
ถ้วย
▁Wśród
▁henkilökohtaise
dó
ซึม
쿠폰
▁టీజర్
▁жүйесінің
▁regiões
▁שנתיים
▁سکوت
Народне
언
ຄອນ
stråle
▁қазақша
▁vodní
▁ಆತ
▁bénéficie
중계
មកដល់
▁анхаарал
▁نوح
വെള്ള
ți
▁ڪانه
স্ট্র
▁премиера
έντα
▁Θεό
▁зручно
▁योग्यता
▁межі
▁mờ
ሙስ
▁свему
▁гражданина
▁الخلاف
▁Tế
ированных
を手に入れ
▁обществено
▁zvláštní
زمین
▁ஒன்
ביעה
มิติ
▁ئاستى
▁válság
प्या
▁يىغىن
گرایی
▁kõla
▁સ્ટાર
ნიდან
▁počíta
▁ठाकुर
تشخيص
ជោគជ័យ
▁혹시
덤
셉
läufig
▁ಇನ್ನೊಂದು
▁następujące
▁مۇشۇ
▁жүйелер
▁најстари
رجل
▁jautā
▁qardaşı
▁گیاهی
વાઇ
დემოკრატი
▁пука
▁חוקי
▁түрдүү
يلات
함이
▁கனவு
▁қарастырыл
шчыне
वध
чувству
മിന്
ətlə
ანმა
ರಾಜ್ಯ
▁Đại
▁ждал
言わ
▁Μακεδονία
මො
όπως
মার্ক
▁жету
▁podobně
λαδ
출장샵예약
বলৈ
♀
▁Indonésia
▁Pamiętaj
▁שוקולד
▁પહેર
ஜெ
ခဲ့ပါတယ္။
▁قبضہ
▁खुप
▁കുഴ
取り組んで
▁загального
язаний
▁شەكىل
▁ତେଲ
▁açıdan
ਿਪ
تناقض
▁Viết
▁રાખો
వేల
▁umysł
▁шүүгч
이죠
▁тумор
zá
θηκα
หอย
ਖਰ
цкий
▁κουτ
આત
▁добив
ಂಡು
▁సంబంధించి
▁οδηγεί
▁тәуелсіз
▁Právě
ᅳ
▁Организатор
▁oświe
▁गरिएका
▁остальных
▁županija
▁Албанија
▁influência
▁پمپ
▁занимается
▁қабілетті
▁تركيب
▁انگريزي
▁роках
▁Lập
▁ആറു
▁ημέρας
▁تحصل
▁મળ્યા
נשק
▁가수
▁ΣΥΝ
ତ୍ରୀ
▁човекот
▁cseré
▁Презентац
셨다
ご希望
▁ಡ್ರ
ገላ
▁میزبان
ళం
▁běžné
▁कष्ट
▁keçdi
გარი
▁పోలీసుల
များက
▁ڀڳ
กล้วย
▁مدرب
▁Piedāvā
か
▁यशस्वी
▁echipă
▁мэдэж
▁вёска
фоб
▁සතිය
▁وفادار
▁بدهد
▁بنيادي
▁Millət
▁krásný
▁Încă
낚시
ค่อย
▁पर्दा
▁түвшинд
▁давуу
mələri
▁операција
▁ਅੰਗ
вођа
ступать
దానం
۳۲
▁רכבת
▁Ігар
τσο
▁მუნიციპალიტეტ
térítés
▁култ
познавање
▁Бере
āḥ
▁isteği
▁Więc
église
▁vĩ
떨
を含む
สหรัฐอเมริกา
▁apmēram
▁당
닷컴
벗
▁Hữu
▁izpildīt
▁ملازمین
▁ühine
▁नवीनतम
▁редовни
▁மருத்துவம்
▁କହିବା
▁რომელიმე
เทล
▁लूट
▁bıraktı
▁netistä
prā
αϊκή
▁fárad
ዋለ
ošais
▁степень
▁борг
▁مريض
▁аборт
חברה
▁występuje
رتبط
▁ປ້ອງ
なるべく
▁సందర్భ
ビタミン
መለከተ
꽤
렛
געשטעלט
āla
▁turklāt
▁ادارن
▁తీసుకుని
▁бољи
▁ഫ്ല
▁здаецца
ọ
は非常に
▁drogę
▁கிட
ນ້ອງ
▁stejný
▁перестал
▁дуел
ألق
▁kétség
малки
▁совместн
▁الكن
▁aktywności
▁comerç
▁பத்தி
များနှင့်
▁지역
▁نالا
▁təşkilatların
▁പ്രഖ്യാപിച്ച
ไม่ถึง
▁비밀
கிருஷ்ண
むしろ
ធ្នូ
▁osiąga
▁عاشورا
เลนส์
▁prístroj
▁үзсэн
நோ
▁ортақ
▁állapotban
▁даўно
▁ובין
▁චීන
▁więzi
▁разчита
できるので
▁رفتم
పరచ
മരണ
▁balcó
▁tūris
▁ťažké
블
ေျပာျပ
▁δημοκρατία
▁Нис
▁ورتا
▁ప్రవేశ
ണമെങ്കില
▁إنما
кладення
▁majiteľ
▁جاڭ
▁നൽകി
だからこそ
▁Nguyễn
เซ็นทรัล
▁istraživač
▁нәтижесінде
▁ಹಳೆಯ
కూడదు
▁басқармасының
▁দিয়েছেন
▁Tähän
▁русского
▁കൊല്ലം
▁çekici
▁तव
уванню
▁Руске
▁yüzey
▁പ്രിയപ്പെട്ട
といえば
▁benefício
등
вязь
▁açılır
iếm
टेड
▁արդյունքները
▁तन्
▁množstv
▁அழைத்து
▁இந்தக்
บางอย่าง
แถม
▁надзвичайн
▁உத
▁Баба
▁ତୁମ୍ଭ
ステージ
กําเนิด
▁Vladimír
▁première
▁මූල්
▁استثمار
こともできます
γεια
▁વાંચવા
دوست
▁پرستار
▁членами
▁قرية
प्रभात
▁आरोपमा
▁տեղափոխվել
▁lielāko
▁гимназия
▁štvor
▁указания
ėdamas
▁בוגר
▁மாணவி
씨가
رواح
võtmise
▁критика
▁красиви
▁կապերի
rêp
▁പ്രീ
ພົບປະ
▁كلما
ଜ୍ଞାନ
แทงบอล
サイト
▁визначають
ລົມ
▁określone
▁نهايت
▁välissä
დისკ
▁Енг
▁gratë
ਿਓ
▁erişim
ářů
▁महेश
მრავლ
▁Петков
ാവസ്ഥ
▁объекты
мейтін
▁진행
▁سینٹ
원주
▁çalışmak
▁ਪਹਿਲਾ
ຮ່າງ
▁пешеход
▁Eiropā
▁Победа
▁ligazón
▁стаття
▁Švedsk
▁indkøb
▁кажуць
▁błąd
▁визнання
▁نبرد
▁생각
▁Маса
▁लगाई
إدارة
▁בבתי
خاذ
▁بنیان
▁करणारे
▁крила
ුළු
▁யோக
ശങ്ക
▁داروهای
ທີ່ກ່ຽວຂ້ອງ
▁մասնակիցների
▁معامله
▁Rádio
▁млада
తోపాటు
▁válido
▁бенд
தூ
▁никакво
▁ტრანს
▁σχεδια
ありがとう
ผนัง
▁Stanisław
▁Yaxşı
▁зөрчсөн
▁ଚଳିତ
▁vostè
▁چونکہ
▁فريد
▁சம்பவம்
ىسىگە
▁плям
▁алдынча
▁базиран
포럼
▁tūrisma
▁ស្ថិតនៅ
▁בצבע
▁останали
▁நடந்தது
▁langjährige
jõe
горск
▁કોલ
файл
をやって
▁Милен
▁чинник
▁القيم
▁Маль
▁کتابوں
▁जापानी
▁izvēli
၂၈
มานาน
▁pomyśl
▁ரசிகர்
▁löytä
お手伝い
ตัดสิน
マッサージ
tækjum
▁Cataluña
▁İSTANBUL
갱
געגעבן
▁ମୁହଁ
ราชบุรี
ၾကိဳက္
▁давление
▁образовательных
▁окутуу
두
▁שבהם
イン
▁купил
▁شبانه
▁የዛሬ
▁даступны
가격
▁کلیپ
▁점점
▁מרכזית
▁límit
▁Výsledky
គម
рүүлэх
▁amaçlı
è
▁množ
несат
▁гледна
▁песна
▁уверены
മായാണ്
sõnu
▁상세
▁විභාගය
החלטות
▁свойств
ການເງິນ
पेक्ष
جرام
▁તૈયારી
▁ବିଷୟ
▁четврти
▁කලාව
テキスト
サッカー
レンタル
▁көйгөй
해야
▁Rússia
అరవింద
▁möguleg
▁tilhører
▁Новгород
▁주인공
Обществен
▁Касцёл
▁Spēle
▁ಕಾರ್ಡ್
▁పదవి
ଲକ୍ଷ
▁جڳ
▁പ്രശ്നം
▁cipő
▁eltűn
िङ्ग
▁سجاد
▁한국어
▁døgnet
▁Зарим
čkách
▁полицията
▁жалост
▁dječak
รีย์
▁පස
▁کلاه
ログ
▁umění
▁şehirler
वेळी
tämisen
ೇಯ
▁рэальна
▁pekný
▁გრი
▁صحرا
ເພື່ອໃຫ້
▁поставили
ൊന്ന
▁सवार
▁maçında
▁hissəni
▁Дина
प्राप्त
สมาธิ
▁Dışişleri
▁파트너
បុគ្គលិក
人の
▁Ватикан
▁фраза
▁reacción
▁körében
▁выбараў
ล็อค
mpänä
▁تشعر
▁میزبانی
▁ההון
▁būvniecība
▁күндері
▁שירים
▁душі
බිම
розвива
▁चैत्र
▁masaż
ນີ້ແມ່ນ
북
צופים
ស្រែ
▁деңгээл
▁заміни
ഭരണ
▁ಸಿದ್ದ
を買う
▁pevné
▁коллекц
▁Культура
▁végrehajtás
ಜನೆ
コンビニ
を超える
▁köv
탠
▁клінічн
Яндекс
ខូច
▁қарыз
ウ
▁Lång
▁тесно
ထို
срочен
▁ನಡೆಸಿ
▁голуб
▁نشون
▁تاثر
▁مالیاتی
▁jövőben
▁אחראי
▁kĩ
▁comparación
もありました
იძემ
▁தவறு
▁ಆಟಗಾರ
▁રદ
▁səsləndir
ドア
שופט
▁білімді
že
▁სამუშაოები
汚れ
مقاطعة
مداد
▁فرمائی
ಕೊಳ್ಳಲು
शिव
▁കുട്ടികള
▁ఉద్యోగం
▁галін
▁गुप्ता
あらゆる
სისხლ
หงส์
ión
▁Fælles
▁Primăria
▁снижение
▁הראשונים
বৃত্ত
▁shtëpinë
ឈប់
▁सब्
▁Ευρωπαϊκής
▁новца
▁używać
กเกอร์
▁गर्छु
▁Bị
κύκ
▁хийнэ
▁јавних
▁şube
भित्रै
▁месяцы
▁მოგე
▁సహాయం
ходив
▁Слави
▁изгубил
ացվել
▁యువత
▁సమయ
▁суроолор
▁חדרי
बुध
시스
እውነ
ທ້ອງຖິ່ນ
댄
հավանական
▁ಪ್ರಥಮ
▁pôjde
iðnað
▁لحظات
ปรี
▁сууцны
▁собственные
▁مشاعر
▁මහත්තය
▁kesäkuu
▁నమ్మకం
▁məşqçisi
▁boðið
เพียงพอ
▁بكم
▁показати
▁järjestää
▁지난
ظهور
▁మహిళా
▁sündi
▁Хоч
▁продовжує
▁ತೆಗೆದುಕೊಂಡ
క్టర్
▁포함한
▁ඉන්නව
บางครั้ง
égalité
లికి
▁ಎರಡ
▁සූ
▁польскі
▁Учени
▁գրող
▁пораст
ምክንያ
นายกรัฐมนตรี
▁ટૂંક
▁συνεχίζει
▁సాయం
▁ஓட
▁തമ്മിലുള്ള
▁дървен
čnosť
においては
▁naložb
▁생각한다
▁послуша
▁поступка
▁Boží
ความต้องการของ
▁रेप
▁فیض
▁അടിച്ച
ૂમ
▁подготвени
מצוות
▁наставници
▁చివర
▁обмеж
▁હાઇ
ឃាត
▁использует
コントロール
▁ліценз
▁분
rø
▁března
▁ڀيرو
해
▁दिनांक
▁म्हणाला
▁přišel
لفائدة
절
▁громадського
▁대부분의
▁उत्पादक
▁없는
▁სიყვარულის
だと思って
▁حملو
ఫై
▁රමාණයක්
ମଣ୍ଡଳ
▁ஆதரவு
ಶೀಲ
▁طیب
▁מסוגל
פרנס
▁ମୋଟ
ΚΙ
પાત્ર
판
മാരായ
▁वाचन
ወላ
▁도움
▁операциялар
යින්ට
▁ваз
▁безопасность
につきましては
ຄົ້ນຄວ້າ
ło
▁ιστορική
▁стоматолог
▁Valstybės
▁शर्तें
▁എയര്
▁дүниеге
▁першую
▁načelnik
ហាង
▁județul
▁মাসে
▁ذوي
▁rođendan
▁것을
ってきました
▁ବିଜେପିର
▁хуман
▁водач
וויל
▁உத்தரவு
ථාව
સ્તર
dzień
공단
▁Љуби
にもかかわらず
뮤
▁Независимо
▁погледајте
▁ආයෙත්
네
▁сторінки
▁päivässä
▁mætti
ប្រយុទ្ធ
الثقاف
▁කෙරේ
ធ្វើឱ្យ
▁səviyyəsində
▁süredir
ທີ່ດີ
는데
▁käänty
▁кешені
הצג
▁предварительно
▁ლიგა
▁ضمان
회계
▁બદલે
פנק
▁спремни
▁රහය
ttynä
それも
৩২
▁نوار
ುತ್ತಲೇ
▁určitý
ləşməsi
bønn
▁അരി
ಲ್ಪಟ್ಟಿದೆ
▁айналды
▁가이드
▁Młodzi
하다
▁وعدد
▁використовува
▁لشركة
уздан
ର୍ଗ
▁обороны
▁кіст
▁zbiór
人が
▁kūrė
▁போத
▁තාක්ෂණය
консулт
▁претстави
▁שחי
▁инфекции
▁එරෙහි
▁കാറ്റ
ヶ
թան
▁təcrübəsi
▁Mobilā
landığını
க்கூடிய
ビデオ
▁Notifică
ดิจิตอล
▁porządku
▁ګوګل
▁검찰
▁қорғалған
▁төгрөгөөр
▁saxlanılıb
▁ихэнх
▁Климент
▁ورنہ
▁таратуу
▁ಪೈ
▁cãi
▁liyané
▁päähän
▁kayıp
▁يشكل
өөгө
ವಿರುವ
säästö
▁Rád
lıyorum
▁послови
▁κοιμ
▁тааным
▁rečeno
vedení
тычная
▁අමර
▁tržni
▁Материалдарды
▁Γιάννη
▁Μπου
▁ಅಂತಹ
גלגל
▁казне
ਕਿਆ
pædagog
▁Formålet
▁Layihə
▁beigām
テ
▁эхлээд
▁يورپ
▁söder
▁ਖਬਰਾਂ
▁ସମସ୍ତେ
ታወቁ
ျပစ္
▁шығындар
▁سیگار
▁कायदा
▁dhënave
▁recién
myyjä
สอด
▁التطبيقات
▁ప్రాంతాల
▁የቤት
▁имеются
▁военных
эргээ
지만
あげる
▁Звезда
▁değerlendiril
▁ficción
▁பண்ணி
▁стремя
▁olabileceği
▁keçirmək
Тре
▁талын
۲۵
▁ମୋଦିଙ୍କ
▁දරන
ແວ
▁белгілері
▁مشق
▁Evropské
▁ییز
မႏၱေလး
▁Plenković
▁draußen
▁이상
と思う
แพ็ค
pí
▁европска
▁fotók
▁χωρών
▁ملزمان
▁վիճակում
อีกแล้ว
îstî
วิชาชีพ
ющийся
▁разоў
▁колдонуучу
▁osobą
▁spațiu
▁kõrg
▁येऊ
▁مترو
▁блиски
▁հետազոտություն
ఒ
చం
▁yapmayı
され
რთო
táhnout
्टन
▁சிறப்ப
▁ploš
▁postać
▁കുരു
異なります
électricité
▁důsled
박
ຈັດຕັ້ງປະຕິບັດ
▁සරත්
▁данъци
▁এমপি
新たに
▁shuíomh
▁түсу
▁हवी
▁ринков
▁Бај
építő
ത്തുള്ള
▁технических
እንደ
чимэг
▁успішн
त्रय
лорду
▁պայմաններում
▁ڪاب
ທີ່ບໍ່
▁모두
ÁLIS
▁مهل
ችሁን
скрипт
▁қолдана
▁ክን
правових
▁приезж
てみると
추출물
생명
▁ಪೊಲೀಸರ
▁అధ్యక్ష
ปลอม
▁Токтогул
▁પ્રસંગ
η
▁Página
▁függetlenül
▁prípadoch
▁curiosità
▁عجيب
▁നബി
とか
უსის
גשים
ಿಸುತ್ತಿದ್ದ
▁גרא
ರಾಗಿದ್ದ
▁ძალის
▁إله
▁пропорц
učava
▁қойды
▁இதோ
родження
ราด
ෙදි
gjøring
どれだけ
▁çağırış
▁అధికారుల
▁שקט
ગઢ
▁lëng
Université
かす
▁لائے
▁सम्मेलनमा
ėliu
▁Όλε
រង្វាន់
だと
▁Karácsony
▁rozšířen
▁Партнер
▁조절
▁διαφορετικά
▁생각합니다
▁העונה
▁بایستی
▁اجراء
▁віці
▁ڈے
صطلح
▁회사는
▁Šį
▁കൈമാറ
▁құралы
ନଥିଲେ
▁reģistrē
▁посредник
▁фотография
òtic
▁поступово
▁հակառակ
▁भरा
▁നാടക
حشر
▁протестира
መቱ
▁králov
มนต์
лорун
ß
▁어떠한
▁Språk
መለክ
▁эхэлж
코
▁୨୬
▁реакција
▁spoločné
▁известува
▁липсата
▁الجمال
▁цивили
▁нейните
▁مسافران
▁хөгжүүл
▁görüşlər
இது
▁образован
▁රතිපත්තිය
মিল
▁അപ്
হাট
▁використовує
оонун
▁башында
▁부분이
كتف
▁historické
▁기준으로
▁Yolları
▁sīkdat
พัด
▁dzīvnieku
ອະດີດ
▁Zaujíma
▁fjölbreytt
ຖ່າຍ
목
dá
▁përmbush
▁আরেক
ေတာ႕
▁اينكه
▁жинағы
▁بروید
ологічних
▁khiếu
▁불러
▁praćen
सङ्ग
▁turinį
▁Περί
▁използваме
▁교육
こちらは
▁රවි
밤
премьер
▁двома
közlés
▁മറക്ക
▁الحادث
▁բաներ
métrica
љивост
▁společn
▁сцяг
▁крыш
승
▁гормон
хозяйственной
คลิกที่
▁ځواک
▁کردیا۔
▁맛있는
ปรุง
ၿငိမ္
😁
▁العاشر
ნიშნე
▁سلسلي
▁jelszó
▁aktivitātes
▁поредица
▁вистинска
▁헤어
▁बस्ती
조차
▁Детски
▁участниците
▁ڀاء
上がる
▁अतः
እውነት
▁세상을
▁персональны
▁használatát
▁демократија
▁ब्रेक
▁válogat
kymmentä
ಶ್ರಮ
ବତୀ
▁لعمل
そちら
ศักยภาพ
▁Stefán
▁چڙهي
▁فتاة
▁взяв
▁കോളേജ്
地元の
▁тыдня
▁ჩვენთან
▁주제로
램
പ്പെടും
▁Специалист
와
▁המלחמה
▁சம்பவ
एसएस
Буд
▁dünyasında
▁медиите
▁встиг
각
አንተ
strönd
raštis
۲۴
▁የተባለ
▁پکار
▁царев
▁köpek
▁Hanım
▁түрінде
▁İLE
▁न्यून
▁ناھىيەسى
ென்றால்
საღებ
▁રન
▁auglýsi
ರಿಗೂ
▁Քնն
▁ಶಾಲಾ
▁мереке
▁αποτελέσ
เซ็กซี่
ēr
▁bestämt
ਿਸਤਾਨ
▁предвиђен
▁많이
▁hərbçi
▁тарапынан
▁السلاح
▁गरियो
யினர்
▁صوفي
č
▁ٹکٹ
▁Пазар
▁전북
maktayız
รับประทานอาหาร
▁sorğu
పోవడం
▁دلچسپی
کڑ
▁hætta
‫
▁процесор
▁מודע
▁لنکا
切って
oibrí
કિંગ
ಂತೂ
▁недвижим
별
▁Βρετανία
▁защитава
するのに
▁реєстру
▁വയസ
ખંડ
γραφεί
▁Αθην
カードローン
ยั่งยืน
▁dlouhý
정규직
หมวก
▁подлежат
▁cīņa
▁මෑත
▁सीधे
▁Агенцијата
äck
▁уметник
▁жұмысқа
▁апат
▁حساسیت
▁풀어
▁ਮੁਖੀ
ുകാർ
▁Türkei
مواطن
▁принимал
▁டிவி
持っている
▁закрыты
വചന
▁турганын
▁لیکوال
▁sócio
లాండ్
▁نيول
▁지원
▁රැස්වීම
▁գիտակց
▁நடக்கும்
▁फंड
▁ചേർന്ന
▁කොටසක්
▁Naroči
▁рамен
МЕНТ
諦め
७८
άγματος
ぽ
バッグ
▁эксплуата
パターン
กาญจนบุรี
Տեղեկ
▁Szkoła
▁ёсоор
▁учредител
▁цензур
▁الفرصة
▁לעובד
▁następny
▁zručn
▁ಪುತ್ರ
▁Кыргызстанга
ญาติ
tē
▁आएर
▁własny
фили
เลเซอร์
もう
המשך
バンド
▁voľné
ეხო
▁خالق
administració
▁سبحان
әрекеттер
ЗП
▁මදි
ИСТИ
▁ಇಬ್ಬರ
လႊတ္
メイク
ຄຸມ
▁밝혀
നിബന്ധന
▁фурна
▁кеңешинин
▁Würde
▁Макрон
▁종료
▁felhő
▁deputāti
▁схвата
सकेपछि
▁великої
前に
▁ఆటో
▁натпреварот
تأهل
onieważ
をご用意
▁поступак
▁пляц
▁قريبا
ທາດ
▁byrjað
տային
▁воздействие
ΦΑ
▁أمور
▁στόμα
प्रदाय
▁ტექნოლოგი
▁гейм
▁திருத்த
▁प्रश्
fogadó
▁פסח
Cənub
を重ね
ブロック
気を付け
幸いです
ปริญญา
▁클라우드
ອັດຕາ
▁αυστηρ
샷
▁адносна
▁მასალები
▁případech
▁vydrží
▁የሕግ
▁партије
▁משמעותית
▁учиться
▁ұстаз
▁يدفع
▁tisztít
▁הרווח
▁भन्नु
▁ਫੌਜ
▁magának
▁Slovenský
قانداق
▁skönhet
▁მწვ
▁اسپر
शियन
ნაცვლ
ត្ថ
▁айлана
▁rekisteröity
▁γελ
▁kıyı
поминает
ိန္း
▁отказва
든
জেলার
▁potrošnik
▁экономикасы
▁رامنځ
お客さま
មិថុនា
맑
▁aðstæður
פּאָ
▁herşey
▁déchets
▁կատարած
▁ಆಗ್ರಹ
▁отразява
bûyî
▁관련
▁რიგი
▁dveře
▁반
▁zmarł
бросить
▁പോവ
▁krásně
৪১
ස්ටර්
▁وأما
▁балкански
▁айтылат
▁하나
ুল্লাহ
महाराष्ट्र
льнікам
시길
▁მასზე
ράσεις
▁கொண்டே
▁ընտրել
▁detayları
ტვინ
▁пәндер
ამბო
İsmayılov
▁gücləndir
забележителности
▁흐름
▁стълб
▁δραστηριότητες
ยกเลิก
หน้าอกเล็ก
ထုတ္ျပန္
▁κινήσεις
الأحزاب
▁থানার
דיס
pustiť
▁naktį
หลังคา
제작
▁اندازہ
온
▁ስራዎች
▁голосування
▁مقاطع
حکومت
क्षय
▁потребитель
바지
nça
▁तारा
▁īpašumu
▁jogszabályok
▁лекарство
▁Bình
▁საბჭო
▁കിട്ടുന്ന
▁좋지
ペース
ದಲ್ಲೂ
स्ट्रेलिया
▁apmierināt
▁встановити
järelevalve
hä
▁обврски
▁الطائف
กิ่ง
▁пауза
▁Последњ
▁intégré
の前で
▁الرائعة
▁ਪੁੱਤਰ
▁أكدت
ිති
▁Vận
▁Kuća
▁సమాచార
īrā
▁μαύρο
gjöld
ಪ್ರಾ
▁сайыс
▁स्वतन्त्रता
▁ಸಾಕು
▁тонко
▁පරිසර
χτεί
дықтан
แต่งหน้า
▁Sýr
литурги
▁قىسمى
▁czuł
священн
▁անվանում
เบื้อง
つながり
നിന്ന
инновациялық
▁तिनीहरू
▁ნომერი
▁ಪ್ರಭಾವ
▁حڪمران
▁vazhdojnë
▁өтетін
▁Država
▁Resolución
πτω
có
▁եկավ
▁حينما
▁эргэн
ానికే
▁земельных
에도
▁उनीहरूले
하시고
言っている
коўскі
▁უკეთესი
हनु
პური
▁dočeka
όμενου
▁жактар
▁Сонда
▁미국
મય
▁Føl
▁हास्य
မွာေတာ့
റ്റിൽ
見えない
▁tähenda
ாலே
▁кропка
▁Ключ
▁Есен
ニキビ
ลิเวอร์พูล
サービス
場合は
מידות
▁određene
▁dòcha
▁चासो
ભાર
▁художньо
▁przeczytać
▁الإرهابية
▁الكلية
▁цветов
ສື່
▁водещи
သာယာ
▁stroški
традиционал
vægge
نوف
ເລກທີ
ciągnąć
▁सुन्न
する際に
îbûn
▁మొదట
▁ይሄን
▁gyógyít
▁პროგრამების
教えてくれ
▁ئادەت
▁предвидени
▁бъда
▁பலன்
▁религиозно
▁преимущества
ตอบสนอง
ει
▁서울특별시
웰
▁Coruña
ប្តី
▁അല്ലെങ്കിൽ
頂ける
▁לשאול
▁ముఖ్యమైన
▁անցյալ
ගාමී
▁појединачн
గీ
▁покрыт
▁கோவை
▁измерва
▁Liệu
енергетичн
▁kiegészít
▁მეგობრები
▁обвини
▁теоретическ
▁ଡ୍ର
لویه
финал
▁Стрел
lés
▁miliardë
▁tradició
მოდა
▁आँख
ทัย
▁රස්
▁пострадали
ପାନ
แม้จะ
שימת
měři
▁ज्ञात
アレルギー
ไซต์
សំណង់
▁oddělení
▁προσπαθεί
διαμαρτυρ
▁עיריית
ទ្រង់
▁počúva
플
ιέται
▁सप्तरी
เฟอร์
▁ஆகி
▁നടത്തുന്നത്
աբանության
▁ВВП
▁отстрани
속초
▁инвеститори
▁фракция
ించాలని
▁väärt
▁কাজী
فرز
ашкевіч
▁నవల
▁ഹോം
منتخب
▁Бој
മാത്രം
▁యుద్ధం
▁അറിയിക്ക
Мир
törő
เป้า
ступила
▁먹어
▁පණ
തിരഞ്ഞെടുപ്പ
▁Mətndə
る
클래스
rzecież
▁Թուրքիան
▁portugués
▁رودخانه
▁nagyjából
▁presenečen
▁berühmte
▁החלטה
▁અત્યારે
▁Међу
▁손
最適な
▁Μητρ
難しく
▁нём
▁አሉ።
▁výrobkov
▁emeği
ková
เชื่อม
дрицање
▁عاصم
חרדים
ēm
▁közöl
võrk
▁Маркс
jälj
▁നേരിട്ട
ಿಸಿಕೊಂಡು
smíð
▁තරු
เวช
▁κομματ
▁Серб
สากล
Häme
メンテナンス
▁функционер
กระโปรง
더라구요
▁مارڪيٽ
▁societăţi
▁целокупн
▁നിത്യ
ácení
▁رشتہ
ļļu
▁единственный
▁حلقہ
▁стратегічн
いこう
▁પંચ
ēs
▁намалува
▁záloh
▁поклони
ถ้ามี
▁distribució
ÁSZ
▁кайрылуу
АННЯ
▁വീണു
▁దూరంగా
Ủ
ម្តាយ
Església
провожден
▁недељу
▁žodžiu
리
لائحة
▁بالرياض
▁ಬಾರಿಗೆ
▁ప్రశ్నలు
▁Bożego
มันส์
▁متوقع
▁jemný
ได้ผล
íochán
▁लाईक
ႀကိဳ
最近では
ర్చి
▁profesionální
მუს
▁görülme
ಾಧ್ಯಕ್ಷ
▁izglītība
▁сұрақтары
hälsa
▁μπορούσα
▁ਪ੍ਰਬੰਧ
ተናገሩት
を整え
▁Његово
▁ምል
▁участници
▁కళా
មន្រ្តី
Род
▁մասնակի
おいしい
랬
χ
▁időtartam
▁जॉन
▁батлах
ถ้าหาก
▁დაბალი
▁Штип
▁புத்தகம்
▁අකුරු
▁برېښنالي
▁בשירות
▁planificación
▁Λευκ
▁바라보
▁Діти
▁আসলে
▁pronađen
▁тежко
▁स्टोरी
▁скарб
▁서울
ФЕР
▁очікуван
ുറപ്പ
▁सल्ला
▁mạn
▁санаты
محبة
ādinā
▁ዘግ
▁שזו
見積もり
▁ໂຈມ
กาญจน
വ്യത്യാസ
▁Chișinău
삽
▁Сливен
žiūrėkite
ใช่ไหม
▁상당히
▁הבנתי
▁ліцензії
▁аливаа
▁данък
▁færslur
▁ଯୋଗାଇ
▁возникновения
▁مقیم
▁צעירים
২৩
traukė
เลขเด็ด
▁ГОСТ
▁getirdiği
ുന്നതില്
▁ಚಟುವಟಿಕೆ
▁yaptığımız
▁نهادهای
ΤΗΣ
▁ორგანიზაციები
▁임
▁étrange
▁gününü
▁utgjør
▁հաստատել
ເຊິ່ງ
▁щоденн
स्टार
γύρ
▁ફ્રે
๊ต
お支払い
ることなく
प्रतिष्ठा
äng
ลําปาง
Å
ប្លែក
мјесто
▁βαθιά
▁übernimmt
▁pravidlá
▁dəfələrlə
▁осторожно
▁күнгө
▁тратить
၂၀၁၄
hópur
▁планшет
ėjimai
▁díszít
사
▁민간
▁традиционално
tööstuse
▁ιστορικό
▁السياق
должительность
▁ойлгож
▁הרכבת
üveg
касс
ಟೀ
сър
▁εκκλησία
これだけ
▁Labāk
Ислам
ဆိုတာကို
▁өөрчлө
ქრის
▁호주
▁детально
▁eğit
▁سواد
▁גליל
ുകാര്
तिष्ठ
วันละ
účasťou
オフィス
ホワイト
აჩნია
▁Uchwała
▁안드로이드
▁효과를
밀리미터
ֆինանսավոր
▁réimse
▁nepatīk
▁ਪੁੱਜ
▁때문에
▁verejnosť
▁εκλογικ
▁दक्ष
▁нутгаар
▁gediş
▁ډلو
▁остаются
τικα
▁의해서
▁주관
دىمۇ
ถูกกว่า
▁піднім
▁Eikö
▁하고
▁шампионат
▁գնահատական
▁हिम
▁sądow
ชมพู
▁ਫਲ
▁세계
▁கண்டி
▁مەدەنىي
달
▁කටු
▁상업
▁ಬೊ
▁자세
▁의식
felől
▁aparır
ಹೋ
▁sėkming
▁quedará
▁குறிப்பு
▁ಅವಧಿ
▁ହୋଇଯିବ
กระบี่
ອັນດັບ
เพลิดเพลิน
▁Havalimanı
យោធា
皆さま
ഗന്ധ
▁والتنمية
▁глядач
▁Atención
بۆلۈم
▁වචනය
▁automático
▁سهار
▁फ्रांस
▁Квіт
▁közelebb
▁рулет
ोत्तम
έως
▁tasarlanmış
۳۷
ឈរ
▁інвестор
▁Παναγιώτη
▁хугацааны
▁суулга
έρχεται
औं
כינו
▁ਖ਼ੁ
▁स्वार्थ
▁մասնագետ
見えて
してしまいました
ไค
ਹਰਾ
▁осуществляет
▁взех
렴
ፈላጊ
ประเพณี
い
မိန္းမ
바로가기
▁nedokázal
▁pačią
▁קיימים
▁මිලදී
▁בקרוב
▁Stále
సందేహ
▁ზაზა
▁вважати
▁Kormány
▁मिलकर
ణీ
▁איתי
ધૂ
▁Érd
▁ապահովման
නූ
▁המחקר
▁هنرمند
ต้าน
ខ្លាច
जसो
▁ტელ
บลู
▁контор
▁визначає
デメリット
スキンケア
ຫນູນ
▁padrões
띠
▁vânzare
▁సాధారణంగా
▁творческо
▁تنھن
▁хочеться
▁בשנות
▁məhsullarının
▁გზაზე
▁Положение
▁خودداری
ങ്ങളായ
▁நிற்க
▁بزرگتر
▁ගියාම
▁feliç
परे
歩き
▁అనుభవం
▁पठाए
תוקף
▁대해
нёс
öd
▁агенции
▁కలిగించ
hjälp
▁بنائیں
lämna
▁собственици
▁δεκα
ていきます
ອະນຸ
ยูฟ่า
▁certifikát
▁Dəniz
▁επόμενες
▁لعدم
▁körperliche
▁veiksmų
▁fógra
▁хок
段階で
▁পাঠানো
▁spăl
▁ప్రపంచం
ေတာ့ဘူး
▁পারবে
▁פלילי
ക്കഴിഞ്ഞ
を加え
มีลักษณะ
RÅD
адміністрації
▁коледж
८८
минут
モバイル
▁پنځو
アイドル
옵
▁Hükümet
하는
▁Λ
▁изобил
▁château
ປະຈໍາປີ
▁להשאיר
▁କହିଲା
▁Demokratîk
▁oyunçu
Būv
▁بیٹا
▁கடன்
▁선수들
▁ikävä
▁Nazirliyində
표
گویی
నాథ
▁Собор
▁പിന്നില
ထားပြီး
지는
▁სფერო
বিস্তারিত
님
szállás
▁කිව්වෙ
နတ်
▁принятие
▁іншу
▁തേട
႐ံု
▁επισκέπτ
フード
ပြင်ပလင့်များ
▁NHẤT
▁atliekų
곱
repræsentant
▁вищої
▁Ži
▁cliënt
математичн
▁přízniv
▁الخيارات
▁Оқушылардың
▁сәуле
▁mieszkańcy
▁deťom
▁κιλά
▁курстық
▁Израиль
▁трудовой
ცდომ
бувають
▁შიში
▁երկրներում
हॅ
▁простым
▁әңгімеле
▁հայտնաբերվել
▁рамо
▁ගැටුම
ථි
▁предусматривает
живать
ാവുന്നതാണ്
▁látványos
تحرير
▁сонгуульд
▁терет
▁Gewähr
▁мүчөсү
▁आजार
ฟอง
оборудован
옹
▁Günümüzde
길
▁Գերմանիայի
▁södra
▁ప్రెస్
▁ωραία
▁pozostałych
▁ունեմ
▁слушна
▁مۇسۇلمان
▁необхідних
▁Полша
を紹介します
が多かった
ühend
▁σοβαρό
▁నేతల
▁Սահմանադր
▁պետությունների
▁удовлетвори
▁የቀድሞው
▁helyezés
رجح
パ
▁टिप
▁ይዘው
إرهاب
ઇમ
▁مؤكد
ที่ยอดเยี่ยม
ମାଲ
Կատեգորիա
ຕໍ່ສູ້
컨설팅
ouvisející
▁elképzelés
앵
인테리어
▁června
▁député
▁εργασίες
▁sérstök
▁költő
▁ठगी
▁тұрып
▁páistí
▁بكثير
weiß
▁kiauši
테일
▁немски
ဆိုေတာ့
▁تراش
▁Разговор
▁विष्ट
വാസി
ולמות
▁കയറിയ
▁दाग
ပ်ိဳ
▁시민들
HÁZ
ロシア
なきゃ
▁ਵਿਦਿਆਰਥੀ
lê
បុគ្គល
▁Sīkdat
▁GAILEARAÍ
크리스마스
ปั๊ม
▁mälestus
▁αγροτικ
▁civînê
▁vädret
▁다시
▁bolesť
▁עובדת
▁நடப்பு
▁далёка
▁다양한
▁કરતો
▁līnija
▁تكوين
▁задумыва
▁десетина
▁Κερ
▁прочие
คุยกับ
▁согласен
盛り上が
സംഘ
▁орех
إعطاء
なのでしょうか
▁Hồ
▁патува
▁коначно
▁sugebė
ђо
ષ્ણ
गढी
խե
τίνα
クライアント
ห่างจาก
ダメージ
ຮູບແບບ
соответствующего
▁Kerkûkê
숭
কল্যাণ
ສະຫະພັນ
▁엔진
▁sıvı
▁остварува
▁użytku
▁الشيطان
▁झलक
▁țara
▁tésztá
▁behålla
កម្រ
▁الأداء
مؤهل
▁novinár
▁नसेल
▁extraño
▁სერიალები
८१
▁வீட்டுக்கு
تسرب
LİĞİ
éronse
takarítás
äytettä
๋ม
▁আজি
▁ღირებულ
▁оквир
▁Ví
▁ალბომ
കളായി
▁ਖਬਰ
쉐
ເຕັມ
▁피
ครอบคลุม
▁прафесійна
보다
챔피언
▁Upplýsingar
▁stämning
▁գիտնական
▁официр
▁газрууд
▁Wrocławiu
▁frábæru
▁памёр
▁коопера
▁برعکس
▁संघीयता
▁کنيد
ことは
▁impressão
ΠΑΙ
▁vatandaşı
▁قررت
▁ویسٹ
▁Женев
stúpiť
ਹੁੰ
▁ਚਲਾ
दूत
အသံုး
ריג
фейс
वृत
იპოვე
▁danışır
▁známý
สอบสวน
▁идеология
▁ਸਥਾਨ
ศิษย์
》,
▁휴대폰
펌
ცრემლ
▁sastāvdaļa
▁diàleg
▁venkovní
▁명
▁yayımlanan
▁නිසයි
▁શકશે
▁தன்னை
▁ମସିହାରେ
▁Читать
▁ইউনিয়নের
▁तुमची
▁sačuva
▁تقرر
▁ճանաչում
расейскі
▁আনা
энелер
▁militār
ЫЙ
▁لڑک
▁исповед
▁старији
▁зворотн
γαλα
▁הצטרפו
▁включают
راقب
▁قرباني
ប្រវត្តិ
အမွတ္
▁нефте
เสาร์
եզրափակ
コマンド
อินเตอร์เน็ต
Університет
▁Thụy
▁Yekbûyî
▁Մոսկվայի
áz
▁الشؤون
▁وزیرستان
แสดงความคิดเห็น
▁виглядає
ダンス
▁həyatında
யோடு
konyhá
▁մեկնել
ጥረው
▁Земле
▁साधा
특별
▁zapošljava
ใหม่ล่าสุด
محاولة
▁Қоғам
▁Däremot
▁Kö
짱
aéroport
▁Bürgermeister
ሯል፡፡
▁פלפל
▁مراسل
▁ಆಯೋಗ
▁Словенија
▁цивільного
بورصة
▁přechod
▁welatî
ደሩ
스트
▁قافل
ИРИ
▁ھەممە
ফ্
▁Κοινωνική
▁броса
시
▁pracował
طالع
βιο
▁కార్యక్రమం
▁चौकी
▁грб
አምላክ
إخوان
ກໍາມະການ
▁අත්දැකීම
ଜନକ
クラウド
ほんと
ຝຣັ່ງ
หยิบ
▁apliecinā
킬로미터
pərvər
▁Tartalomjegyzék
▁помаже
แผง
▁τρόπους
▁게재
▁Türkiyəyə
▁yapıyoruz
▁fötter
μέτρη
ຄົບ
οντάς
keverék
တစ္ခါ
८२
landırılması
▁fűz
▁дисерта
▁ਫਿ
콜걸후기
▁tirkî
▁geçtiği
▁černý
▁æble
नुपर्ने
스
▁또한
ผึ้ง
▁hızı
ผมบลอนด์
▁vydavateľ
リー
איטליה
▁soveværelse
!」
▁سیاہ
▁أمراض
▁ಅತೀ
▁تمدید
▁കണ്ണൂര്
▁használunk
▁rośnie
▁ಮುಂದಾಗ
▁gotinên
▁olmağa
▁전력
ുകയില്ല
▁əməliyyatı
መረጡ
សកម្ម
▁τρίτη
เป็นเจ้าของ
▁inițiat
▁instituții
▁ಸಹಾಯಕ
ចឹង
▁мүмкүнчүлүк
▁មេសា
▁গৃহ
▁엄청
Алматы
▁geprüft
▁ελληνικές
▁καταστάσεις
▁повідомила
ngày
▁вдячн
▁pārbaudes
▁sledovať
æg
▁आमचे
▁studentëve
▁вредни
▁višji
▁મંત્રી
▁కారణమ
الحيوان
▁нормални
▁håndværk
を考えると
৪৬
▁Fiyatları
▁አለቃ
▁հաշվե
▁ფრე
ご確認
ડીયા
λείψ
▁जागे
▁бібліотек
▁බලපෑම
カロリー
アップデート
▁Matemática
▁substância
fertőzés
▁възприема
▁մահացել
تكاليف
▁meggyőz
이라고
▁جريدة
ลูกทุ่ง
▁поддржа
▁ለመሆን
▁ئىزچىل
いける
▁nejakú
သုတ္
▁кириш
▁ψηφίσ
▁Пламен
▁쓰기
യുമാണ്
σκότ
אָק
▁nytår
▁અધિકાર
▁Кавал
▁උපකාර
ಟ್ರಿಕ್
पीएल
今度は
นิสัย
▁Dụng
▁Perëndimor
▁pasirodė
림
둑
選ばれ
เชลซี
▁асноўна
▁যেসব
▁Məcəlləsinin
▁കാണാൻ
▁सलाम
▁күннен
▁날
▁кетсе
מילוי
ず
ඔය
▁козак
▁అభిప్రాయం
▁діалог
何とか
κινητήρ
רכוש
▁окружен
▁δίσκο
दुर्
▁અહી
แจ่ม
▁Montréal
릅니다
아카데미
БҮЛӨ
▁выглядеть
▁Мислим
▁keskenään
▁બેઠા
▁пользуются
▁Öz
▁maximális
▁नयी
▁өнімдер
▁багтаа
▁फेंक
▁ਵਿਰੋਧੀ
▁סינ
▁კონკრეტულ
ផ្កា
▁બેસી
célú
▁εργασιακ
ज्यू
ทีเด็ด
уватимуть
▁గ్ల
립니다
ደረሱ
செய்ய
メートル
を目指す
เลสเบี้ยน
อวัยวะเพศ
▁VšĮ
▁coğrafi
▁스트레스
숍
ເກີນ
▁totuşi
เต็มไปด้วย
▁वनडे
▁ఇంకో
▁احمر
▁المرضى
▁غبار
▁implantación
▁rovnaký
▁φύγει
বিজ্ঞান
▁спецслужб
ెళ్ల
▁କନ୍ୟା
▁बँके
kjól
をまとめて
▁Sarayı
▁köprü
▁현금
▁azonosít
▁жазушы
使わない
בנק
▁생
jö
▁ଅବସ୍ଥା
▁Ympäristö
変わった
ศรีสะเกษ
ภารกิจ
▁podmínek
โลหะ
▁кызматкери
لەيدۇ
▁Análise
▁įprasta
▁העוסק
▁laisvės
▁iluminación
▁ଆସିଲା
▁воспитания
▁될
ի՛ր
▁ئۇلارنى
▁Бојан
되어
▁세금
ΙΕΣ
▁කුඩු
▁æfinga
ங்களாக
සෙල්
▁анхан
님들
の為に
▁څنګ
▁ተነስ
▁Κώστα
ՈՒՅ
جذب
출장소이스
▁çerçeve
▁මුලින්
▁Angehörige
▁쿠키
розповсюджен
▁홍콩
▁بمثاب
▁કશું
▁كىشىلىك
▁продуктивност
▁זוהי
▁초청
▁захиа
▁मिल्ने
াংশ
▁പുറത്തേക്ക
▁ගනන
▁ihtiyacınız
▁കുറയ
どうやって
▁būdam
أرض
▁Реформ
▁லட்ச
▁કેટલી
▁តុលា
ƒ
กุนซือ
▁käytettävissä
▁piedalās
젖
έφεραν
▁못
▁begrænset
▁تتضمن
▁lietotāju
▁הבדל
ညိဳ
▁ಸದಸ್ಯರು
▁järkevä
rörelsen
▁lífið
▁Көз
రాష్ట్ర
Sumqayıt
▁тілдері
▁המערבי
ספור
lehekülg
လူမျိုး
▁girdiği
▁көрсеткіштер
▁இயங்க
ковіч
▁పట్టించుకో
▁प्रज्ञा
grāmatā
▁پژو
サプリメント
ຫນຸ່ມ
▁مۇناسىۋەت
カテゴリー
ຍຸດທະສາດ
อนุบาล
téri
▁отримують
어
▁терезе
▁জনাব
правителствен
▁કહેવું
ရမ္း
▁парцел
▁cliché
▁जलविद्युत्
ધામ
▁물
▁ስልክ
दन्त
▁sýningu
▁إيمان
▁берүүнү
▁מגיל
▁традиционални
▁апасы
നീര്
▁niteliği
સ્સા
จุฬา
ກໍໄດ້
マーケティング
จันทบุรี
▁জানিয়ে
ตุ๊กตา
▁최선을
変わらない
윗
مساواة
▁Календар
tiahnuť
▁başkenti
▁որոշմամբ
▁Yüce
ผัว
▁ਪਈ
▁Мырза
▁ਕੈਦ
रचना
มาฝาก
▁स्वराज
▁хүсч
▁இன்ப
▁વાંચી
▁ವಿಶ್ವಾಸ
áidí
▁తదితర
พระราชบัญญัติ
페스티벌
햇
förvaltningen
▁sprząta
돋
መግባባት
▁출
▁zabezpečuje
▁утсаар
▁populārā
▁መስራት
▁მაგიდა
▁žvaigždė
▁представљен
Дитяч
약
▁σοκ
▁૨૦૦
председателят
とても
▁осећај
▁террор
▁ಸೆಟ್
▁әдеби
▁piłkarz
ተለያዩ
വംശ
▁καταργ
びっくり
Локомотив
▁Včasih
▁것으로
とも
▁지하철
граждения
อบอุ่น
ျပင္ဆင္
▁besvär
▁റഷ്യ
บ่อยๆ
▁conclusão
▁proběhl
▁השונות
▁سوئال
သည္ဟု
엑
เงินสด
ຕົນເອງ
افغانستان
▁ಶಿಕ್ಷಕ
समुदायको
ମଣି
▁ಬೀರ
▁чітк
רוויח
▁koncentrál
érzés
▁प्रारंभ
▁ശക്ത
υβέρνηση
lähetys
▁საბოლოო
ウイルス
キュー
เศร้า
หัด
หลุม
Apresentação
▁becsül
ต่อต้าน
საწინააღმდეგო
مراهق
▁říci
▁elszámol
▁energètic
엔
▁सर्विस
सृष्ट
ದ್ದಾರೆ
बॉल
ಿದ್ರು
ifikācija
▁rotaļ
したところ
శాఖ
þýð
▁қалыптасты
タブレット
ฟิลด์
お悩み
イラスト
▁Tələbə
▁꾸준히
▁벗어나
▁최적의
곽
megőrzés
ສູນກາງ
▁израел
환
▁السلوك
▁명예
▁ඉවරයි
▁þakka
▁пытаются
מלווה
▁ਰੋਜ਼
видимому
ξεχάσ
못
म्हण
läuft
ਐਫ
EĞİ
פינג
ዘመኑ
▁ئىسمى
▁kezdeményez
▁እንዳያ
▁ମସିହା
▁ਸੋਧ
プライバシー
कूट
출장맛사지
ເຫມາະສົມ
Μακεδον
▁Długość
▁khéo
▁מעורר
▁अनुहार
▁султан
▁Sonrakı
▁İlqar
▁ਫੋਨ
▁كۆرۈپ
▁மேற்பட்ட
ではありますが
əngə
▁தெரு
▁теракт
പ്പോയി
прэзідэнт
ર્ધ
リズム
لږه
ການຄຸ້ມຄອງ
▁저렴
▁сотту
បុរាណ
▁트위터
képernyő
ック
▁skrydžiai
▁रास्ता
▁кујна
▁روحیه
▁espèces
▁الوصف
▁दावी
▁бағалы
เหมือนเดิม
ירושלים
を送って
▁açıklandı
▁රසික
▁அஜித்
७९
الرياض
นันท์
▁оснивач
じっくり
エントリー
▁ይጫኑ
시간
량
Արմենպրես
Фараби
▁fraîche
เต้
▁IČO
és
▁περιβάλλοντος
שְׁ
ประจําเดือน
โค้ง
▁लड़ाई
▁stämmer
▁допусна
▁शेतकऱ्यांना
▁Paríž
▁نمايند
▁Węg
льскохозяйственн
▁ინტერნეტი
이벤트
മാണോ
▁ఆసక్తికర
всій
▁γενική
▁Формула
ுவார்
ਉਹ
▁хэлэлцээр
▁πλαστ
ास्पद
ギャ
▁म्याद
فيصلي
なんとなく
▁Kecskemét
んで
▁이끌어
перспасылк
▁förhindra
▁căreia
▁otići
▁sjálfstæð
▁زیرنویس
აკადემ
▁खुल्ला
▁виконують
▁충남
႐ံုး
▁úgyhogy
▁Určite
एमए
▁ხანია
päivinä
ֆիզ
▁ભોગ
максимальн
ทีเดียว
▁누르
רופן
▁uměleck
▁Трудно
▁տարածքներ
ుచు
▁මැන
ေတြအတြက္
▁практикува
რეგისტრირ
すっかり
▁පුවත
▁coğrafya
팡
pöydän
▁심지어
미세먼지
Бібліятэка
▁līderi
▁įstatymu
▁nguyệt
▁پاسداران
結び
▁Казакстандын
▁employés
▁redacción
▁הנדרש
▁רעיון
▁ڌيان
引き続き
▁άντρα
▁mrežn
садки
задължително
Текст
hálózat
▁визнан
ではないでしょうか
▁১০০
קרנות
wählt
▁ബോക്
と比べて
▁жемқорлық
パフォーマンス
มนุษย
សាសន៍
เสมือน
▁begrüßen
자기소개서
▁bekövetkez
앗
▁långsiktig
▁ମୁକ୍ତି
▁προχωρήσει
▁Іншыя
▁gcéad
▁oceľ
▁ಸಾರಿಗೆ
▁առաջադրվել
ಿಬ್ಬರ
▁составлял
▁پيس
▁ሃይማኖ
▁ഗോപി
▁Токто
▁ზურაბიშვილი
▁tyytyvä
▁ಕುಳಿತ
シャンプー
いきなり
ಕ್ರಿಯೆ
▁köçürül
▁Çiçek
▁χρόνων
▁ਢੰਗ
▁الخطوة
▁వ్యాసాలు
▁உங்களின்
▁கட்சியின்
▁பலன்கள்
▁लावून
▁шаруа
▁rääkima
▁біледі
▁ପୁଲିସ୍
▁ಕುಡಿಯುವ
▁починал
▁ਘਟ
ಪೂರ್ಣ
▁उठाउन
▁өлім
రాత్రి
▁регистрационн
▁Şö
▁دۆلەتلەر
▁آدھ
▁žemiau
просил
▁представниц
を行っている
Ոստիկան
สุทธิ
Oblíbené
자
밭
▁Pənah
よう
ເພີ່ມທະວີ
▁недвижимость
គុណភាព
▁політичні
▁ניצן
▁Sí
▁පිටපත්
▁Chtěl
▁החברים
▁கொள்ளலாம்
▁místech
▁francès
▁እራሱ
▁салынат
վայել
▁बसेका
▁científic
▁tehnički
แตะ
▁омилен
▁ඉදිරියේදී
▁србск
لينڊ
▁газраа
▁πληροφορία
▁வைக்கும்
سرطان
▁கடமை
ପ୍ରତି
נערך
אנען
▁नतीज
アプリケーション
kultúr
お菓子
ศัตรู
มาเลเซีย
▁medzinárodný
ほんの
픔
UYÊN
▁campeão
ភ្លៀង
▁қаржыландыру
▁ИТХ
▁arbetsmiljö
注意が必要です
▁skončení
マスター
▁seçilib
▁хангаж
▁натиска
▁ڳالهائيندي
▁წავიდა
▁династи
തോട്ടം
▁итогов
▁Արարատի
Маленьк
ハンド
stoupí
удобни
apprécie
난
▁ഇവരെ
▁priložen
▁phô
▁vispārēj
▁심
καλείται
マネー
カウンセリング
始まった
を超えて
▁відсотк
▁ပဲခူး
▁Wojewódzki
▁sprendimų
넌
myymälä
▁Děti
▁tuyết
▁Лечение
▁קודמות
▁ഇടപെട
nasledujú
▁осуђен
▁Регистрация
▁ਤੋੜ
▁बंधन
▁φροντ
ën
معروف
▁skóg
สมบัติ
▁പ്രേക്ഷക
ໃ
▁බ්ලොග
フォルダ
อนุมัติ
ไผ่
klædning
▁utendørs
수
▁Hľadá
ಗೋಷ್ಠಿ
▁리
▁сюди
▁особливостей
▁відкриті
сутнасць
sé
▁Thôi
▁درحالی
▁transmissão
೨೦೦
▁beklediği
▁skončí
▁Българи
▁Стеван
▁τοποθέτηση
Người
ความยาว
▁सृजन
νήσι
▁ກາດ
૨૪
▁подписал
▁తయార
▁անհատ
楽しかった
ເກົາຫລີ
▁Citroën
▁Lá
▁Lietotāj
Егемен
بمجرد
▁διαφορετικές
▁teórica
▁Tiedä
▁ಪೀ
▁авторско
▁લખે
mál
ούλης
အုပ္စု
▁γύρο
▁kiertä
▁පාඩම
comercialización
출장아가씨
コーナー
デバイス
およそ
デビュー
プロセス
ปาร์ตี้
▁초
캠퍼스
præsentation
▁Válassz
▁dëshiroj
▁societăți
▁सुनसरी
▁Egyébként
▁óvatos
▁кошуп
▁dělají
Настоящи
▁засяга
▁Βρεταν
▁تیتر
Бизнес
▁தன்மை
▁распространение
▁genişləndirilmə
ವಿಶ್ವ
βγάλ
▁Мамлекет
แนวโน้ม
▁Osztály
▁Suárez
▁Teātris
áfangastað
▁아닐까
서
▁конференція
▁ഫോൺ
▁районундагы
ໃຊ້ເວລາ
▁biološk
▁калышы
ัณ
▁സുന്ദരി
▁необичн
això
působil
så
▁ଦେଇଥିବା
ჳ
▁තේරුම
출장소이스홍성
ାତ୍ମକ
を防ぐ
タクシー
ที่ระลึก
੮
▁säännöllisesti
ुच्यते
▁çatdırıb
▁podnikání
▁돌파
▁Særlig
▁изазива
▁ውሎ
ウェア
நெட்
▁соочува
ΛΙΑ
だということ
▁ಬನ್ನಿ
Гэта
▁ਹੰ
にくく
пропорционал
बाबू
ေမြ
シング
ందంటే
何らかの
콜걸추천
კალათბურთ
či
gnìomh
­
น้ําท่วม
▁Completează
▁පහසුවෙන්
▁निर्वाह
▁голосования
▁Օրինակ
▁публікації
▁ለማወቅ
ស្រូវ
▁függően
▁idėjos
▁životopis
rò
▁солидарност
▁parfüm
▁සැමියා
gerçekleştirildi
Други
צפת
を身につけ
ეკონომი
นครสวรรค์
ชะตา
▁Tādēļ
▁conseqüència
껏
탱
κυπριακ
ét
▁jüngst
ଲକ୍ଷ୍ମୀ
▁පසුබිම
▁середнього
▁prévenir
▁দোয়া
MÅL
▁powstają
▁කෙලින්
▁müəssisələrində
▁sağlanması
▁баталгаажуул
▁ຊີ້
▁ინსტიტუ
▁ബാധിക്ക
해서
žvaigžd
▁일본
ユーザ
▁συμφέρον
▁möödu
kokkuvõtte
▁køleskab
▁odškodn
▁সালমান
▁véletlenül
▁ಕುಳಿತು
létesítmény
bifreið
αρχο
führt
▁пальца
▁Радован
gü
▁köçkünlər
▁inancı
▁മൂന്നാ
tartalmú
▒
té
นิตยสาร
ประหลาด
▁Veľká
▁Sä
どう
자원봉사
تصاعد
▁părăsi
▁Khóa
▁Јанковић
▁खर्ब
សំខាន់ៗ
▁обжалва
ధారణ
▁улстөр
▁الموج
▁сонгууль
▁здатні
ହୀନ
त्येव
မသိဘူး
৬৪
근
cięt
▁ስላለ
▁Ponúka
▁voľne
プレイヤー
▁вимагають
อนามัย
កញ្ចប់
땐
ኢትዮጲያ
intermédiaire
üb
▁цогц
決まり
▁Њихов
▁Эрчим
▁අන්දම
ଆଁ
▁संभाल
▁atstāt
ζυγ
▁ఉండడం
След
۴۳
▁sürücüsü
▁ΠΡΟΣ
キャッシュ
▁ਤਬਦੀਲ
▁தொழில
ສະດວກ
Müstəqil
▁Endüstri
▁Názov
Бямба
▁sreće
▁وبحسب
になった
▁észlel
▁figūr
らせる
відповідн
TATÁS
ступлении
복
▁জার্মানি
▁កន្លង
▁නොහැක
▁കണ്ണൂര
മാണെന്ന
ギフト
▁මෛත
ລັດເຊຍ
ละเมิด
ກວດສອບ
Kurmancî
ಜ್ಯೋತಿ
ೋನಿಯಲ್ಲಿ
▁درخشان
høgskole
▁Kardeş
▁سدائين
▁tømme
▁nedēļu
▁потребовал
▁понуде
vár
ไปได้ที่จะ
▁Матеріал
Літоўск
출장최고시
スタジオ
ฉะเชิงเทรา
ネ
▁kielégít
▁МОЖЕ
▁ਜਾਣਗੇ
▁nacionālā
ຂັດ
ingenjör
ထည်
▁παρακολουθήσ
تصاویر
עלויות
▁задержан
ສໍາພັນ
にあたって
ລັກສະນະ
知り合い
切り替え
✌
▁Műszaki
られた
고속도로
랫
▁bhféadfa
▁២០១៥
▁Środk
▁lietuviška
▁уникална
চন্দ্র
▁લખવા
どのくらい
৫৬
▁సృష్టి
δημοσίευ
▁кызматкерлер
ラジオ
オーナー
キッチン
万が一
หลีกเลี่ยง
มหัศจรรย์
▁Português
sión
መቀነስ
▁elétrico
▁Федеральной
▁கேரளா
▁الاخيرة
▁코
▁αποφασισ
▁açılıb
▁استازو
засварлах
술
▁рассылк
ông
خەلق
læggelse
明るい
▁Τουρκ
▁प्रारम्भ
ศัพท์
ก่อให้เกิด
외
륨
гъвкав
▁Chàng
▁głośnik
▁Τελικά
▁முன்னணி
▁зовут
▁पाहण्या
તૂટ
▁зняти
ς
យើងខ្ញុំ
▁zložen
političk
▁의
▁വായ്പ
どうしよう
▁mūzika
ບັນທຶກ
向かう
クーポン
อเมริกัน
បំផ្លាញ
၀န္ထမ္း
교육
하셔야
працювання
▁Poesía
▁обврска
▁Τμήματος
▁позвао
▁مسکرا
▁županiji
ມະຕິ
höfundar
▁제공
▁தொண்ட
▁психика
סתובב
нновация
қазақ
менеджер
▁අමතර
mē
▁ठान
おっしゃ
ท็อป
กิตติ
겹
▁아이
묶
सम्पादयत
▁sẹo
▁לתפקיד
พะเยา
ǎ
ລ້າງ
남양주
Tədqiqat
▁Guàrdia
考え
▁apylinkės
▁Łukasz
얀
ចរចា
▁Všetci
▁nyilvánvaló
たぶん
▁дэвшигч
▁લાગ્યો
▁лічба
דרישה
▁המצוי
lägenhet
ě
エンジニア
幅広い
サンプル
わざわざ
колишнього
สัดส่วน
ဢ
▁우
백
▁elsődleges
▁어학사전
이용약관
커뮤니케이션
ிடமிருந்து
▁సంప్రదించండి
▁Rêxistin
หูฟัง
händler
▁التنظيف
▁pirmąjį
▁ngoái
었다
ምሥራቅ
▁ਲਾਇਆ
▁енергийна
▁Sjálf
▁повярва
▁గురువు
▁незаконни
טיפוח
ೆರಡು
▁बुझाए
▁തെക്ക
▁Sûriye
仕方ない
ท้าทาย
วินิจฉัย
gümnaasium
▁NGƯỜI
。”
שוחרר
▁अनुभूति
→
▁હળવ
▁გავიგე
▁почиства
▁ищет
▁izloč
ことも可能です
ाभ्यां
تەربىي
모텔출장
เผชิญ
ល្បឿន
เชื่อมโยง
▁자연스럽게
텀
▁Mä
▁sulaukė
▁zabilježen
ຄະນະກໍາມະການ
أفادت
▁ጅማ
квалитет
▁சிங்கள
ИНИ
tán
콜걸만남
にも関わらず
ందరికీ
렵
ဗုဒ္ဓ
ئىسرائىل
▁Iruñeko
▁Szociális
▁përcaktuar
?」
▁호
▁집
▁혜택을
▁Adevăr
▁Mladá
▁वसंत
▁අඳුර
תגובת
▁പിന്നീട
โตเกียว
アーティスト
แรงบันดาลใจ
Ədəbiyyat
▁Сдружение
▁сэргээх
できない
▁போராட
▁gróf
агдлаа
▁обращал
ၥ
▁ලබාගැනීම
pomáha
▁താങ്കള
オーバー
おしゃれ
しまえば
кореспонд
เจ๋ง
면서
▁클래식
▁흘러
킷
▁contínua
▁탑재
넉
▁Třeba
ພຣະອົງ
▁Място
오디오
បាត់បង់
しか
▁Kä
▁नाईक
▁излишни
▁ઉતર
ലൂക്ക
ονομία
▁സൃഷ്ടിച്ച
▁बताउनु
▁sjúkra
アクション
출장업계위
ビットコイン
ສົມທົບ
まいります
잖아요
Воронеж
זכתה
ดินแดน
▁سينگار
▁vzruš
▁распространя
กรุงเทพมหานคร
プライベート
พัดลม
ຢ້ຽມ
ການເລືອກຕັ້ງ
▁sărbătoare
▁싱가포르
เกษม
▁Frühjahr
ត្រឹមត្រូវ
오피걸
▁doświadczony
▁înțeles
▁Украіна
하고
עובר
▁Стратегиј
출장샵콜걸
რიალებ
▁ક્યારે
költség
▁тохиолдол
штраф
تاریخ
たとえ
▁преобразован
ОГА
▁유용한
▁atvinnulíf
▁Zajęci
聞いたこと
▁Борислав
ème
▁ইচ্ছা
ແຜ່
प्रचण्ड
チェーン
アフィリエイト
▁Dəyişdi
겨
▁외
ሶስተኛ
▁sąjunga
▁реконструкција
▁sadzīve
▁спецыяльны
▁nukentė
▁వాదన
▁चेतना
マーケット
azərbaycan
セッション
ジャパン
手軽に
จดจํา
💪
▁Qiymət
▁Karalystė
ża
▁पैनल
▁pôsobia
▁Gö
▁Gün
▁கொடுமை
ാർഥ
אָנע
остављање
комуникацион
▁iepazīt
ศรัทธา
ເຂັ້ມ
함
方は
▁텍스트
真剣に
탓
▁വ്യാപക
seòrsa
když
▁лопат
▁мелоди
rankovė
に基づき
ไอดอล
▁bűncselekmény
▁Fédération
▁Komunës
▁cīņā
익
úl
▁스위트
갓
▁dēvē
▁mnohým
▁elutasít
乗せ
zachráni
▁பரிச
резерв
▁ছাত্রলীগ
▁hljóm
출장미인아가씨
Ĥ
Değişik
▁piştgirî
▁aceștia
향
▁துன்ப
Համայնք
aparició
פרסומי
ταξύ
につながる
มหาสารคาม
取り組む
ผสมผสาน
▁활발
စီမံကိန္း
▁भ्रष्ट
▁undersöka
ित्तिकै
▁выйдет
それ
▁ayrılmış
▁nươ
عندما
▁Зөвлөл
ที่แท้จริง
มรดก
försörjning
▁프로모션
▁흔히
뭘
▁potvrđen
▁atkarībā
▁достапни
▁булевар
ከፈተ
Самыя
▁අකුර
だんだん
Çocuğu
▁Izvještaj
▁Mācību
▁əcnəbi
ové
Müəllim
▁elegáns
▁ręką
▁treacă
श्रवण
▁siunčia
ettevõtte
▁Пермск
▁중국
に基づく
출장샵후기
プリント
Ուկրաինա
▁Desværre
▁Vyhľadávanie
▁Ár
▁한경닷컴
닿
geschätzt
ေတြ႕ဆံု
▁되
த்திற்காக
सिन्धु
▁ඔලුව
▁çəkiliş
▁innováció
▁обновява
Өлгий
Αυτό
▁kerätä
▁stretáva
▁पढ्नुहोस
نۆۋەت
あんまり
มารดา
डब्ल्यू
▁förhoppningsvis
▁gadījumi
▁કાયમ
した
အစားအစာ
▁ऋष
융
▁ieguldīj
この機会に
ຮ້ອຍ
gegenwärtig
▁Británie
ので
▁영
▁아름답
အိပ္မက္
▁hapësira
▁Άρθρο
▁pradėta
▁mutfağı
▁потроши
▁ସିଟିର
▁íomhá
Волинь
ተዘጋጀ
▁սոցիալ
출장가격
を増やす
欠かせない
សិល្ប
เขื่อน
געלייגט
처
▁ناجح
▁ಆಫೀಸ
▁приватна
ると
▁pałac
▁ٹکرا
న్యాస
▁материнск
た
あふれ
スペシャル
ຫນັງສື
Тәуелсіз
▁Pályázat
ël
▁아울러
inquiète
▁ആരെയും
Амгалан
▁mléko
Conferência
▁ఇష్టపడ
▁வளர
освещение
▁ವಯಸ್ಸಿನ
إجتماع
ергілікті
スイッチ
近づいて
ร้อยเอ็ด
ដឹកជញ្ជូន
ทฤษฎี
▁Pagrindinė
ôn
낀
덧
어르신
▁κατάλληλο
▁신고해주시
أغراض
▁እስካ
сподарського
ພຸດທະ
สตูล
Panevėžys
〝
Ẹ
፯
햄
혔

👏
푼
긋
탭
🌟
몇
펴
젊
잖
ఱ
찜
밟
⁠
획
◀
쩌
덱
엿
ഋ
↩
륜
💖
ဩ
풋
횡
█
↔
🤗
ဍ
ól
똥
뒤
😕
헨
✍
댓
뉘
Ւ
츄
넬
ఋ
ఁ
ఝ
뭉
겉
፰
릎
🤔
헥
찮
쩍
💥
혐
౪
싹
쭉
팜
〞
ၦ
펫
ὁ
늬
렐
🎉
륭
샴
궤
뱀
애
늄
ঞ
⊙
첫
◑
짚
ቮ
엣
톰
썰
ॄ
뒀
럿

썩
킥
я
‛
횟
맙
샀
ɑ
얘
랙
⇒
ፂ
놨
둠
펑
Œ
៎

웬
짤

찔
뭔
☑
ၧ
═
팍
얄
ŗ
ቈ
딴
잼
ぇ
ĕ
쑥
💓
⇛
즙
💗
ঔ
맷
➤
💐
뭇
௦
떤
💜
∆
뽐
갯
헛
큼
ぺ
젝
ඞ
↘
👨
にある
♛
딥
〰
슘
ຯ
本当に
̥
ఙ
🎀
즉
늑
▁시간
밋
◐
ऩ

ၪ
下さい
◯
낚
쭈
ェ
뤄
≦
౮
⏩
▌
ঋ
ዤ
Ằ
늙
팸
📌
왁
≧
푹
👑

Ỳ
ၯ
뻗
쎄
엌
젼
훼
몹
💣
므
♨
솟
왈
🍀
╬
왓
덥
⇩
놔
̶
々
ഊ
౭
몫
└
쌤

Ễ
ቓ
⦁
↕
헝
ڤ
샹
◄
👩
짠
∶
ఊ
ぃ
ˆ
잣
🌼
삶
➧
쑤
ᄆ
🎄
듐
♭
✦
💯

ၠ
않
❀
ぉ
쿤
훔
팰
댕
큘
탬
❥
💋
줍
ڧ
💞
♩
삿
╗
↙
໕
✧
랴
ઊ
ဦ
둡
홉
텅
👆
곧
뭐
̆
쉘
┌
時に
꾀
낱
̨

엎
팥
읽
ኼ
╭
녁
ヾ
💫
🎗
∩
░
✒
💃
〃
튬
Ō
௧
찐

홋
↗
뤼
싯
໗

◕
🤩
ឳ
귄
숄
뭄
쫀
ㄉ
♔
뎅
😮
멕
숏
🌞
👀
묻
╰
▧
↲
앳
훤
릅
욘

ʉ
쩡
╯
잤
좆
춥
👧
쫄

ɾ
ħ
뾰
셸
툭
헉
훗

✕
🌈
숫
◙
┤
됬
딤
Ɗ
돗
슛
윅
튠
多くの
✗
🎅
팠
👗
╪
╚
륵
핌
⛳
궈
뎀
렙
쓱
🎂
✤
ਔ
☁
➳
♤
뛸
▁볼
🌱
믈
얏

할
╔
⇦
✄
◼
웁
🏆
쁠
🇦
밧
╝
✆
❑
떳
엊
컥
🍁
찼
끗
⇊
̍

✩
〟
♕
⭕
👦
ǫ
욜
탤
훅

┨
∗
╒
ֳ
쏭
엥
욤
쩐
찹
⇥
폈
💟
랏
셧
첸
춧

🐒

▥
뎃

🍔
ˌ
∕
쫌
찻
🇳
bé
녘
얕
옌

넵
₹
너
╥

엡
윽
◤
tī
👎
ඈ
ᴗ
➨
௮
╙
귓
৳
숀
앎
욥
젬
쩜


ぢ
╨
ㄨ
갸
쌔
웜
잰
짊
ʾ
⇗
╓
┫
ॠ
🔔
쌌
팻
🌎
멱
샥
쎈
짭
찡
텨

👔

╉
◢
ˊ
∑
🍊
숱
튤

╜
㗎
☾
┮
😤
↖
낍
쫙
쾰
텁
⊕
😛
┎
↤
╟
╦
❧
ꨤ
ጯ
ꝫ
🐾


╊
┍
╕
🐦
ቩ
맬
뻣
쾅
윰
ᄊ
╫
☒
┑
╄
┾
☊
↧
⇍
텟
🇩
ቛ
뚤
띵
츨
힛

갠
💳
↦
╢
┧
센터
🆘
🇫

냑
뉠
믄
샾
톈
틔

▁Tā
뮈
샨
쇳
훠


✑
≒
┭
ㄛ
🍋
↭
🔍
궂
멩
숴
욧
윔
쥘
쨩

れば
닳
휼

슝

ဨ
뺑
̧
╆
┦
🍴
↝
▴
ꨀ
궜
넙
듦
뗏
잌
멎
셍
▁살
숑
̤
▎
⇆
╎
╌
↫
💊

될
ᄎ
ꨓ
샅
쑈
폿
넹
쳇

̭

⇎
왑
┥
ㄥ
┉
┒
╁
┆
ꨮ
뎁
슌
슥
🆓
롄
웡
윕
펨
퓌
🍎
ꨲ
↯
∧
これ
ˉ
┕
↞
👅
gā
↜

🐍
숩
홑

ᐛ
돐
뗐
볐
삥
셤
셴
솝
얍
읜
쩝
퉈
휑

ኆ
넝
줏

🍄
🤲
🤖
∨

촨
👃
ໟ
뤠
셩
헙

⌀
꞉
뭡
웩
잴
쩨
텡
팹
홧
🎞
쎌
쭝

▁선택
ꨰ
🙀
ೕ
╛
╈
Ӧ
▉
편
᠑
ᠭ
쟌
Ǿ
፟
졍
Ŧ
ὔ
듄
삑
쨔
⊃
돛
돠
섶
솨
쉔
윳
츔
큭
푯
햐
흄

훙
ꨅ
준

▁하지만


픕
푀
튿
텼
쭐
옻
쉑
셌
먀
띨
땋
갉
ꡒ
튄
톳
캥
짰
쑨
딨
꽐
귐
üh
쭙
잽
뮐
뙤
낑
꞊
▁확인
☸
Ἄ
쫑
윷
앴
볏
늉
녜
옅
뽁
⏑
탰
옇
몄
땄
뎠
놉
▁ν
❊
쫒
봬
묽
뗀
귈
글
찧
덫
✠
밈
넸
엷
쌉
뒹
넋
슭
섣
닻
♒
맏
끙
읊
❆
틋
쭤
잿
눉


솎
좇
낵
☩
랗
₫
샛
늪
튕
띈
땠
ἕ
☮
Ẳ
컫
섀
싣
뉜
ஔ
펭
떴
❍
눕
ẍ
텃
탔
댑
Ẵ
팎
큽
덟
꿨

딛
얹
ၩ
잦
씌
흩
뤘
핍
ၣ
짙
ऎ
찢
▭
껑
핥
엮
텝
갇
☦
꽂
휩
궐
앓
녔
끓
ጇ
ၨ
얇
껍
쫓
곁
옳
슐
Ỹ
듈
닮
쩔
섞
밌

낳
띄
덮
쁨
Ắ
ὐ
섰
렀
뽑
낄
듭
옮
겪
닙
끊
봅
늦
၎
맡
펼
랐
ɗ
Ự
봤
Ứ
믿
Ộ
Ấ
ẵ
왔
높
됩
렇
ẫ
ắ
독
ầ
ấ
を
▁қайта
▁노
ύ
▁기자
▁€
ụ
ち
▁Dá
ò
▁à
▁여행
しい
ŭ
かった
▁포
▁최
ît
결
▁Jä
れる
▁산
ög
져
▁현재
〜
령
▁다음
óc
▁보기
私は
▁달
という
▁운영
ála
▁Már
네요
▁Ça
본
날
▁어떤
▁사진
気持ち
말
효
▁제품
ブログ
▁감
▁화
▁café
▁Cô
▁그
により
お
少し
のに
če
정보
▁아니라
rás
▁이번
ガ
▁없
년
üs
ページ
rū
병
nü
り
ūk
▁약
▁이런
▁게임
창
▁기업
män
ノ
▁기술
초
▁건
âm
】
▁Lí
næ
Î
他の
번
ç
ではない
だから
取り
én
ñe
私の
▁연구
추
せ
▁들어
َ
▁사회
▁각
ω
μ
평
▁있
からの
kó
pá
된다
ța
特に
▁문
くらい
▁æ
が
nī
すること
mü
▁첫
▁ä
▁변
▁추
▁その
▁Gör
mó
ニ
축
▁しかし
▁된다
していた
ぶ
それは
▁María
▁→
으
メール
える
mín
øy
そして
rå
には
π
をして
▁적
▁Hä
름
しない
▁데
▁상품
▁만
。
▁있는
링
▁Đức
をする
정
까
▁에
▁Há
âr
▁새로운
했습니다
▁방법
▁들
▁Vä
く
▁결과
tör
페이지
▁Kü
▁있으며
ț
のお
đi
▁영화
があった
▁통
▁검색
łow
▁있을
ça
されて
ány
コン
▁로
ál
ことで
▁줄
がない
혜
ő
처럼
이라는
bá
って
락
▁사업
합
ström
Λ
të
장
て
▁Vás
▁대표
▁이어
대
울
日に
▁등을
gå
▁É
jón
アップ
を見
망
sá
付け
をお
▁및
곡
▁θ
▁début
já
하면서
ály
。「
▁보고
fé
▁바로
▁한
철
よりも
▁새
čić
▁타
させて
ること
▁이야기
による
ポイント
ś
ûr
ろ
られ
び
ש
▁너무
rà
릴
大きな
のように
、1
게
ティ
óg
édi
tín
▁트
▁있다
何か
のある
택
랑
たら
녀
▁가격
만
ż
▁없다
したり
열
なる
불
ε
▁아니
sú
さらに
ás
▁Rö
ép
思い
아
τα
▁최근
▁게
その
ví
そんな
▁토
¥
fér
mí
▁패
억
▁관
살
☆
方が
tür
nē
に
ĩ
▁사람
▁뒤
것
とき
널
기를
同じ
ança
성
Qué
ど
にて
ía
▁있습니다
ätt
변
どんな
ász
▁메
▁했다
īva
▁『
액
では
규
▁속
áll
もっと
イベント
자가
▁용
お店
▁Θ
jū
례
Φ
▁경제
▁지금
▁개발
ković
▁추가
lić
gård
än
lí
まだ
たり
ス
▁Chí
》(
▁여성
様々な
▁그런
상
이며
▁Pře
ała
ły
팅
▁dé
숙
æ
νος
▁국내
▁×
は
」「
▁정도
rón
ία
かな
▁점
hó
▁Vær
θ
」、「
▁특히
라
ūd
だろう
완
の中で
ü
▁치
ūr
▁눈
これは
ég
ños
▁정말
▁편
▁올
▁식
▁무료
の方
えて
▁그러나
tä
しかし
があり
나
実際に
▁개인
すれば
プロ
▁온
もある
▁어떻게
lân
▁문제
되고
lè
さんの
íl
▁가능
▁ré
ρ
▁댓글
▁종
ふ
nö
▁Á
së
æt
메
원
▁좀
brá
거나
▁이후
öld
항
▁Té
ería
iño
혼
、
▁직접
▁창
▁Lé
▁Š
▁없습니다
いない
부
▁Sé
この
▁민
▁そして
▁전
šić
했던
렌
▁백
▁Vé
については
▁금
▁회원
ías
트
의
화
▁zło
▁사이트
を見て
ē
ești
▁내용
ług
ão
ési
▁「
기업
ča
▁İn
lé
ホ
éri
ród
dú
▁동안
通り
ヤ
▁애
율
ità
▁나는
▁문화
문화
ře
▁Lö
됩니다
お客様
ロー
▁ψ
ために
▁시장
のような
ová
니다
▁México
▁Día
으면
만원
적
▁자료
▁Việt
ゲーム
▁법
▁프로그램
▁되는
それを
▁여러
전
となる
▁Bé
월
▁맞
のも
というのは
기도
▁참여
▁바랍니다
バー
łę
▁필요
담
▁Erdoğan
틀
jø
カード
日の
mán
āja
씨
▁번
rés
▁Må
と思って
いつも
レー
황
▁사실
▁Α
어요
페
들에게
であり
めて
있는
新しい
こう
ētā
성을
▁구매
vá
▁Çe
▁내가
▁준비
inä
らず
▁담
▁만들어
らない
▁á
▁Sü
▁발생
げ
탄
▁é
▁않
주의
▁곳
츠
▁Mé
に関する
こんな
つけ
ディ
▁있어
ライ
ár
돼
」(
でも
tré
곳
læ
quí
소
gården
あまり
née
τ
▁찾아
▁Nú
やって
▁의미
ということ
▁ś
진
▁국가
런
능
▁현
▁있고
ván
▁Sö
▁사랑
āti
▁인터넷
관리
てしまう
▁Groß
흥
▁회사
つの
cá
움
ñas
と言う
▁추천
패
리는
▁전체
かなり
드
▁등록
のために
ët
σ
nú
だけで
àn
볼
이고
ół
cía
▁Ś
ül
ρος
▁예약
ación
▁천
라이
을
ās
している
になり
올
뉴스
▁Hü
Æ
▁된
갈
ではなく
한국
られて
동
팀
되
ール
▁직
ée
ēl
▁네
人に
▁발표
あり
umā
▁복
ら
▁계
▁것입니다
ώ
▁고객
▁Hér
가지
なくて
▁관리
테
▁학
län
ák
だと思います
자의
록
▁참
▁등의
▁Está
▁없이
▁드
sø
사회
ったり
▁Nó
면
私が
το
▁구성
으며
▁América
▁공개
jál
▁Göteborg
情報を
ré
비
▁오늘
í
▁Giá
▁이제
▁Trần
bó
▁français
이라
▁몇
대로
사업
▁판매
アプリ
気に
tón
▁전문
▁Vá
者の
に対して
上げ
õ
▁Vär
▁같이
システム
ぐ
▁방문
▁목
▁않는
였다
持ち
▁말했다
찰
▁München
パー
ló
′′
したら
▁정부
▁몸
산
▁Sør
ていた
았다
▁κ
▁허
ぎ
맨
▁분석
습
▁요
▁Đ
ński
▁가지
ört
を使って
▁있었다
접
하세요
▁레
é
송
すぐに
āta
日本の
▁가족
른
年に
▁해당
が多い
ô
cí
▁Tá
れて
▁정치
▁있도록
▁기본
▁밝혔다
éad
▁Lý
ă
しても
になっている
▁포함
受け
킹
ały
やすい
때
▁그래서
に出
▁경기
好きな
きた
mö
データ
などを
▁않고
▁가지고
스타
sö
▁건강
違う
ât
ことに
구
自分が
れた
▁Ör
を持って
ヒ
▁특
덕
▁키
μα
엄
▁매우
▁안내
▁Cá
ことも
más
にして
셔
▁알려
▁감사합니다
ここ
▁순
개의
순
änder
φ
λος
ップ
ゆ
다고
됐다
▁뉴스
āra
▁이해
제
▁별
▁Bảo
ちゃん
▁계속
gén
▁Gü
▁변화
▁왜
としても
köp
そ
änger
이
▁소개
まず
ネット
▁역
中の
▁설
충
において
見て
κ
ひ
》、《
▁됩니다
ー
ká
얼
デザイン
▁대통령
▁이렇게
슈
있
ér
ク
▁방송
게임
ière
었
örd
▁충
、2
▁설치
▁자신의
에
それが
개월
▁잡
čev
▁시스템
γ
še
tá
▁면
▁환경
』
▁국제
カー
▁일반
▁활용
ssé
니까
zón
▁Π
める
ラン
▁Jā
テレビ
▁개인정보
했
が必要
▁국민
▁태
▁북한
éré
▁Fá
지고
▁Reykjavík
のみ
▁과
레이
▁등
▁−
▁그는
▁İzmir
rão
dā
자는
▁길
▁버
äll
▁온라인
▁물론
ί
▁개최
▁목록
지를
ギ
필
돌
▁난
에서도
▁Ša
▁자리
今まで
새
▁수도
▁기대
▁막
ín
pā
십
øg
▁역사
▁기록
기에
▁귀
시장
▁처음
lá
악
の方が
érie
非常に
いく
▁디
착
▁Í
▁관한
bü
▁안전
긴
▁설명
다가
대학교
다는
▁신청
ときに
上で
ων
くる
▁않은
▁För
▁부분
졌다
させ
▁적용
딩
▁표
▁북
irí
ará
▁폭
▁Sø
선
pó
vé
▁Kỳ
▁최대
で
gün
áp
하였다
気が
élé
▁위치
▁우리는
ères
▁올해
▁이름
ité
▁Sá
치
▁Lø
▁돌
言って
▁하루
▁Né
▁Mö
を受け
▁사람이
▁자신
스터
요
言い
바이
▁André
ほとんど
マン
ただ
▁합
협
들과
훈
▁라
します
よい
▁평
▁행사
된
▁Glück
īd
회의
−
▁Ε
▁경험
▁お
ím
▁태그
보험
▁기능
iña
スタッフ
tí
▁등이
▁학교
▁여자
自分で
▁야
ばかり
▁유
そうな
時は
にとって
%。
gré
îm
탈
ル
위원회
▁이러한
món
▁어느
신
▁배우
암
年の
▁Sơn
▁광고
▁Cé
▁Köp
▁갈
▁성공
▁않습니다
öf
été
といった
ホテル
용
▁§
āna
アメリカ
▁평가
▁있다는
éra
lü
なのか
▁삼
▁같
삼
のこと
žna
▁자유
ない
sław
▁Če
은행
▁Rá
▁프로
▁노력
īna
初めて
nä
겠
ずに
▁활동
갑
であれば
▁중
立ち
▁제가
とした
▁증
객
としては
一緒に
イメージ
옥
되지
ファイル
ğ
なければ
stä
簡単に
día
했다
なかなか
▁받아
子ども
āc
▁만나
▁투자
▁성장
ご
▁아닌
入れ
aḥ
거리
または
골
탁
ト
▁결
확
ić
▁Fé
▁일부
られない
どこ
šek
yā
čka
▁크
▁디자인
lø
アン
경제
など
슬
▁되어
られている
▁제작
ュ
みんな
▁Bürger
、3
▁이벤트
レン
だけでなく
以下の
▁현대
することで
ます
っていた
명
ちゃ
聞いて
ït
」
▁절
드리
▁해외
ッチ
▁기타
신문
ものを
▁필요한
▁Süd
必ず
▁이전
점을
チェック
가는
▁보면
tó
사이트
合い
方も
はない
für
▁è
お金
▁Universität
미
日は
していく
라인
▁Hö
kū
pār
이었다
話を
過ぎ
かどうか
eño
하거나
限り
밀
なぜ
これから
▁웹
▁Quảng
ḥ
ないように
하게
▁Tí
øn
기관
▁문의
▁자기
쳐
ユーザー
ña
왕
読み
かけ
▁유지
▁변경
ね
なり
フェ
ären
▁작품
▁오후
명의
▁이유
▁작성
として
今回の
▁관계
▁Rä
cú
させる
食べ
高い
ås
이다
세
ār
chè
ünde
마
몰
lä
▁Bü
â
伝え
もない
지도
▁Tú
ón
데이
▁필
実は
しながら
tā
じゃない
▁보
▁정책
압
▁István
▁조금
위
ős
클
하실
입니다
▁Ér
書き
▁비교
▁질문
中に
難しい
好き
「
ファン
チャ
▁sū
をしている
cré
mét
률
▁높은
▁García
śnie
今の
지원
かもしれない
ská
▁아래
▁Điện
▁시설
보
き
目の
今回は
時間が
求め
▁결정
▁알고
▁Þór
기가
▁대학
▁이를
막
▁증가
인지
응
▁내
ρα
私も
단
ßen
▁Mí
că
▁입니다
んでいる
▁회
▁사
▁음
장은
ą
ザ
以上の
▁도시
극
ケース
▁송
ån
cè
▁α
出来る
ける
▁모바일
λ
▁Ö
▁몰
ός
ām
引き
손
起こ
▁생활
헌
にも
書いて
ük
개
줄
ほ
▁설정
くて
▁교수
▁대
ᆞ
홀
▁상태
▁황
▁Pá
étude
rán
バス
などで
혈
▁홈페이지
산업
욕
▁더욱
ã
▁가
▁Tü
付き
▁고
これまで
～
と
み
visión
▁Lü
▁모델
▁기사
수가
▁가입
ことができる
次の
지역
▁더
낸
べ
と同じ
じゃ
ža
▁운
hü
rē
▁Mø
▁général
▁Café
▁팀
ざ
つい
았
欲しい
▁주변
▁세상
の場合
보기
사를
フィ
▁넘
장을
ご利用
그래
▁파일
회
적이
Š
▁홈
考えて
šu
번호
った
出会い
▁Dú
いか
▁블로그
▁Pré
▁Æ
활
おり
cán
▁잠
”、“
āri
ärt
▁사이
없이
▁이미
このような
명이
ám
▁말씀
▁음악
실
あげ
§
인데
알
▁해결
▁Bö
오
벨
▁향
kö
前の
▁Că
多い
▁처리
bā
ないと
▁브랜드
▁인기
▁그러
▁ただ
▁영상
▁지
事が
のだ
ということで
dö
ū
식
強い
푸
ないので
mī
mér
▁João
もし
시는
▁Música
ナー
gäng
▁ρ
▁Pé
하
▁우리가
▁체
▁골
あと
▁삭제
▁Ł
ń
▁für
と思った
rè
▁Ča
hì
良く
してしまう
さ
▁아무
hà
▁시
▁마음
からは
後に
▁독
インターネット
까요
ました
パン
▁슬
▁농
▁남자
eña
っと
▁공간
事を
도록
われ
の場合は
サポート
サイズ
▁이동
▁신
くなる
早く
▁있는데
▁전국
▁작은
▁faça
폰
わからない
にお
풍
차
한다는
う
rät
▁아주
랜드
▁私は
▁부산
たち
▁최고
기는
の中
▁일
셨
▁역시
mén
することが
コメント
Á
gū
▁제
득
▁산업
▁발전
▁Malmö
▁음식
楽しみ
▁상황
åk
とする
▁힘
▁영어
▁악
‧
▁저는
찬
アル
▁주소
çi
zā
に行く
その後
척
여행
▁Bör
É
월드
자를
しており
특
▁것
▁학생
▁계획
징
▁제주
▁하지
스크
▁다
▁생산
れない
センター
카지노
▁그런데
▁분야
uß
dī
▁Fernández
落ち
도로
人も
사진
▁소
▁Mér
▁Mål
▁승
を行う
관
言う
bø
▁Ç
やはり
ön
向け
최
▁Δ
ビジネス
込み
áng
▁사람들이
ř
▁급
å
나무
로서
ができる
と言って
リン
école
気になる
▁보내
견
서비스
なくても
せる
▁좋아
우
、「
▁Jär
▁해야
länder
だ
いき
まる
되었습니다
▁대한
月に
▁fête
▁Tổ
のは
râ
▁판
▁대상
▁존재
わけ
ていく
▁만들
våg
▁작
▁László
분
pū
잡
야
éz
マイ
でき
▁Út
▁중요한
를
▁홍
▁Atatürk
サイ
ーション
▁돌아
▁안
行く
▁자연
▁나라
ときは
ê
ró
셀
아이
▁논
성과
つく
リスト
使い
jā
련
ō
rück
유
はず
すぐ
時の
în
치는
▁Rø
은
였
▁미래
及び
▁János
▁당신
▁운동
えた
적인
한다고
ök
ór
ても
違い
▁연결
▁함
갖
▁것도
jí
▁Pál
jä
▁너
메이
▁기간
あの
▁가운데
bër
▁치료
▁감사
재
▁스포츠
す
が多く
▁정
럼
シャ
▁오는
そのため
á
▁요구
방
리고
씩
▁비
중
위에
思う
ド
ský
서울
ör
らしい
가
참
▁살아
ður
ī
▁사람들
학생
센
ács
大きく
▁표현
▁아
があって
▁지방
▁결제
▁Sæ
귀
학교
tô
ādi
▁주문
▁Gé
を取り
場合には
싱
straße
히
엘
èr
▁이미지
렸다
닝
けて
▁Tó
あった
▁인간
▁있었
까지
いている
▁암
ków
を感じ
つまり
つ
▁française
세요
▁År
ría
är
▁앞
īm
▁쉽게
しまう
rô
チーム
앤
▁조사
あって
イ
▁참고
▁Fü
▁즉
ダー
무
▁행
▁Hæ
するのは
『
のを
▁실시
▁Bá
né
の中に
行って
▁전화
시설
▁평균
▁선정
どちら
▁부
▁먼저
호
▁거의
▁Hör
blé
플레이
▁친구
▁Bó
までの
▁Jesús
▁있어서
ério
대출
ただし
ży
bí
▁페이지
▁기준
보고
▁데이터
セット
▁질
짜
®
ショップ
▁시대
▁pré
bū
dē
카톡
ân
▁주요
어서
▁앞으로
▁Hå
アクセス
▁López
▁기
aquí
▁접
を確認
みて
▁전자
時間を
사가
》。
▁번째
▁업무
했고
皆さん
▁근
ønn
▁전에
▁있다고
주는
▁마지막
▁한번
니
者が
하신
”。
▁항
作り
ülü
▁의해
δ
▁따
買い
랜
▁팔
▁가능한
お客様の
▁공유
rías
行き
リンク
〉
러
진다
▁오
들이
▁하면
まで
仕事を
えない
コース
▁이에
▁기존
▁탈
정책
람
파이
▁월
例えば
출장
ング
ün
かかる
당
▁철
ぼ
ホームページ
▁일이
より
됐
étique
ška
に対する
【
ké
uté
▁현장
▁•
kön
했는데
겠습니다
のため
いって
何も
이란
▁밤
는
と思っています
▁왕
pán
ラー
リング
▁Tör
▁○
▁보호
があれば
キー
オー
기술
ート
배포
▁형
等の
▁열린
▁받은
ン
▁Köln
▁서로
するために
答え
のご
협회
ða
ための
いつ
どの
やり
ις
çon
bæk
성이
āka
▁사용자
rée
찾
がある
▁없어
윤
▁η
오피
▁Γ
값
人と
間に
▁그렇게
▁마련
▁π
れている
ている
궁
▁청소년
続け
위를
ène
決め
høj
공
strøm
▁추진
全て
ür
▁놀
パソコン
お気軽に
▁1⁄2
切り
ピー
Ś
▁느
▁밀
──
後の
▁이메일
▁최고의
홍
들
借り
▁출시
飲み
경
염
”.
ŵr
밥
모
ēt
▁콘텐츠
全く
▁Rodríguez
āl
かれ
レベル
να
연
▁같다
を持つ
▁때문이다
ní
ここで
ワー
であった
るのは
ご紹介
ète
▁리뷰
하였
▁아직
째
ずっと
사의
にする
けば
ø
▁정보를
▁일정
력을
▁그의
rín
▁나
▁작업
하여
幸せ
▁사건
▁Rü
のない
릭
틴
▁할
▁병
目に
곤
▁있지만
Ü
에는
이는
▁Øst
텔
굴
▁만든
▁맛
복지
▁당시
▁장소
▁있기
上の
こちら
ére
出し
rød
▁않는다
▁늘
리를
▁Gór
▁테
▁풍
に行って
の上
と思い
していない
▁자동차
코리아
しよう
▁여기
▁따르면
くなって
コー
掛け
버스
すべて
▁무
になると
폐
납
ジュ
념
▁그녀
여
▁대한민국
こと
グラ
하기
の人
ほうが
メニュー
▁듯
주택
▁Cộng
롭
をした
できた
▁그냥
트리
の方は
rê
▁それ
핑
▁한편
문의
▁컴퓨터
までに
▁개선
▁상대
シー
▁팬
에서의
문
▁않았
가요
ço
アニメ
uș
물
楽しい
인의
▁뭐
▁해
몬
▁윤
と思いました
ónica
▁노동
경기
▁Ás
▁사용할
▁페
良かった
▁환
▁않을
일까지
キャ
となって
육
▁지나
대표
ーン
køb
▁감독
형
を出
お願い
▁긴
▁준
▁게시물
▁Hög
必要な
짐
)」
された
ør
▁동
▁가진
ご相談
기간
균
▁아침
生き
개발
므로
▁공부
리스
lå
나는
▁기억
생활
るように
ション
▁자체
込んで
일부터
力を
え
に参加
べき
사는
め
▁선수
€
과정
▁따라서
hã
▁Dön
운동
영
プラン
こそ
▁Lær
一つ
넷
샤
▁엄마
건설
다면
入り
▁예정
タイ
ビー
詳しく
ッド
ó
로부터
別の
ři
Č
ées
르
多く
évolution
rén
다운
▁폐
▁Šu
▁자
最も
▁González
方の
문학
▁Før
▁Stö
▁책임
핵
▁교회
dí
も
▁주장
▁아니다
▁Ü
お問い合わせ
聞き
상을
dán
ūl
▁돈
활동
▁행복
▁これは
ος
ütt
ération
▁머리
샵
▁가슴
サン
スク
セン
なん
ù
jóð
▁하나님
グループ
카페
상품
ま
これが
働き
▁제목
▁않아
▁今回は
ów
▁의원
합니다
▁후보
▁수상
▁Unión
▁인정
Ö
▁결국
▁특별
▁지도
ž
달러
bók
今は
ṇa
▁입장
来た
ラ
使う
大切な
▁도움이
로그
▁올라
▁사항
▁되고
jörð
▁터
isée
▁인
だが
おか
それぞれ
도를
▁가치
いで
▁여러분
인이
思って
좋
まま
まり
エン
▁문서
安心して
▁풀
▁고민
되었다
と思いますが
장이
mäki
選び
▁어린이
수는
세계
우리
▁Hé
업체
답
▁서비스를
▁Français
▁프로젝트
ならない
안
▁받고
そのまま
どのような
かに
일보
토토
▁Å
교통
물을
명을
▁싶은
▁일을
間違い
だったので
ックス
いる
리그
サー
なし
お知らせ
▁공동
나요
ていない
으니
ö
▁Mü
に入って
と一緒に
방법
▁Schön
である
하자
いた
メンバー
とのこと
▁공연
が出
킨
▁그림
すでに
▁σ
▁König
▁Φ
いれば
ぐらい
폭
▁참석
bán
▁때
식품
수를
보세요
▁항상
▁않았다
かない
겠다
솔
▁결혼
축제
てる
もあり
ᄒᄒ
なって
kä
▁이날
세대
▁공
〈
lön
まい
▁Straße
텐
▁Ngô
▁나이
하지만
▁검
これを
そこ
dís
원을
いった
과의
▁모습
▁문제가
さを
▁녹
적으로
해요
いい
듯
モデル
▁보여
出す
교회
▁붙
▁과정
▁체험
tería
슨
illé
もちろん
gö
▁비용
κα
▁모집
▁숨
▁마
사항
kjær
näs
려
つか
학
▁공식
重要な
ものが
낙
▁로그인
렸
日々
▁싸
ファ
하는데
▁Các
공사
ほか
ček
▁인천
▁경영
スター
큐
▁있게
턴
せて
▁소리
▁등에
마다
つつ
ぬ
▁읽
▁되었다
항공
▁극
ニュース
▁할인
▁구조
カメラ
ρί
학원
▁표시
内の
Trøndelag
あれ
なお
1⁄2
ジェ
▁Høj
悪い
감을
によっては
pré
なもの
トップ
▁하이
合わせ
▁사고
▁«
となった
▁조직
▁이는
기로
▁찍
케이
대학
ホーム
▁객실
▁삼성
▁영국
てきた
方に
mām
üst
が出て
▁현실
▁입력
スの
▁Río
▁ε
하겠다
人を
며
痛み
ストレス
▁얼굴
금
▁식사
Α
コ
▁앱
ステ
手を
▁크게
人たち
であること
知らない
ï
kás
정부
分からない
▁한국
かも
▁확대
포토
▁강화
▁티
추천
▁후
▁했
νη
なくなって
げる
ъ
투어
▁supérieur
짓
억원
농
▁미
거
を見る
イス
ñ
édé
▁석
テーマ
▁Ramón
を使う
▁말
▁siècle
리아
▁우리의
보호
▁중에
▁대회
▁다운로드
ír
▁그룹
いると
クロ
ș
춘
한다
▁클릭
ös
▁요리
することは
というもの
スタ
bér
▁답변
▁Dö
▁만큼
학과
かり
자료
▁따른
▁보는
얻
서는
▁알아
▁발견
일에
もなく
öl
▁참가
넣
톤
▁Björn
핀
される
々の
▁보다
튼
話し
どれ
▁아이들
あたり
▁같습니다
過ごし
▁요청
▁여름
대회
폴
増え
▁되지
▁싶
čnik
▁전략
なくなる
手続き
검
してから
する事
▁예상
していて
うちに
계획
▁Éireann
ライン
わり
合う
▁시즌
▁언어
▁þ
▁기반
도의
アイ
▁오전
만큼
년에
お話
▁Nø
화를
▁아마
。《
と思います
자에게
ッシュ
ú
▁받을
▁정신
빈
▁헤
。」
렉
▁가능합니다
ä
▁스타
てしまった
りの
▁수집
관계
▁시간을
また
▁저희
었습니다
やすく
ライブ
したこと
ເຫນືອ
মের
ον
ຄວນ
వై
эш
piše
বান
허
ДІ
▁पाने
▁şərh
لیک
▁Көп
▁वाह
▁селищ
すごく
▁təbii
েল
▁materiałów
▁používania
▁šā
கும்
▁quería
स्ते
▁захар
isté
ПЛ
▁తెర
Ķ
▁전시
önü
▁sàng
▁qartë
▁четыре
▁айткан
și
▁Mě
▁länk
läget
▁વખતે
iecību
▁රෑ
▁پرا
Од
ódik
▁знаменит
▁рам
▁рассказ
ару
లక్ష
▁баян
lbstverständlich
▁രണ്ടാം
više
▁տվել
▁comunicação
väri
▁pièce
Ғ
ശം
ағы
ชิง
▁Општи
▁савремен
ÇA
▁პარ
オン
ανε
ांग
రాలు
▁уживо
▁Υπο
▁интереса
▁เพลง
▁തിര
▁Законот
▁واقعات
▁പറഞ്ഞത്
▁මස
▁డే
▁రావు
ाळ
▁салық
tellä
▁товара
▁ھال
grün
▁اخلاقی
ογ
▁nəqliyyat
▁ಹಿಂ
▁المسيح
ภาษี
▁ትግል
ທັນ
▁gäster
▁Свято
spæn
▁офіційн
કુલ
▁၏
২৭
ચર
gänge
צרי
▁δύναμη
▁inversión
▁Grün
▁vysoké
pály
ണ്ടു
tě
▁მნიშვნელოვანი
▁가정
▁суди
▁људима
পন
▁맥
▁Κατ
ఛ
▁ương
▁странах
rāda
▁ເວລາ
ซี่
Фор
▁мэдэх
▁ന്
プレゼント
ସମ୍ପାଦନା
▁итоге
▁사례
▁jízd
גט
ინგ
▁പ്രിയ
できる
истер
جام
▁नो
ほしい
▁алтын
▁Tänk
▁sadržaja
džia
と考え
ИКА
▁บทความ
▁۲۵
▁ಹರಿ
▁враг
▁análisis
ഗോ
וועל
▁смотреть
▁Мария
قصر
بخت
▁опо
▁بهذه
▁Рай
▁rastî
▁tänu
ගොඩ
▁ضروري
▁інтерес
работа
kļa
▁સેવા
에게
бло
สมุนไพร
教えて
▁plošč
▁rămâne
▁següent
▁กระ
한
▁серия
▁분들
▁Gök
▁بله
ário
▁জুন
пити
शिवाय
▁kuruluş
▁దీని
μαθ
▁떨어
ท้องถิ่น
▁Truyền
ገኘው
様に
හ්
▁підпис
▁هیات
▁riittä
▁ئۇلار
▁משפחה
ប្រាក់
▁قائمة
▁계약
ที่สามารถ
έζ
▁과학
▁מיוחד
జన్
▁ქვეყანა
▁конкур
จอ
▁Кры
▁ئاپ
▁बेहतर
чния
▁הערב
stî
точна
▁اسیا
೭
ىدى
کین
▁эффективно
тивен
ядна
▁ଜନ
▁←
▁Кыз
िक्स
▁математика
දේ
beszéd
▁دهیم
▁رساند
▁Pár
கின்ற
などが
ાઓ
▁отдыха
acağınız
▁słucha
ejä
▁новина
kål
ប៉
▁атайын
▁tráfico
▁Код
▁הדברים
▁نوجوانوں
дження
ТЬ
▁જાત
vjeçare
▁Låt
řez
озу
gó
▁tėv
▁ቤቶች
는다
โฮ
お金を
▁жарыя
аре
▁들어가
kræft
გვერდ
Ổ
štěstí
▁käytetään