<s>
<pad>
</s>
<unk>
a
▁_
▁plus
II
▁own
enseignement
ective
▁varianta
▁bl
▁hakka
得到
開啟
▁Profi
▁spel
▁tranz
ky
hir
▁euros
▁Day
▁zame
▁primo
mark
nni
▁powinny
▁esquerda
▁Dal
环境
▁tegutse
▁isimler
▁naye
ut
▁(8)
jour
▁planu
▁Qu
urun
vio
对手
▁lesbisk
▁watching
▁Igen
▁intuitiv
keel
▁tum
▁trendy
▁hetkel
杂
▁jaj
▁Er
▁62
▁elite
▁PAT
siwn
ခွင့်
sport
afhankelijk
mg
▁modellen
▁Mug
▁Agung
▁taman
算
ռն
▁700
optim
▁pokazuje
▁blisko
▁dhinac
View
bygger
▁destaque
▁shin
合理的
叫
mbal
▁society
▁Jumala
▁Uz
▁Terror
▁ရဲ့
58
▁competencia
▁WP
stru
Actual
poser
cc
▁argumento
lina
專輯
▁saate
▁Bunlar
攝
▁realitet
▁supply
▁Nova
遊客
▁Cam
▁Caso
klep
▁Black
bak
▁preferat
是他
安全性
▁penale
▁etgan
▁Mooi
▁Cel
▁numera
▁giun
▁99
十六
▁3-1
▁reais
hari
事実
▁garš
▁zdravi
▁hissə
▁Lan
rosi
fone
qi
▁Net
נל
▁Tirkiye
erend
▁tahmin
pasok
cu
▁Up
▁vei
jetno
▁1.7
▁obmedz
misli
▁baho
续
▁measc
外界
▁utilizarea
▁Dalma
▁DNS
▁kepe
▁littera
DRA
គី
數
arrivo
ta
▁dar
MI
▁tulajdon
鬥
捐
継続
▁Mahkamah
皮
▁Consejo
若干
▁pogleda
配件
▁Pemba
看起來
▁premi
届
影响
▁prison
▁bath
▁sugar
▁offert
▁gera
TM
▁mieleen
▁]
trus
死了
▁Kombin
癌症
▁ձայն
▁mej
短
博物馆
妖
樂
▁tai
forvaltning
▁skro
上一
gehalten
▁anima
▁Sangat
进
ヘ
▁rase
ebiliyor
ans
▁rendszeres
組
▁teszt
data
▁troll
duci
抬
逾
人力资源
運転
Mor
sen
willig
▁Tele
HAS
HV
iate
verk
▁havne
▁Hade
rath
▁Ven
▁Zavod
▁57
▁putus
▁puas
စက်
▁istedi
▁Konkur
毛
▁ajutor
▁Oh
▁vir
增加
▁vull
borg
▁სერ
▁2014)
▁arriver
系統
nova
▁Bier
▁lalo
例子
SAL
eien
application
ele
▁kodi
▁favoritt
供应商
▁LR
▁signifi
အောက်
▁diharapkan
▁petit
▁probar
▁navegador
▁udalerri
ቷል።
▁little
sul
▁Gwen
▁osobne
.10.
▁friendly
▁trgu
namn
8
▁Medan
▁lijst
gane
聽到
▁stanice
▁Vilka
למה
▁prijzen
raj
姐姐
ney
▁tush
link
强大的
sborg
FB
▁sio
liik
▁tecnico
▁providing
▁vacibdir
▁chaleur
▁numbers
▁Brief
ሶች
▁noon
▁Nazionale
▁VIS
е
fa
epoca
zko
▁salsa
▁nettsiden
▁fort
▁rain
gitur
审查
诉讼
▁Paul
▁x
▁Verander
sebenzi
▁gjet
▁linja
nka
▁Milli
▁vous
競爭
maksa
慰
▁inima
▁shqip
▁meno
oeuvre
▁Hrvatsku
kovej
▁qoraal
▁Sem
▁Mislim
▁Sept
▁arte
机器人
▁rese
▁dominio
▁samning
park
推
renta
▁merce
有機
棋
▁Cristian
▁Kaup
▁Lise
战
▁Yunan
▁banda
▁digitaal
video
▁Suh
▁odnosu
▁Amb
▁Fernseh
▁lekin
800
Aus
▁pesos
▁Mater
6,000
▁gratuite
kontoret
ခ်ိဳ
▁Vlad
随时
▁Gre
▁Innen
提出的
▁astept
▁zvezd
▁dolce
▁Bio
lio
▁gegaan
▁helburu
Sol
挖
▁millest
▁雖然
殼
▁atlikti
世界各地
▁percuma
▁proceder
eret
▁hesabat
▁ret
▁Srbi
▁dog
▁INTE
▁Berlin
kosa
▁USB
ranse
▁Virtu
▁hutan
מוס
ជួយ
fi
ijo
▁tuilleadh
▁arvu
▁mars
eremo
balo
▁1,5
wsze
五十
▁APK
pr
zat
34
▁Wada
▁ac
▁cred
▁primari
▁konkurranse
個人
和谐
徹底
网络
▁Gymru
▁arra
健全
stod
pod
▁festivali
▁queria
▁Kaj
▁vejen
▁kasvi
▁d
▁3.
協力
▁racional
▁knyttet
▁erityis
JM
司机
▁razm
▁Llo
tape
▁bonnes
ٿي
▁aller
maya
▁shkon
创新
選擇
▁gri
▁shkrim
▁Malin
▁Tapi
istele
lunga
ye
ums
▁Sli
americana
▁capital
正确的
▁prosjekt
tine
找不到
▁engin
istin
▁ជួប
▁fifa
schnitt
administra
getragen
之前
以
▁old
▁wynosi
▁tekur
▁Spider
▁head
▁frequent
OJA
HIT
▁Jy
▁programs
owicz
ista
-5
▁Gesundheit
野
▁inveni
素
螢幕
▁Movie
▁mbi
▁bladsy
列表
▁stii
对
出来
vaks
▁meslek
派
▁kotona
冷
dul
▁dienen
▁resolve
tuar
ping
Ձ
geht
▁insect
▁enako
▁Oo
▁mfano
LAY
321
▁Duniya
▁standa
▁district
etate
▁Pie
RAI
斯坦
ampu
▁overal
▁madeira
ով՝
類似
交流
gelt
▁tienda
▁22
凭
优惠
▁keturi
sc
霧
▁lembrar
rig
▁ochrony
▁bakgrunn
▁2001,
▁Fredrik
▁Koch
cze
一体
敌
▁Partiya
▁Ivana
iyorsunuz
出
ulo
▁Alternative
也都
▁Guds
Yeni
ngu
▁frustr
▁Willem
ulio
旨在
▁avtal
基本
栏
aura
▁fasilitas
▁proc
▁ခုႏွစ္
▁Kol
▁skyn
章
▁ձեռնարկ
▁BUR
是否
sk
▁uzvar
MED
▁Vad
flutning
riba
gnu
šava
alp
▁aurrean
ih
▁Vir
▁vuelta
▁sense
成立于
ដែរ
▁Muze
▁suve
▁korting
▁policial
市场上
cijom
▁usku
天使
▁235
fortuna
Ge
▁Hostel
▁anume
▁soare
▁veramente
▁rinne
inter
▁Teresa
OTT
▁humain
▁passa
▁Joka
▁publication
▁Veik
选
新华社
hur
▁comuna
▁Hel
▁reusit
aux
▁opnieuw
▁nic
▁mijenja
▁objetos
▁Ud
▁Waxay
▁kvalita
▁libere
▁pequenas
等到
▁lue
are
treba
▁ubica
國際
▁dokumente
▁Hun
▁financira
▁herre
日报道
vod
慌
nggih
▁kuwaas
听
▁Pravilnik
▁Liter
chester
ZK
2)
▁Mayor
▁Ed
▁Ara
▁DDR
▁minimo
zetten
让他们
skrivning
middelen
▁gjald
ljev
▁tuis
▁pojazd
▁dorm
ստր
tais
▁verkeerd
▁oito
拒
▁Augustin
vill
▁Ihres
▁laenu
壯
▁turu
Te
▁berkuasa
shib
▁Fish
▁2014
▁nota
▁kendisine
ries
海上
▁vegetal
制度
▁blizu
▁Zapo
▁krag
要
地方
折扣
孟
惨
仪式
▁Privacy
▁alcance
▁lat
▁ligesom
үң
致
▁querer
▁azaldu
▁mendon
dhe
家居
meel
▁1
用户
▁რუ
值
▁belirtti
resh
980
▁PRIM
▁gospod
sprache
▁dimensioni
uku
▁skarp
进程
R
▁risk
▁PRO
▁profilak
▁namuose
cor
價
▁ziehen
ath
▁2013.
▁ti
kwa
▁Hoxe
moodi
garren
▁algus
▁participation
▁ideaal
▁조
tsaka
▁directly
有時
ՆԵՐ
▁Loka
estero
▁dobar
gwa
▁flirt
Cam
▁Analyse
壽
▁Bon
▁mord
▁kork
▁Tog
shop
原料
iausi
▁tunay
jord
▁indian
▁urteko
men
radi
▁West
ակում
▁Fans
选举
▁silmi
▁Alt
▁Swi
abb
▁Letter
▁Tada
▁Leik
▁ingredientes
調
蠻
▁mea
꼬
▁Domnul
▁Small
edett
▁Nytt
▁sum
▁kompetanse
▁(35)
has
▁diyeta
tuvo
▁achega
福
可靠
pflege
三角
▁culori
▁sfida
SKU
▁Koro
▁ድር
KUP
▁tuolla
rg
教材
菜
▁kurtar
联合国
▁Muhammad
linjen
sioon
▁kuliah
▁(33)
室内
▁stau
▁pokoje
▁color
▁accetta
viez
անիշ
▁ci
Mi
Norge
▁prestation
替代
ႀက
sajili
華
▁1997
empaa
▁mahakama
iarratas
tese
▁Sjekk
▁rest
▁logement
cum
▁Twoje
▁Come
▁Zelen
mina
skabet
▁growing
▁reklamy
dogo
▁uten
▁recita
▁malih
oh
▁montre
▁kesken
▁kurus
re
▁So
▁developer
▁jaman
GOS
▁Ecclesiae
ٽڪ
▁unaweza
在一个
ֲ
▁dovuto
才能
▁maahan
约
feed
U
ME
niczych
▁203
▁compagnie
第二
▁VPN
▁parim
long
▁fəal
qo
▁rimelig
▁vil
권
▁okupa
▁evne
改
▁ေက်ာ္
▁Donnerstag
Co
dla
▁gostaria
tto
▁kres
domo
▁204
▁fake
▁Coast
informations
为
lou
上海市
股东
▁Maanta
▁sikrer
occasione
需求
фар
▁interessere
viesti
▁Hand
▁Etiket
▁straffe
Una
茂
[
▁type
▁Ausstellung
▁shoot
打破
▁Akhirnya
▁MP
冬天
▁kra
LAV
難
▁sar
▁poslovne
▁langsam
▁Neft
▁Tal
救援
шук
▁recept
▁sila
▁They
▁Uh
nde
laga
▁10%
▁Mil
▁siguranta
▁{
▁vibr
▁doncs
dina
▁Mao
▁solgt
▁ren
▁foco
kre
baad
周末
blom
其他的
▁rejimi
tamisen
骑
owi
2011
rp
▁ortiq
ზეც
lui
▁centenar
kh
▁Herre
boom
vanda
Mu
wat
therapy
▁nyde
▁juhla
▁Meg
▁Penal
观点
协
2012
▁Reforma
種
▁bəy
누
▁bizler
▁school
nah
加油
▁Ham
▁Zudem
▁gaman
400
▁ne
▁fa
▁policaj
ttuna
▁bewegen
▁oficina
▁recebi
▁tap
3.2
▁truk
IDADE
tawala
him
▁stran
Mə
ilmoqda
▁voix
街
▁alkoholu
nn
600
▁isagoo
▁uwagi
liche
▁ulit
▁Double
▁Administrator
Kol
▁DV
tas
居
▁server
▁sce
▁finalist
▁administrativ
▁kartus
实现
/03
▁obses
orang
▁umie
▁Vil
▁rumor
倾
应该
▁suelo
英
iyo
设计
▁objaw
IQ
▁Kijk
▁kuza
TI
komisjoni
ilen
▁Күн
▁Saman
sportiv
▁Jeder
aji
▁primaria
ville
▁Bil
▁noticias
▁Neuro
▁argument
趕
▁bussi
tan
Pro
▁dimulai
▁Pavi
annut
▁aurinko
▁hang
▁mihin
▁rahaa
DET
▁kisa
▁Group
▁Ihan
SK
工事
▁pubblicato
ction
▁rong
交通
▁maksaa
▁folgt
▁Picha
▁Posting
▁gewisse
uksella
▁Masyarakat
Com
vati
▁Nur
▁postavlja
具
▁portala
▁crai
▁region
▁ryk
▁sim
▁status
▁puntual
ezi
▁satunya
▁Ciao
紅
690
▁bei
▁tartalma
berger
亚
▁xoog
生徒
级
▁refere
ABI
/0
▁siksi
ကိုး
婚禮
▁niye
签署
slu
▁malgranda
nau
▁agentes
▁ibadah
▁Kisah
cis
急
մարտ
▁dotyczy
laud
盈利
▁Flora
▁Install
▁welcher
▁qaytar
村民
sso
▁envolve
pe
sil
▁bapak
poste
▁comentar
▁207
▁Envia
▁sonu
▁tissu
၁၁
▁wine
专业
凉
▁seine
▁daarvoor
▁mbaya
▁Ziua
▁atenta
▁Selama
▁kirim
▁listrik
▁Kone
ous
owskiego
▁դիմում
的相关
▁ovi
▁昨日
turi
▁programos
▁Poli
auksen
gla
▁podporo
名称
hef
sti
▁oila
▁Musical
komme
alis
/30
▁vinne
62
▁shteti
4,7
CONT
▁feria
▁kel
▁noyabr
ants
▁Let
▁INC
▁foretage
անս
kapi
平日
arte
▁few
人员
▁Timbalan
centa
▁fructe
▁persoanelor
puisto
服装
▁siekia
salu
CE
▁KA
▁Meski
▁kasutamise
fler
ownik
▁comunist
▁lady
▁vari
▁favor
dum
▁Bekas
schaffen
▁concur
▁PR
▁vrednost
锦
暇
応援
▁hunden
▁voluptas
▁Sir
ISU
not
▁konsolid
kad
▁formou
服
fear
▁adicional
ittelu
▁dependent
ենս
▁ndryshim
▁gitme
▁hisz
▁TK
▁contabil
sunt
▁tutuk
▁breyting
porto
▁projesi
jin
▁persoalan
乏
▁finaliza
▁darbai
勘
▁然而
騰
▁kaq
siya
▁agradable
▁12:30
▁hrana
IUS
則
huan
▁bytu
▁dobio
ada
ificado
▁gadi
的关键
▁zlato
▁ct
לף
微
անը
▁no
reg
CER
nedd
▁tervez
ithe
▁түш
▁vrsti
▁mida
▁alan
▁slovensko
增速
覽
▁katerim
穆
▁kritisk
▁sertifikat
kot
▁europeisk
ACI
▁Martina
▁tunnus
▁aysan
▁Keskus
付
eacha
owo
espace
配
▁Prvo
utveckling
▁Ž
▁passe
angle
mh
▁Aval
▁RFE
▁intresserad
▁valik
niki
LI
EIN
▁earth
知识产权
imet
板
▁vplyv
IP
▁around
接著
▁aktivity
▁estus
▁Mur
340
▁Ditt
АЛЬ
▁content
▁Yuk
▁offrir
▁risti
▁wood
▁matematika
▁yolunda
37
finanz
▁tehnologije
▁atento
▁dhaawac
▁Daripada
▁h
▁Nicolae
ongea
dne
aisiais
注文
▁ছ
idi
▁DELFI
系
nap
▁rep
▁Spa
▁Dz
▁այլն
▁pantalon
▁desberdin
▁Practic
延伸
▁tokiu
ological
▁faci
▁Verkehrs
放棄
▁nominal
▁cuir
實
jandi
▁agente
▁positivt
▁ESTES
河
ken
▁corona
pati
cessit
teste
▁software
▁spate
主動
▁hr
▁tavara
▁Laden
▁近日
痕
搖
票
走进
誌
撥
▁freundlich
▁Mozilla
▁buang
prema
▁boli
▁sex
38
▁հող
▁2-3
▁MEDI
▁venne
▁umeme
stoel
▁1880
ZAK
attuale
eux
3.7
▁tomat
▁previa
:
▁of
▁single
问
荡
溜
芽
釣
接受
▁Coffee
▁firenena
▁eso
▁Indica
▁imposible
▁volen
rov
及
▁Kera
医药
ional
拍
▁past
gl
▁xinh
▁jiraan
▁environnement
▁massima
口感
warna
▁qu
▁Roz
▁Nach
▁industri
▁Sergio
排除
▁Gill
kode
▁Oferta
▁Monica
支払
▁funcionario
▁jogi
▁edildikdə
▁majoritatea
cle
geschichte
–
▁genannt
lai
dary
နက်
-20
RCA
kasika
▁cost
▁konata
gence
mium
parlament
eh
▁firm
LEA
ÓW
AB
▁23
aigh
▁cipta
միջոց
eanu
isert
fici
法治
▁drumul
ligheten
soy
▁neder
▁especiais
lica
rib
▁uchumi
▁dimentica
cker
he
jum
▁անձի
ONO
▁chips
▁lana
▁topatu
▁heldu
▁Neu
而
wang
tekin
▁Trans
▁foreign
违
ollywood
kop
▁Leser
▁complement
在今年
iam
▁ner
▁Rechte
▁^_^
ingu
▁temple
▁earlier
▁mar
anno
程
yd
၁၀
▁2020
以下
▁algunhas
248
aaaa
ledningen
▁pewne
praktik
▁korri
與
RIC
▁palkka
▁Kul
rinda
▁sekretari
շնորհ
▁espiritual
massa
nna
site
▁naprosto
▁pemuda
▁Trafik
▁lapte
ERIA
▁assassin
▁prakse
還是
人力
▁moms
▁feitas
HIN
de
▁Men
▁zait
raju
▁usi
▁PA
▁intet
帯
杂志
爺
解釋
▁40
▁Derecho
▁mira
duire
▁SUR
pustili
▁taula
▁kindla
島
wszy
PEL
assa
▁Sejak
▁upravljanje
▁stede
▁Markus
発生
▁pangan
eiro
dhani
借錢
▁Sachen
▁naudu
▁maximal
▁dizaine
رول
gno
СЫ
▁spins
控制
占
當天
llisuutta
▁drar
上海
▁komentira
▁sayo
▁monde
▁potentiel
erien
▁melyet
▁equipamentos
▁natur
屏幕
▁huolimatta
lev
▁afhangend
▁Inn
余
可以用
身材
quadra
▁peta
▁Deus
▁59
▁yanzu
间
uko
进展
你知道
▁SMS
▁Stick
ragan
▁alian
▁痞客邦
xie
▁pal
teadus
▁voler
帆
▁melden
▁online
博
dering
UL
vuotias
▁durchaus
▁fit
基金會
有不少
▁klus
rdi
▁faqen
▁yi
▁Skrif
▁ex
▁MU
▁ստորագր
▁Kemp
▁Obec
▁ofrecen
Փ
▁italian
存
▁orasida
炼
▁vanno
▁atsiliep
▁high
Ho
▁ներառ
▁extension
▁အသက္
十
▁Pha
▁Edgar
selt
▁skuad
▁y
han
fon
▁Mei
solo
▁reta
▁prices
dell
▁Not
▁yolunu
▁biryar
▁wenza
▁frek
cca
kreft
aj
▁gener
▁----
lipo
▁Fan
▁Medi
▁Argument
▁visa
▁swo
▁livsstil
WA
▁wyjazd
րտ
▁ipsius
ldi
▁uit
▁Kontrolle
gyan
kata
angan
▁sonde
一股
▁sanit
▁(36)
eer
▁Halle
▁geri
▁herramienta
我自己
kara
▁medicament
das
▁cek
気
不便
党员
▁Ciri
关系
▁Comhairle
koa
▁szombat
kem
▁partita
茶
▁tusen
▁isteme
▁skur
dala
បុ
ცო
▁skill
▁blaen
ရိုက်
▁sprawdza
liyinin
sztott
▁Ye
▁dijous
▁325
▁How
▁Astra
外国人
▁213
▁identidade
▁schwierig
9
▁66
kasvatus
望
▁filio
饮
logen
兹
▁wiadomo
▁Boeing
omis
▁spesiell
nda
foi
adda
▁bolest
kry
raud
权力
▁redaktita
4%
▁totally
▁velikost
eftirlit
这项
小
▁educativo
▁especializado
▁mogu
▁mynda
▁prospekt
▁traumat
kupi
甚麼
參觀
威而鋼
肌肉
okok
▁male
▁slegs
▁ju
▁nunc
▁Viel
▁hoef
▁pust
▁direktori
元気
▁kapasite
▁Religi
▁Jule
njih
下
▁ME
86)
▁Giro
▁Crime
▁hrein
▁bhai
▁Julio
伍
廟
底
▁klop
hlad
▁Beim
▁play
▁maoni
▁okrog
▁obtain
▁amico
▁Gaan
西藏
▁Goran
▁commencer
hu
▁Organizator
活动的
好看
▁Abel
jad
回忆
会出现
糊
bedrijf
▁Shakespeare
▁Perempuan
DUR
▁AB
prenant
kup
YAR
▁worm
նայ
▁Soru
ameti
Hol
387
▁laku
▁robot
anayo
▁Tour
▁skal
▁olmaya
▁Dil
▁boldog
spel
▁ID
▁bang
按
`
▁state
▁Jimmy
▁kumma
▁always
▁Statut
▁geluk
▁fauna
TG
Mai
▁Best
▁rekre
▁intervention
ZIA
▁kartais
▁emosi
▁fick
▁ehtiyac
▁likt
rata
▁Ka
unu
▁uskon
▁procure
jille
化學
may
▁qofka
▁privateco
▁Play
▁accoglie
▁conflit
գին
转
zim
▁Energe
红
▁appartamento
mpi
▁tegema
үт
▁inniu
ado
itinerari
材質
相关
▁sugan
▁ekonomika
▁Ilyen
▁services
滞
レ
▁bicikl
▁шок
▁passer
洗
▁reported
▁varsta
pest
▁Yleis
inti
▁najlepszy
▁sk
▁Scu
գու
glejte
▁conosce
▁verificar
沒
均
▁uongozi
▁promjene
教會
▁strategy
cka
▁Magistr
▁grazas
AI
▁cuidar
▁version
myndigheten
dos
更加
▁jogurt
理解
kha
▁mellorar
▁obje
▁Team
▁maty
hit
▁du
nak
▁apartman
▁sister
的变化
我们就
审计
腾讯
辺
▁stress
maqla
▁automat
记者
TUL
▁forskel
sho
lberg
polni
boken
见
▁contributo
hara
БС
▁typ
izace
▁kum
ildi
punerea
▁mer
animation
▁older
Code
來了
▁Termo
悅
▁prekybos
▁Comments
▁Acht
forsk
զան
▁sig
raf
▁Votre
▁Tumi
▁file
forbrug
▁Learning
2010
▁diari
▁(40
▁Nebo
popular
▁(9)
kken
aza
guli
▁ressources
ټې
fur
▁krah
▁zetu
tonta
▁Kvinner
▁Dw
▁hegy
▁kalkul
DSL
▁Satz
▁konferans
瑟
▁dh
辰
▁oferir
ឱកាស
!!
成為
▁prijave
zag
▁enese
捷運
▁PLUS
materiale
▁Veter
▁Abe
会
iku
▁erstatte
▁xay
▁sui
MAL
▁offrire
▁voditelj
mics
▁gesamte
色的
dil
▁port
wish
▁entre
8°
▁sale
周边
▁speciellt
▁kullanarak
kolle
▁ticaret
▁fire
▁Cir
▁svakako
▁Mujh
▁potenzia
▁adesso
歌
▁Moder
精選
▁salida
▁ibig
▁vrednosti
▁joilla
▁butikker
本來
▁nicio
HA
setti
kari
▁pasti
gol
▁IPS
ministr
▁camp
▁ռուս
▁ibu
▁Terdapat
▁innskudd
▁factores
▁amor
▁nagrade
onio
▁Teljes
▁szakasz
=5
viste
▁termes
▁2
ene
ջի
aiky
ique
▁Rs
▁povus
▁Nora
sever
▁Kvinne
▁Mwa
▁libre
▁Straf
cipe
WR
irajo
▁Walk
▁oggetto
▁MO
▁Psycholog
▁lin
umist
▁tra
遠
▁apresentado
▁gaaray
書籍
😂
▁rei
▁Pilipino
▁Matthew
▁(5
▁ANO
▁cv
4-1
CAM
plasser
▁inyong
kar
▁ph
▁better
▁breg
▁schools
izazio
▁materiaali
▁chcem
applique
▁messa
teista
▁Lara
▁vy
▁song
aste
ament
▁suhte
臉書
投
▁ຊາ
▁condus
游戏
▁Komitəsinin
61
▁beer
▁priprema
▁Az
學生
▁Venezia
▁etapas
最早
udo
XXX
43
vert
▁vakit
lectiu
UPA
ლოდ
▁pošto
▁soviet
▁Tsar
▁gerð
▁Col
▁Maine
▁Daniel
cogni
▁vrat
你想
正在
lampa
古代
▁rijden
-4
▁flink
ugur
qe
▁asegurar
leit
爾
zo
ეცა
EN
TEA
▁Hend
▁Ano
▁Anita
计划
▁models
foss
Ղ
su
/1
▁Pop
safe
▁24.
▁kaikkien
▁factum
3%
打工
▁Khalid
▁Center
▁foglal
▁Эк
93
ТҮ
▁records
▁palli
mandi
CIN
asan
▁retejo
▁Sett
留
▁Servei
▁per
虽然
▁သုံး
နစ္
ቷል፡፡
dora
▁esperanza
权
▁verhouding
uri
美國
▁reakci
impl
▁priori
▁adults
Mos
▁Kyse
▁Ing
▁oseba
副
ICK
▁Michael
▁Loren
pach
▁taldea
▁lita
▁mas
▁llocs
▁Sel
▁Youth
▁pethau
name
kunni
sakit
pija
▁etape
locat
▁krajiny
aq
▁Velg
▁reicht
eel
▁sidomos
ppu
比较
▁SDP
親
忽
嗎
lingar
▁Vital
lla
▁ket
▁Seura
▁Belajar
96
的商品
▁gumi
▁blokk
▁individual
▁Eduka
▁25.
委員
Sex
sveit
▁falleg
ሷ
▁dubte
某
▁kelias
跑
▁muziki
ሪዎች
113
ΩΣ
ုိင္း
▁sagatavo
55
忽略
▁robe
▁HA
▁acu
九
braut
Je
▁Mood
sichtlich
aktif
▁Boha
▁rozhodne
▁run
▁elektronski
EVE
▁mieszkania
▁lidh
▁Reg
GE
cus
▁alarak
是一款
SERV
▁visione
▁1396
usa
iniuose
機車
teur
imli
有些
当你
▁nedaudz
▁astronomi
▁fok
▁Suu
別
▁mancare
wen
scrizione
▁centre
▁cargos
faire
▁komuna
ti
▁သား
▁jarraitu
51
▁halad
▁1990
苦
視
▁houve
攤
▁Cape
▁gwybod
▁Ar
mista
▁61
▁entsprechend
▁descubrir
Thi
▁polnud
▁brist
▁Rhein
▁programma
用
ቅዱስ
▁Цр
▁antico
▁prestar
mez
▁Design
Plat
KUM
bhal
▁agresi
ph
DIG
box
▁Middel
▁Gel
▁vormen
nia
▁GK
▁partijen
▁considerada
▁sat
▁next
打印
▁Before
▁zili
▁Itulah
▁Prof
▁finansiell
מינ
▁eu
▁ihminen
▁indicate
▁naziv
▁1897
czyk
document
▁Olu
▁doklad
mbong
▁yog
▁Аф
▁Denne
▁agora
我覺得
my
▁Vin
▁ඌ
gum
▁ընկ
▁schod
teeksi
員
交易
Ѓ
▁Us
▁cop
▁Tujuan
tekniikka
we
▁£
▁Caroline
列
▁constitu
RE
▁Koska
▁yok
▁irure
▁Sk
冬季
ագիրը
dug
rojn
ijske
misessa
如果有
▁Kole
lada
349
▁130
▁zgjedh
▁priemer
▁leter
委托
ၵ
net
▁call
erer
vidas
▁OS
▁tjedna
▁Uni
▁fortsette
拿
▁naturelle
4.2
felt
▁scal
▁civili
ნორ
kindlustus
▁arsim
▁ECO
gelin
买
lerimizi
▁aceeasi
luhur
valy
▁huomaa
▁ciljev
likni
▁yang
ll
热
▁totam
勁
▁Yesus
▁meddwl
▁Data
倒
▁Minas
▁multipli
▁used
dami
▁gauche
▁կայքում
▁veloce
机构
mente
bg
▁Grau
▁drugog
vanta
▁aplicativo
昨年
ganja
夥伴
▁Chine
誇
taisi
▁nimel
▁Spotify
▁troviĝas
▁Es
sum
▁bergabung
小米
这一
76
科技有限公司
▁funkcion
uwar
VI
kering
▁kar
▁KO
▁neniam
▁Problema
也不能
▁raska
▁bakarra
▁lumtur
▁soko
წყო
叔
သွင်း
▁tot
▁Kai
▁Here
JA
▁overheid
press
371
▁1995
▁butun
sama
▁synlig
▁bai
▁nostri
▁bordet
▁veto
37)
oikeuden
Da
▁Saturn
▁kelis
flow
▁instituciones
▁praesent
▁Uniti
▁gutes
▁NGO
语
▁rengi
▁Hur
淺
▁spodbuja
▁bul
mbuk
▁magandang
▁Jinsi
▁caldo
▁Pirk
与
ema
ignon
學會
udesta
AMENTO
alcalde
首頁
training
ယား
▁muzikos
▁vendeve
界
▁kansa
stev
▁arrangere
▁1996
▁2009)
河南
▁salgs
组合
thra
UM
ေယာက္
hra
聖誕
▁agricole
▁տր
▁pogodbe
iel
▁Xperia
lung
▁tovuti
▁Archiv
▁Amurka
▁te
ami
pag
▁meter
eira
▁Yeah
▁every
▁տուր
▁anyagok
AR
▁ranta
▁Pagka
▁rakt
ssa
bru
▁ကား
選舉
▁seolah
raich
▁prae
▁portal
mbang
▁prošlo
的男人
膚
有沒有
ირი
toa
▁X
我国
▁Trainer
▁aviso
▁eylem
無限
人體
▁dikir
▁zmaga
▁oli
目的地
▁Libri
▁Minimal
情况
ຽວ
▁juru
救
Con
▁Iskola
▁potere
▁69
▁club
შის
台灣的
▁votat
衣
ESI
怎樣
asiantuntija
duk
▁fal
▁Eftersom
spor
▁sidde
လယ္
talouden
▁micro
krishna
wiesz
rok
▁Amanda
▁vindue
uro
detail
Radio
▁Love
spo
▁degrada
zhou
utu
▁rhy
群
▁bed
▁Christo
▁magac
АДА
cken
▁mote
30
晒
恐怕
伦敦
支
▁sottolinea
▁forte
▁Keres
gabung
▁Trou
▁Sense
▁fylke
▁medicale
▁gro
ၿမ
▁nett
十四
▁Dez
都
lse
注意
难
နီး
uojamas
fryd
▁biju
កូ
▁fali
▁jabatan
▁Origin
▁nastup
KOV
▁leaders
8%
▁qaadan
▁Styl
alternativ
▁Tarih
▁March
▁Bij
schef
AKE
▁Gy
əsinin
isse
俩
szony
e
▁para
段
suhde
▁sens
▁Leia
▁stan
▁Patria
▁extreme
▁share
▁tautas
▁konsekvenser
▁mecz
▁mg
▁video
paino
▁factors
82
▁លាន
MO
rta
解析
▁Ros
▁frit
Dec
這些
mand
▁Bahn
▁estuda
以内
▁Wissenschaft
的人生
kilo
▁chant
▁Mes
▁ڀر
关于
纪录
لڪ
削除
oldvideochat
经
師
▁Favorit
▁ciudadanos
災害
▁otherwise
▁Gottes
▁kasutades
▁melynek
▁Ko
花了
▁hemel
billede
▁Gor
▁avoir
▁pontosan
THE
全年
大眾
▁snor
▁volve
限
▁hechos
ske
linio
▁Ia
裔
▁Þor
▁68
▁bryllup
▁SP
ANA
▁ascolta
ህዝቡ
▁zevk
▁bog
▁ministru
▁hittade
▁Arian
▁njegovih
ინის
rica
systemer
Հայ
太太
nger
▁Lena
的社会
▁Kell
▁fan
▁Sheria
▁110
无数
sco
▁sistemului
贸
▁tarkoitus
鋪
自治区
▁Pengerusi
▁63
▁Mi
ddi
通用
▁piha
ciano
海军
IEL
活性
▁Dominic
gov
▁dorit
Atom
電力
▁Hafta
iensis
▁խնդիր
▁bez
▁Fler
怎么
cza
Ֆ
▁bolo
▁zastosowan
▁pratiques
isissa
▁roga
IDATO
▁2013
▁Claro
获得了
▁Merhaba
提出
条件
下滑
▁sort
ÀI
▁hvala
lly
▁Duitse
▁fucking
▁brood
▁ondorioz
▁wichtiger
▁der
said
▁terminat
tanje
▁mina
▁girme
IVO
託
劍
筒
Ko
ine
不断
▁qilindi
mount
olla
လင်း
▁mitad
ဆင္း
▁primi
cidi
kite
▁Miko
tiunea
女友
lk
新的
▁concession
yjne
▁Nicole
正直
▁birlik
cilla
ball
▁kniha
Franc
▁financeiro
▁jugadores
▁Anime
▁Viss
▁rates
▁Acer
tza
▁makeup
tutto
定义
▁Office
蟹
We
▁legea
▁tertinggi
ուստ
▁Me
barkeit
▁makse
▁entstehen
אית
drept
們
的表现
資本
▁paham
▁individu
/5
▁vodou
nico
功夫
▁Kategoria
▁Waka
▁Rett
能不能
▁Gazete
▁Deutschland
辱
escriure
辩
溫泉
wyd
vergadering
▁ehtiyat
や
ամար
▁Rio
antsika
▁linie
▁Akta
qram
▁deiner
▁Evropi
遊戲
▁Walt
为了
nnissa
▁baza
地圖
▁Ta
ovo
▁RM
ilu
asztal
fre
▁Mamy
nach
vus
锻炼
疫
乾淨
kjes
▁Turmush
▁KE
91
ишу
▁nisur
▁Profile
6%
▁18.30
ስማ
▁Saint
3.00
lamaya
▁Congresso
▁fiziki
▁7.5
▁mains
nywa
有限公司
gri
▁drank
▁refu
▁mocy
▁tempatan
turva
hatta
Service
▁sebulan
▁dan
▁will
pozycja
▁schriftlich
idos
▁sehe
▁carico
▁gezellig
▁individuale
▁novidades
▁PP
alum
maso
▁moteur
▁rifu
tten
▁Fyn
orno
skripsi
資料
▁ekonomike
▁EUR
:15
yen
geleid
▁PADA
▁Ska
▁Anta
Rock
黏
銅
ked
青岛
▁Legisla
咱们
▁iborat
mah
合作伙伴
ks
92
▁TH
▁mnoge
PC
▁faisant
▁decorat
ulungan
▁sanayi
影
PA
DRO
likkuse
雷
一辆
▁dhanka
▁wie
▁montar
生命的
▁245
▁fibre
▁299
▁trov
57
▁Binnen
七
一切都
▁localidade
税
tehnika
Ra
▁serbe
▁gay
模式
▁ved
▁trebao
▁utilizzato
▁zou
▁arkitektur
ilha
演
essaan
▁Komisioni
▁Lagt
djur
▁dezvoltare
ric
▁mentale
▁parlamenti
▁Pin
▁organik
▁plu
▁mbetur
yr
drog
嚴格
懸
岳
实
▁studio
▁kart
▁upea
RA
▁estudia
lle
▁Stort
igu
▁Reply
▁hodnoty
▁Iris
▁Komment
bad
▁Euskara
變
&
▁lelki
戰
▁etsin
▁shift
▁belas
高達
▁Lamb
▁Kies
抖
▁rit
▁esperantistoj
▁jaanuar
▁Ensino
▁persoonlijk
▁som
▁read
▁transfer
mun
車輛
配送
790
CAS
在你
▁Provide
▁lucrat
dah
cao
▁cambiare
幽
畢竟
▁permiten
継
標籤
▁feel
▁Main
試
▁postre
▁Bonn
▁wadau
lun
▁politice
▁Siemens
click
▁ipar
▁cilt
▁significa
▁qurban
gu
figura
▁cogita
media
sivat
發現
▁pijn
tiivne
hand
▁Pievienot
▁rechten
54
▁Mobil
▁parte
▁ryggen
▁Ag
▁kertoi
▁zemlja
vai
仿
遂
IOR
▁УК
▁erwarten
▁talent
▁sheegeen
▁Service
ant
AD
▁scoate
▁DVD
fikiri
▁System
▁faller
▁bestimmten
▁INFO
▁Kolon
▁Command
tsioonid
menni
leyin
▁velo
▁kynna
▁ሸ
▁negre
▁Mwaka
▁dijela
tila
ttomia
lei
빠
jel
죽
▁VYA
▁realizados
▁milles
累计
▁chala
由于
▁Ferdinand
▁f
▁roulette
預期
▁reduz
waran
▁Grund
aynta
▁bha
▁camion
▁Felix
尼
▁mis
▁Estado
▁anus
▁novca
▁sino
ntium
▁Vino
多样
אנס
▁bosib
▁proportion
cioso
▁Welt
▁Elektri
▁assina
▁leilighet
▁tuotanto
痛
oro
mil
...)
▁bought
▁koyu
▁font
▁interviu
▁fly
▁quasi
▁Deve
sza
援助
merke
館
dad
▁betalning
inaweza
足够
▁პროცეს
ochtend
▁Faci
."
▁Xwe
▁milk
詳
侯
詢問
洗衣
▁Gelegenheit
▁meliputi
外交部
▁10-
▁Muna
▁natuurlik
▁Wong
其实
▁vizito
▁Aaron
天地
▁ada
eth
▁RPG
自由
▁kelti
▁torrent
65
迎接
▁beint
▁Ort
▁Biro
▁Bikin
▁filius
▁hum
▁interesat
▁singler
▁tartoz
▁tarif
晋
吋
▁menguasai
▁Berg
▁darparu
▁mezcla
00,00
▁led
what
根
rijke
▁predsa
igt
menti
▁Խաղ
▁job
▁mision
▁Wakil
造成
leider
▁levende
▁fel
▁Robert
▁taju
▁2012.
original
5.6
景色
保持
陕西
(5)
깔
॰
pia
▁Huu
▁nangyari
▁Lai
相反
退
▁inclou
▁braku
IGE
▁aizsarg
44
EMENT
▁MJ
mena
▁hevos
▁vor
▁dupla
lid
▁speelt
想要
▁jornal
drag
▁ilo
/2
▁vette
▁veb
njom
▁fre
▁programy
▁assim
▁negle
min
▁Qaranka
▁manokana
hoff
▁liikunta
▁lipnja
▁procesul
ndu
kilde
▁nor
頁面
▁26.
▁Mette
▁Pro
▁verdien
正如
▁Woord
▁bedoeld
ketten
▁wuxuuna
▁Brasileiro
prowadza
evro
▁ignore
▁27.
DIO
et
ER
▁Tek
▁Adel
▁barber
kese
▁為
艇
喻
▁Bas
kuthi
▁vit
建立
▁28.
▁jeudi
lichen
▁չենք
不会
角
igoj
▁opportun
太空
133
▁gamitin
▁comprende
统
▁imani
tava
ұқ
Esport
hui
不去
ologi
▁escreve
命
▁198
schie
obec
nto
▁orixinal
▁Pal
平臺
▁University
lyn
▁Graz
cidade
關心
▁rat
ez
▁ute
▁Kulit
kundi
▁390
▁ordem
IEM
အဖ
systemen
math
▁spomen
takt
eme
景
▁virksomheden
▁hat
ssi
赏
▁opdage
輯
▁DEC
▁slapukus
未来
▁labiausiai
tidningen
充実
▁grec
מינה
▁sollicit
▁talabalar
區的
▁mural
▁Lehet
▁up
▁bre
▁Ry
▁fl
草
▁Est
MARK
根据
Џ
▁Ушул
▁maande
▁sous
▁NË
▁dobrym
▁bredt
chadh
▁emango
▁kapta
让她
▁geldt
▁wahrscheinlich
▁banken
▁napriek
▁Mah
OFF
阻止
说是
PRA
饮食
薇
▁Jl
▁Hrvatskog
▁Johansson
ELLA
▁poduze
▁variedad
369
Mobile
政治
▁iesnieg
▁genu
▁barev
▁FOTOLAR
春
essere
▁ons
tav
▁tenham
▁FORMA
葡萄
▁satis
▁mesura
zor
cou
贺
h
▁Li
▁prefer
簿
返済
土耳其
▁vend
bescherming
▁Simone
▁corn
▁Bow
osi
isci
▁aplicaciones
▁bland
▁Roman
PIC
▁Dans
▁Thu
事件
teller
▁hwyl
▁Army
一年
是可以
改革
機票
▁Bwana
指出
▁aktyvi
▁Filmen
6-1
back
▁ah
▁naziva
正式
strada
ທຶນ
亭
进来
检验
hash
恵
▁Cymdeithas
▁Bel
▁qarax
bou
per
lot
▁oktyabr
▁tini
▁nyere
kumen
的一切
▁Afrik
▁each
▁YouTube
▁kalitesi
的做法
hjul
cit
▁Hydro
▁Eliza
胆
▁nitko
Bo
袖
租赁
巧克力
vam
ades
ein
▁tietokone
lep
syn
thur
kant
grepp
提起
▁Aristo
▁Habita
帮助
sos
Start
好玩
▁67
-2007
Man
▁ສຽງ
▁genera
▁140
uch
▁Efekt
idan
令
gondol
dingen
▁Kahit
▁envolv
阅读全文
▁Fall
▁dukungan
9%
▁kiemelt
職員
envoyer
▁Cerca
nefndar
▁mampi
▁log
JET
也沒有
krot
▁316
▁schimbare
▁tutvust
MB
-36
▁parlamentare
▁okraj
▁universitari
▁detalle
岗
漂
लौ
▁fortalte
贵州
▁med
▁Ele
▁blockchain
装
dob
▁south
HTML
esh
რილ
▁Projekti
▁polisen
by
iy
papir
Ռուսաստան
rri
▁heild
▁challenges
289
▁riep
▁darbinieki
tara
uyorum
▁Auch
▁onay
▁20%
▁planera
bok
punten
但
rol
Քաղաք
communica
▁Nikon
▁quand
▁talar
Ro
必
MANI
▁volem
社會
stin
ЛЫҚ
▁hi
社群
▁highlight
bah
▁izraz
▁Bildung
就職
▁obrazu
▁herlig
▁acquistare
▁xir
大家的
mellett
▁·
ines
裡
▁quebra
的品牌
▁pravico
52
▁Ninja
▁Bad
hjemme
sme
▁pokol
▁faktura
氛围
探讨
端
紛
nicama
弾
▁Pembangunan
志愿者
▁jumla
uja
esterno
lt
uto
▁Hamid
所需的
manni
situation
▁toimuva
TS
sorti
▁check
罗
▁plantea
▁multiplica
▁branitelj
▁trend
ERING
▁testat
性
88
GAM
明明
▁contribution
貿
喉
▁Link
zwa
哪个
▁Kultur
▁ken
▁caminha
ishi
▁alaturi
biler
▁teised
▁mann
▁bayaran
别
▁praznik
▁Vader
·
▁Nga
▁reaktion
▁uzoq
▁rike
aattori
rais
▁Wohl
▁duhur
▁pont
这部
连
▁turistik
▁organisationer
▁raisons
▁karaa
▁Grand
運
▁eguna
istas
anto
2%
▁viikolla
lise
募
▁Gesundheits
▁kannalta
▁1860
3,0
Diagnos
rea
造
▁symboli
ddf
▁Ausgabe
▁Ties
▁၁၃
ķer
urs
tykset
72
nyt
▁vakker
▁Haku
elyje
mien
tietojen
pakka
▁element
▁but
sent
数据
787
▁Catal
大道
▁Uyg
▁Oak
4.00
▁10.30
▁1992
▁silencio
▁homo
第一個
▁kikao
▁conductor
path
ဖြေ
極
tzako
mbra
▁Krom
▁particulares
▁consulter
▁aquilo
▁busnes
▁peccato
plaz
▁baud
▁ranka
▁Shko
▁more
向前
IKK
▁kilala
上次
sikiliza
▁gespeel
以前
▁cunosc
hay
場面
ctos
▁arvamus
▁Maio
▁Experten
▁alimento
▁culturel
▁Fonda
▁symptom
▁skrivit
▁militaire
多
▁YAP
在国内
▁shiga
▁aspects
▁Nor
bogen
▁book
▁sincs
惑
piac
括
毀
137
▁fil
DOWNLOAD
▁sam
ေကာက္
▁Kompleks
▁omfattende
▁nafsu
▁hmot
tension
393
Imp
engine
tor
▁nick
KIL
▁sundheds
uru
▁demografi
▁tradisi
liste
sebenza
▁keino
▁1991
rreko
▁anmeldelse
weg
▁intenc
茫
魏
義大利
必要
▁Raz
都有
빅
▁Milliarden
▁biggest
ulator
▁Wirkung
vej
▁henhold
▁zegoen
▁Brin
▁tokrat
▁Trots
▁Telugu
▁front
baini
▁memnun
个人
sir
▁Hinter
▁Bizi
kap
▁interesser
▁MB
▁different
▁퇴
▁mendoj
undangan
▁metal
▁Karten
▁dragen
glej
SH
在那
▁rental
▁condena
▁verf
iisii
▁consultant
ngkok
轨
▁timme
獄
▁1-4
抵抗
▁Hizmet
ry
▁ડૉ
▁ant
▁Narayan
▁Vijesti
▁remek
▁document
▁kiiresti
▁tulevat
▁dhamaan
tevi
▁Nel
▁from
▁Falle
▁heft
▁betroffen
▁AC
/11/2018
registrer
ຢູ
▁provis
sana
▁interpretar
annan
85
▁siz
FIN
杨欢
瞬间
婷
▁idadi
▁sperimenta
▁Catholic
▁peranan
▁while
▁speciaal
ber
gis
staafu
▁Bulu
地区
BEL
▁hali
▁lomba
▁Arabi
games
受理
▁(39)
▁Mir
对他
kleur
3.0;
▁Karimov
AK
▁Kredi
herbergi
▁zwart
59
vajadus
49
▁naredn
晃
槽
钻
攻略
bar
▁Bol
▁Mont
▁Ciidanka
▁monitor
▁listopadu
blo
/10
▁order
▁Geno
▁Serveis
▁ai
▁Kita
ေကာ
▁itsas
izi
▁cultivo
pesu
eniu
不见
一直是
▁product
▁Laki
▁palk
▁TA
問
▁patogu
▁Ph
▁MHP
i
▁van
▁As
nike
cil
▁LINE
柴
譽
途径
约翰
实验室
挨
▁6-
▁Keuangan
▁Br
东
▁Hon
MW
udu
▁zyrtare
▁Haw
▁TE
International
գնա
nek
qvist
42
He
▁cercano
原因
tulis
▁ran
▁ngayo
▁Ingin
▁Yeni
▁kubo
有一定的
▁multo
▁feia
▁critical
▁fortelle
fla
raid
▁major
▁jarraitzen
anza
▁schauen
▁circles
▁House
▁helbest
▁post
▁Drop
▁igualmente
▁Jam
▁pripremi
▁Iulia
pall
▁materialet
▁plz
▁chcel
▁enfermedades
业务
▁Sierra
▁sci
vous
policy
ឌី
jung
▁worst
現
menes
nih
▁acidente
员
؟“
你说
poana
SO
▁dres
▁Temat
指挥
▁Byd
凭借
▁luften
▁pemikiran
最近
▁ինքը
晚餐
▁curva
▁shvati
▁Custom
카
▁razreda
activitats
▁pokoju
▁226
▁fenomeno
▁capabil
▁domhain
▁modtager
kiewicz
▁saadaan
當年
▁teel
vrt
党
ientes
▁ceci
▁cro
▁breytt
整
▁iznad
▁moottori
貧
▁bermaksud
kti
▁Uri
費
▁Valla
▁Der
ム
雪
adu
▁emenda
▁Ghost
▁ambition
biasa
(
▁Co
susi
zes
hli
▁bliadhna
▁aus
▁dol
▁mondani
andha
nke
▁အသက်
▁skrywer
▁Edel
▁Balance
▁Jinak
▁expresa
▁uile
jus
▁kolorze
tiv
▁Howard
prostred
▁Goo
▁Carbon
▁aims
▁죄
▁obchodu
▁我
▁knulle
csok
ers
▁Adem
CA
▁nijak
▁skum
csap
沙
rni
uð
▁ontem
一定是
▁trods
▁Log
的關係
▁көш
▁generacij
▁mok
▁uporabljamo
rzec
▁Verdi
▁similares
▁Wag
rako
▁kompanija
339
witch
ziert
▁Sara
▁znakov
▁2,000
plo
▁regarder
▁internazionali
▁IMF
▁bewust
操作
被
坎
▁spot
erat
出现
nl
為
▁wawili
▁materjali
velmente
▁kuingia
UJI
▁cili
▁Kvar
▁Bro
▁ສູງ
MAI
节
▁Drum
▁Өкмөт
癒
▁byla
ljni
▁Symbol
000.000
umo
ITAT
wurk
▁vaya
leysi
le
vano
Bru
tev
▁DHA
▁Coro
▁אָנ
▁defini
▁extremo
acht
▁Sim
naise
▁superbe
րած
發出
▁Albani
们的
▁grati
人民群众
缴
好
▁1994
▁snaga
▁Mart
場合
grader
進步
▁eskualde
▁riamh
desh
组织的
paketti
DO
▁novi
▁agradecer
igien
那些
▁gleder
▁Studies
czesne
교
也被
仲間
▁gonna
▁2012
▁verranno
atan
▁meski
▁vacker
硕士
纠
▁permes
杆
netz
ikka
中央
▁bud
ARIO
▁იცის
▁spremembe
izadas
股
▁For
iseret
▁prenosi
bordet
▁vormi
▁stat
222
▁ilmasto
daki
▁bunday
odon
stveno
河北
▁cinsi
▁seksuaal
▁Produkten
▁hiervan
keria
也有
▁Konsum
flower
收費
▁Asli
争议
▁size
▁Debrecen
▁meni
▁num
mmmm
+
擴大
▁Slova
stup
▁Maka
▁genoemd
▁sie
▁Villa
▁semestr
iske
takat
yzm
岁
▁mababa
▁aggiunge
▁Pil
拥
收取
sz
မ်က္ႏွာ
▁Model
▁Sala
▁marknaden
如此
▁izbora
փոստ
▁Filipp
atori
▁Mikkel
獨特
▁meisie
▁Matri
▁Kudu
适当
eng
gut
64
▁diskret
vulling
▁peggio
▁jednotliv
▁klubov
▁days
سٽر
十分
▁bogate
▁line
▁Tsa
▁Fin
▁acci
負擔
▁infekcij
ေက်းဇူး
▁Tim
▁stati
▁excuse
▁Thai
人民
▁consensu
▁Hour
一样
▁Kazan
kalbi
▁Jun
▁investigadores
▁ego
47
ej
▁^
▁pismo
▁gril
toria
▁fyldt
不过
▁paliek
離
云
viya
▁programul
阿姨
頒
放鬆
▁nowoczesny
▁Paradise
lice
siga
合成
ski
ሱን
▁1:0
▁regtig
步
▁nemendur
▁Galaxy
▁Lucia
▁40.000
▁ugotovi
▁LEG
ciu
▁hai
忘记
ynghor
Sim
▁autostrad
ရောင်
modi
varuste
▁ubat
水平
▁stanja
ථා
▁During
▁revolucionar
▁fatura
迴
▁limites
譯
▁aritu
埔
▁idi
▁mencintai
▁zes
▁batekin
▁present
torem
▁pit
▁პრი
▁୩୦
▁miljoonaa
dt
ducere
-15
ue
panta
tissimi
ile
▁roof
▁prova
▁obitelj
▁Noel
▁Turku
检察
奮
川
嚇
擾
&#39;
cco
leri
▁tradizionale
cara
▁discovered
他表示
▁utila
▁eelmise
▁inspect
权威
NAI
pass
▁Huis
▁ikkuna
▁Pa
▁mois
▁litrato
▁considerare
mod
▁securi
▁voeg
▁report
alaking
▁Ons
tuuri
▁abertura
▁kawo
▁apropia
▁dicunt
gwyd
▁sumie
▁bozor
名古屋
▁Նրանք
▁fodbold
子
網站
▁kirjoittaa
Emp
Informa
▁vreun
tjes
▁tortur
▁Forslag
yor
ijk
▁iritzi
rilgan
▁again
▁spansk
naendelea
▁სპ
MS
▁Offer
mbok
▁Ke
▁160
▁Centro
lmoqda
▁paio
mAh
▁compromis
落實
夫
▁investasi
fir
▁assisti
ghas
araw
▁RAZ
ome
▁film
▁project
▁Global
lanjut
▁profite
▁Ding
▁muzeja
▁guru
▁befolkning
▁necesarias
NIKA
▁turite
他还
▁gawe
▁crush
運動
▁jatkaa
▁nacionais
▁vizibil
5%
lasse
携
▁Globo
သင့်
▁Mini
daryti
iausia
相關
3.3
眼中
cind
rb
釋
kho
▁dreng
▁suffer
alle
▁tohle
睡觉
不過
▁Inggeris
▁7.2
stitu
▁Jozef
▁vrch
▁nemocnice
bed
▁nekako
▁mahupun
▁20-
▁Wer
搬家
▁maliyet
▁Pearl
▁experiences
跟著
arak
▁potestate
sposo
▁maha
▁dokumenty
▁totalement
▁ile
笑着
▁Reme
kkari
ilised
puter
▁polis
▁olasz
0.7
▁modem
▁baas
设备
▁ember
▁Pos
▁Kranj
▁hartzeko
rul
▁Hindistan
▁and
▁1989
aider
▁domni
监控
룩
▁oh
▁perlawanan
例
▁xarunta
iran
▁facilities
▁maarufu
ima
▁ramane
▁kontinu
▁tanssi
▁Supra
▁Wij
ovice
然后
hre
內心
liyinə
ven
-17
▁onderstaande
Stat
isilla
县
ジ
151
ROL
AGO
夏
DS
▁Open
▁0,9
-16
拘
ၢ
ə
쓴
▁funkcjonaln
ford
▁yol
▁fag
▁Out
什么时候
▁kiinnostu
▁betrekking
▁analist
▁ruime
▁petek
348
▁opinto
hnout
历史上
liyində
-6
▁oportunitat
▁Samsun
▁Game
績
大學
仓
▁96
Asocio
▁Sand
▁Schle
▁helder
81
郊
菲律宾
圖書館
煎
依據
▁frecuencia
ere
▁Mkutano
cov
▁Saat
▁Skandinav
erek
▁konung
bles
baptis
vre
▁Kaf
turk
ປິດ
▁Ping
加以
pes
▁kapsul
▁actuel
化妝
▁Tibb
▁Gary
73
▁organizasyon
treiben
fest
▁skaffe
▁term
▁thing
▁glavne
▁notable
▁selam
▁Move
▁slu
独特的
▁nespo
▁nebolo
炉
▁abuur
▁humanist
干净
▁tre
ズ
▁dihasilkan
▁genellikle
burg
Gene
kil
▁samtliga
人生
▁„
不对
▁ringi
▁testet
▁indice
odd
က်င္းပ
▁samlede
▁znajo
▁rematar
▁Deklar
▁ဖုန္း
不知道
▁levo
呵呵
旅游
mene
客户
▁bent
▁prekin
tion
游
▁bona
▁Meslek
▁cri
▁sti
東北
magazin
▁Fischer
▁prego
rap
▁casu
reiro
一項
▁cercando
▁galerija
隊
▁assessor
▁bru
▁kulturne
▁Mawrth
官
bau
▁juni
▁29.
不同的
▁might
▁planlagt
▁հի
▁eftirfarandi
nay
ah
▁platform
▁fiquei
▁sembuh
zeit
▁treneri
LEV
▁sikkerhet
▁registaro
eceksiniz
▁circa
6,7
有什麼
▁Ayon
▁anglais
CEP
的專業
▁dirigir
▁adolescente
jesti
▁oder
▁Kap
是一个
他们在
CAP
▁qilinadi
nor
▁Nederland
cionin
Christ
▁eight
绑
侵犯
▁VE
cima
▁jan
▁bereiken
▁indikator
▁Mak
ဖြစ်ပြီး
GEM
▁raam
=
vastus
56
▁Shu
▁AR
起来
▁pagalba
was
▁begon
wiki
见过
也不
ovanou
where
▁bingo
▁beli
辽宁
佢
▁natao
就是在
drastrecha
▁keep
▁exciting
▁javascript
▁cognosc
▁aelodau
ncia
▁spricht
▁3
▁Tu
▁Music
夫人
▁klippe
xha
tuk
▁genomen
▁puder
CC
下記
▁devolv
▁Rashid
volution
Пи
▁28
相信
大地
▁6.3
zito
▁Kha
▁umjetnosti
▁Diario
▁Tot
лаған
▁postelj
▁parker
▁fundador
鈴
qua
賺
裤
▁Kontak
יאַ
质量
▁uzskata
tol
▁sorumlu
获得
▁@
▁izleme
▁amewa
aqiiq
tve
▁Konsult
▁jogadores
▁patogi
▁mode
爆发
▁pekee
▁Kolor
▁Klassen
系列
TT
▁berdin
J
▁Panta
小小
ljivosti
wasili
▁studiju
▁meldt
National
▁dice
▁fremover
ՀԱ
▁kushiriki
▁failure
▁түрк
clan
▁Baka
▁iniciat
▁ag
nai
▁Pot
▁MI
▁wiil
▁Arbeids
▁story
angebot
台中市
▁prote
▁Inner
▁muutus
牌
▁Vas
KTI
▁20-25
新
▁promete
LJU
▁FILM
透過
興奮
▁diweddar
濱
温泉
ປ່ຽນ
▁Gr
▁under
空港
speicher
節
▁Teknisk
國家
top
ij
▁Wo
zam
▁Train
spieva
▁šiek
▁come
▁Port
▁investigador
▁comprobar
▁parinti
▁Start
▁odhod
▁descobri
然
▁noroc
^^;
▁nekik
让自己
YER
級
的影響
▁til
▁26
152
sex
▁odhad
戦争
艦
▁1:
▁Labarai
取得
▁Swan
▁curso
▁Հո
ello
▁yrityksen
▁Jerry
▁delvis
▁bot
2000
Nar
戶外
▁Ultima
▁jobben
实习
▁qartulad
▁mesmas
▁preoccupa
▁ນຶ່ງ
▁indi
ËS
扰
▁hinzu
靴
▁Rus
▁travail
▁existe
▁belgilangan
▁remercie
nye
▁Hawaii
dock
cen
助
▁sarap
▁kansalais
国内
▁kucing
新兴
▁esprime
nner
▁finalizar
tega
▁verklighet
▁preguntar
股权
一定會
▁rezid
▁aynu
贾
逻辑
马来西亚
▁kulturelle
ferie
keta
▁vitamin
▁cualquiera
gni
▁1993
▁garso
ziko
▁Webcam
▁pareng
▁enfoca
▁)
自動車
Anh
講師
▁resume
ENIE
▁judul
+0
▁sono
▁raise
▁iso
hluta
hou
証拠
可以通过
炭
▁pastinya
拠
tico
▁adroddiad
▁Vid
jen
료
▁Mel
ndry
▁mental
zz
▁annum
原因是
長時間
ininku
▁hervor
▁fuldt
▁Ha
▁boya
84
▁kirish
把他
eeyaan
monina
ago
▁Nasze
պիսի
▁programov
▁computer
▁kurash
▁tarte
▁2011
cour
talk
▁Ogos
▁Rule
▁rodas
▁suppose
hrif
有助于
▁zhvilluar
亦
耶穌
▁Angeli
动态
軒
antes
▁president
hana
inga
▁wol
并未
每个人都
▁pentsa
(6
东北
178
klej
INA
mang
進而
晚
ulong
▁pianist
KO
jana
▁pegar
MAN
▁generate
高
果
fase
▁cura
同比增长
katerimi
kse
အသင်း
▁Akureyri
▁Pogledajte
▁dopravy
mnazi
▁rock
bayang
▁izlet
▁Filipino
▁chapter
▁4)
▁Kogu
▁gaz
▁szereg
1%
ելուց
▁ravnatelj
▁Afin
▁iOS
▁Sor
▁datotek
143
不清
▁ram
▁miniatur
▁Meil
▁Qanunun
▁4.
▁빼
IKAN
▁duchov
怀孕
ydd
峰会
细胞
ազգ
▁Dag
ierung
▁Gizarte
▁Dewlet
ibilbide
ei
ysgrif
牛
▁nasihat
▁instrument
▁Minh
▁spe
▁lastnosti
▁gumb
▁Kanunu
的话
ဖော်ပြ
▁noaptea
kulttuuri
▁rafin
▁Slavon
真心
▁sauce
rita
203
ejoj
ុប
▁Minder
▁osad
▁Shqiptare
lektor
▁2011.
▁weekend
▁(
l
▁We
各方面
▁tranquilo
▁potpis
ONDO
orienta
UN
還有
▁number
▁plast
▁entra
可
einket
▁kategoriji
▁kjenne
全面
դու
▁professora
▁Reiki
ebilmek
▁odpowiednie
▁membuatnya
▁nafta
▁Einen
▁tulajdonos
▁Llu
牽
alam
▁dibangun
▁found
▁navegant
▁Kollegen
val
▁foram
roz
▁Campan
▁CH
fc
bransjen
套
148
cchi
shirye
▁Info
mulo
▁lassan
web
▁Estate
▁fonduri
▁claims
YAT
▁կանգ
Di
▁254
▁preveri
▁ragihandin
ikan
中国特色社会主义
187
旁边
償
▁hulgas
打了
▁upp
远
lisse
▁menatap
▁Kam
toimittaja
相同的
ცის
▁valokuva
ink
▁Stay
olog
需
▁88
郑州
▁korras
発行
prowadzi
材料
▁neuz
▁gabinet
▁assistenza
的意见
▁Tare
權
了几
gen
▁obiectiv
▁zakaz
▁Theodor
▁Fabrik
evi
Ազատ
▁Schweizer
产业
məyin
承諾
寻求
牠
▁Blade
▁duzue
▁abgeschlossen
几
▁Erlebnis
bay
▁seminggu
yo
▁Gran
fahrer
dai
▁Concord
原油
▁sir
riz
5-1
▁United
▁kolejnych
▁an
uje
▁Jadi
▁awali
世界上最
▁7-
▁Rodin
▁hazard
▁SEP
▁nantinya
1000
▁TR
▁Nge
ologia
▁jogar
vloei
▁rescat
▁оқиға
▁aktuali
ztea
▁contidos
▁ulykke
銘
幸运
▁fr
▁gwrth
BOT
▁Te
▁Komfort
HIM
埃及
ນຶ່ງ
萬人
▁Fare
ingresso
▁Karya
軍
lan
▁mand
guera
▁gestire
▁human
▁nascut
յր
承認
book
当然
标准
հանգստ
▁supliment
▁blog
綿
ዴሞክራሲ
▁Filozof
改善
▁invest
obligatori
▁explica
▁Oriental
▁Pengarah
▁nas
dri
▁Celo
▁77
ller
▁severe
▁dochter
punkti
▁Ayo
▁baisse
anka
▁irgi
▁textura
▁vyhr
▁mantenere
▁Mise
▁FIL
Su
jskem
prac
▁spesialis
iz
▁1863
▁Benedikt
▁kuula
rou
▁muffin
ist
臨床
解决
▁syke
sine
简称
EJA
▁bancar
之
eller
▁tell
▁basse
ohjelman
hlav
▁gestionar
▁rem
▁siento
valvonta
▁Big
USTA
组
cev
▁onlardan
la
anga
ders
▁hominem
粉
▁largest
69
▁Targ
▁lawr
▁XX
▁adopta
▁BO
▁mooiste
ესა
ניע
▁Casino
297
▁Shiva
kta
条款
▁ekkor
▁magnam
掉
▁henki
▁bh
53
▁probleemi
ttomasti
leme
负担
▁tombe
邱
▁Page
陀
除此之外
✅
▁Asia
▁Now
▁1888
▁tuttavia
▁olan
▁Stadt
▁ajatus
▁miliardi
▁hag
▁vrijednost
▁gwamnatin
▁Anne
熟悉的
▁granica
▁temporar
▁blat
▁Business
bool
րատ
志
▁www
▁kilo
▁synth
▁Medica
▁pelakon
RO
▁apua
Un
▁maxi
儿
Player
戰略
嘆
worm
弊
▁ri
▁Muuqaal
ax
▁Infrastruktur
▁piisavalt
升
▁pertanian
rika
▁century
▁sfaturi
sel
▁Atlantic
▁madri
▁vergeet
▁movie
furahi
▁bele
▁Belgia
bergen
▁Nu
▁Paulo
的理念
▁redz
rlo
▁preparare
տրա
▁metai
▁Kad
alaikum
▁mobile
▁passeio
桜
che
特別
▁Navoiy
▁fericire
▁Saad
▁Band
▁hominis
▁al
▁Facebook
elu
zuka
▁drone
▁zuzendu
▁producenta
▁Cap
instant
▁prometa
gul
▁hory
▁Jamie
mut
最多的
lepingu
▁Hem
ՆԱ
▁OK
Pub
▁informa
去找
▁Unterricht
▁Shah
喘
妆
▁pap
家
▁ahamiyat
▁pasta
親切
人才
难度
▁opravil
▁internetowy
▁voeren
pi
▁sap
gaan
▁fidem
pada
zingen
斗争
rz
gus
▁uscat
prawy
▁1800-
▁mendje
GOR
行政
greina
Ras
▁aurreko
▁respirator
▁Ngayon
▁dosti
▁OEM
rinish
▁heutigen
则
cha
发生
betingsten
▁verklaar
▁natura
▁Hol
ləyib
▁Bollywood
gyldig
Dienstleistungen
▁resto
▁body
▁director
ilebilir
▁Opfer
idh
AUD
▁Forschung
▁toimitus
▁AN
法案
▁ayaw
▁27
更新
▁yet
▁explicit
落后
▁haraka
袁
▁private
冯
resor
投诉
整治
▁company
▁wir
▁aadan
sik
▁organisaatio
ונס
▁drauf
上周
lles
▁enzim
▁Aurora
ինք
▁moral
▁Əf
aci
stimul
▁obuv
▁grote
▁ciwan
▁Photograph
dienu
▁կհա
▁Entre
բեկ
ja
可以
遊
▁KARA
225
▁կերպ
▁liens
▁specifico
趋
▁Long
僵
斌
▁Predsjednik
▁dag
▁keindahan
▁bildirilir
루
varsel
▁shtuar
janski
▁zeuden
▁samaan
▁Spolu
lashtirilgan
ARA
▁kompil
▁Rust
▁Phase
multi
▁ilgai
参加了
haq
▁konteks
inne
helyettes
avo
siynau
7%
▁mantan
▁verdura
▁Varga
jot
▁krigen
▁saakka
folia
ריע
nes
▁Kir
▁later
vala
▁omaan
▁raudon
▁Rock
▁došao
▁ATV
资讯
醇
▁Tampereen
sted
mari
必须
▁penumpang
bahagian
信貸
▁jumatate
▁odluke
▁այդպես
▁Eagle
破
▁joukko
▁north
▁family
▁kokeilla
▁Ver
▁CON
▁bottle
▁szaf
aika
▁რეჟისორი
資訊
▁iddynt
▁rent
吉
▁tho
▁Baza
▁Ofic
▁montri
縫
aktiviteter
teri
jm
▁Ef
▁Defensa
▁Rwanda
het
▁executar
beli
▁ապրել
治
▁Viagra
ကြန္
费
Download
▁Kriteri
▁Leid
▁STAT
aalselt
▁[...]
its
▁julge
▁eraldi
ific
▁trace
▁begyndte
▁December
tima
▁sosem
▁Ind
▁inteleg
▁Liik
▁Barber
▁prazni
學習
▁14%
哩
軟件
▁Tun
SC
▁Tvorba
价
職
flet
▁del
UR
様子
▁hol
▁velko
傳
usapan
▁Nika
lea
▁domenii
abi
perioden
▁progressiv
▁Ստ
▁cum
期待
▁accipi
▁bepaal
Prim
▁bence
▁Versi
▁penis
▁ligga
ndra
▁Volta
loft
yam
palveluiden
巾
採取
診断
tang
▁gyventi
▁Wake
▁pikkus
▁sprint
▁cerebro
▁incrementa
▁Installation
▁ugyanaz
ned
Ni
▁desperat
▁qeveria
▁Empire
▁power
Gro
▁processo
▁mikill
!:)
77
▁mbajt
▁cica
▁muude
▁konkursa
sitter
kelet
▁escolares
W
7.3
▁prioridade
timen
▁voitto
.11.
▁estabelece
▁Perubahan
▁Cay
ויס
▁krant
银行
▁cieszy
iseanna
▁interior
▁Pride
dien
thola
ladda
▁Իրանի
▁absolut
▁tretje
▁toirt
▁maray
オ
▁regala
ming
▁შენს
▁energie
explica
МТ
fil
dy
▁sepatu
沾
▁generator
▁higit
実践
樂趣
uhan
▁indica
▁Pe
边
iyeke
qey
▁povestea
▁bezeichnet
stofa
▁recovery
▁superior
ar
▁Ku
▁does
▁sparen
▁noktada
▁Valenciana
66
odpoved
感觉到
▁karali
building
▁prietenii
保有
AT
▁nin
▁CUP
▁klassiske
san
▁tengan
pha
šak
亨
mong
咖
▁DU
▁tru
▁vorbi
▁cestou
ang
▁criterios
▁situazioni
president
▁Enrique
▁Celebra
▁sprake
▁kurva
▁James
好評
avaldus
▁minutes
▁formularz
▁Sebe
武
给自己
▁postupne
姐妹
资源
新鲜
▁Minor
欣赏
ယောက်
关闭
札
szy
▁Sve
▁remunera
▁pemenang
雙
▁dig
▁skirtas
▁recepta
▁sausio
ining
假
▁sykehus
psat
tec
▁skaidro
的知识
▁gule
edi
以下是
▁gummi
▁web
▁berjocht
▁slippe
vuuden
ရယူ
▁Elle
02.
▁312
▁Gadis
▁blade
▁shaxs
▁onunla
丑
赌
翁
肠
破壞
崛起
▁sosok
▁..
YA
迪士尼
▁Jijini
▁agertzen
FA
avi
▁(1999)
▁Oracle
Mont
ivi
坐
▁localizada
lg
▁Yemek
IR
141
idas
▁digna
▁Daarna
▁usato
▁Variante
▁berja
▁exp
▁w
▁solltest
偽
游泳
stemming
Richtlinie
▁befinner
裝
lut
▁spasi
▁umiestnen
▁hatari
▁Europe
▁jepun
masse
締
gem
▁ASP
▁barang
衡
▁valorar
zd
fariki
▁papa
▁anpassa
૧૭
▁obstoj
架
▁brann
AAR
很可能
cie
▁tietty
▁bunch
▁$5
无人机
龙
弯
彌
不思議
呂
▁hochwertige
▁kijiji
▁Website
▁autonomia
▁departement
▁Bremen
帝国
▁Bau
▁naming
▁mortem
BLA
▁Later
lur
▁tilfreds
▁educatiu
▁oculta
▁espazos
▁vinger
▁sco
手机
一下子
opplevelse
TER
Union
▁rukou
チ
▁causam
▁Fot
▁dhexe
手里
▁suspek
現状
▁facture
bistan
▁rettigheder
▁pouvons
သြယ္
▁quali
▁cztery
部门
mberg
ներս
org
97
၁၅
wing
▁destacado
▁monopol
▁tiksli
sluiting
▁palikt
stenen
dhaaf
nte
电影
fn
▁artikkeli
miehen
▁minim
ysis
ceiro
▁George
▁рр
▁liber
这种情况
tokset
推薦
▁vsebine
▁aplikacije
udhu
▁joudu
▁dies
▁terminu
歌詞
HUS
毕
els
▁Maali
eix
▁anterior
▁bri
သြင္း
▁suositu
▁det
▁tam
▁nyitott
▁Your
tirgan
▁outlet
brus
▁bruto
▁76
Це
▁Nathan
▁orang
▁Bila
最高
WEB
tatni
loppet
wit
▁97
迷
▁excelent
▁forma
izar
▁metodik
▁nastupi
▁rhag
▁realiz
tys
节能
貢獻
嬰兒
▁imtina
▁Era
▁Mokslas
核
lor
bha
▁municipal
uzi
▁energija
▁traditionell
▁flu
▁favoritter
▁ἐ
▁pagitan
变
▁Fedha
楼
երս
▁legitima
8%)
lana
▁Elisa
▁When
▁pripravlja
不見
▁Warna
▁lasciare
▁fillos
white
▁Bangsa
GA
▁dias
ite
▁Bis
սե
▁vekst
▁barok
▁Gro
Rad
դին
擠
餐饮
遵循
卜
▁netiek
▁match
▁viatgers
▁sla
▁Kongre
▁Hasiera
經
oikeudet
▁anvendelse
▁stia
▁teachers
的价值
oglu
小組
▁recta
▁Session
▁﴿
积极
▁gezicht
▁aman
▁lisens
▁350
▁Mesaj
▁sav
▁Cirk
▁enbart
▁84
▁Արա
精緻
赢得
▁Email
94
▁Ovdje
▁sen
▁berharga
▁Wajah
▁mong
rke
Program
▁affronta
▁sebaik
▁Daudz
▁tingin
li
tik
wriaeth
▁71
▁športov
lys
▁medarbejder
獨特的
▁Մո
lokhu
▁ten
▁tonga
▁pilk
▁Mann
医院
▁categori
▁բյուջե
nyi
▁Untersuchung
▁afbeelding
▁keyboard
一定
thach
▁conseiller
所
▁Internetseite
irnar
▁period
▁sodeluje
▁Kiev
就知道
braukt
supra
▁basket
▁biolog
BON
איי
▁73
▁twarz
▁zadnjem
酸
▁Store
ghail
▁aloittaa
▁produkten
bhre
汽车
ANDI
▁kissa
▁Olisi
sh
▁English
額
▁stavi
▁przeczyta
鹏
新西兰
懷孕
նես
▁Engagement
▁Mtendaji
▁suite
▁Christian
▁60
uran
▁Consulting
▁portanto
▁fitore
▁recomana
▁problemele
一分
▁monda
▁sprejel
jai
▁տիր
名為
entes
▁jalka
dje
球隊
▁lov
層
▁spomenut
yilda
ruv
▁konar
想着
▁consent
▁vogel
▁Xil
国际化
397
▁coup
▁Immobilien
▁Ul
▁hanki
recht
▁marge
▁Thomas
▁Terus
▁Verbesserung
▁ili
oti
▁provenienti
gina
▁shak
▁outra
▁abdi
▁lamenta
zal
次回
▁calatori
ana
▁prizor
▁virus
念
▁Yama
▁univers
九州
喜欢
438
Natur
▁Pakistan
▁Wajib
)
▁ya
nizsə
finden
▁chur
▁oro
▁Pend
Linux
▁refer
គោ
▁ජල
滿
sione
▁perfetta
▁unha
AC
▁possuem
▁panduan
RAY
Ke
stiden
rci
СЛ
390
▁Bapak
寫
▁Krakow
▁instrumental
▁Singa
背
▁putri
▁Энд
pata
gunean
▁Mun
isation
▁gedig
▁prossimi
航
▁valstu
人们
▁scheme
▁kasvaa
▁attribut
▁herpes
纲
已经有
侦
ger
守
蚊
爛
▁both
▁Catedral
▁8-
▁americani
▁Spanyol
拥有
dar
▁Jump
Gri
▁Feuer
▁Situat
▁Weight
▁Heidi
这样的
▁spacer
▁vremenu
▁protokoll
ton
看不到
影響
▁daw
▁Magi
stanku
flat
船
▁Verme
OVO
iranjem
kl
播出
▁diretti
易
dobrovol
▁Parang
▁eksterne
▁Kuigi
科学
▁respect
鍊
渔
厉害
交通事故
▁Amazon
逗
406
▁Hiina
sht
▁Vorbereitung
hid
▁comportamiento
▁Oifig
▁ul
▁Bak
▁snaaks
▁Walau
▁Nos
▁Ռա
werten
聽
▁popullit
itheach
▁podido
症
EIS
對話
mas
▁razne
lipokuwa
▁fylla
▁Lent
▁(10
▁Ման
大赛
▁Rasi
第八
▁:
Z
▁pocket
8,5
▁skupini
加入
沖縄
会议
:10
▁78
▁frykt
我们的
▁mewah
vek
各國
產
▁Sunny
шћа
1944
▁paper
▁مړ
stempel
try
▁74
▁morta
▁Puig
▁Cantik
▁Hashim
▁Akbar
▁1881
▁Yu
▁Magnet
ANTO
700
治療
▁Street
▁DE
▁escapar
▁Schreiben
kovic
▁pamje
这份
iramo
▁Vella
百姓
歇
登录
▁postingan
▁Amharic
▁Filosofi
unum
ster
▁binatang
tze
▁Lukas
tty
▁rostlin
本
▁Natur
impatto
boj
▁trompe
▁serija
▁llamar
▁evaluat
pender
开发
tra
▁FC
▁Protocol
398
▁zahtjeva
▁portata
▁oyunda
▁portant
▁marchio
税务
▁normes
izol
▁vel
円
▁obdobju
集团
情報
▁Ki
cra
▁Hijer
▁markaas
PI
▁Ruta
aiatzaren
▁գիշեր
ခ်မ္း
skie
▁add
ycznie
▁Ni
週
▁Кари
ချက်များ
accelera
▁budur
快递
借助
▁...
▁kolom
-9
▁trygt
foar
krat
▁chiesa
kum
▁Dreve
rant
ისტ
高等
▁prof
▁proposal
▁Kalli
pravljanje
持
teenistus
havia
ratkaisu
▁horri
▁revi
faqat
▁տեղում
lish
▁caranya
▁Form
▁mindez
▁Campos
短信
9°
老师
▁minutu
heyr
▁killed
▁rekon
乐
rade
edu
454
▁Listo
▁tart
hai
▁Kerst
dejte
▁kyau
▁Centar
ƏR
llisuuden
赖
一种
传递
▁interracial
Кү
wod
▁isteyenler
▁rede
america
▁pon
▁proveden
▁Kata
SS
ဆရာေတာ္
▁Person
▁program
▁sites
▁caawi
▁lerni
gaadh
▁szerepe
▁linia
関わ
-->
86
▁geratu
Per
▁popri
▁He
払
KE
▁taxes
订单
▁powietrza
▁considera
hun
▁TRT
頗
颁
▁1.200
罢
▁Kalle
盐
双
ntotdeauna
12
▁axaftin
gene
▁binlerce
mpa
▁eli
找到
JANA
LE
▁sigorta
JE
▁Paypal
.11.2016
▁Motion
▁spraw
ttujen
▁odziv
▁2010
▁preventivo
maz
seaduse
ርቶ
tana
confort
environ
cro
咪
▁cuairt
勉
淘汰
▁censura
受験
▁erthygl
▁maschi
ጉዳዩ
▁mayor
▁erlebt
▁Sud
▁AK
较为
ainm
▁Lopez
SNS
▁domum
80.000
我们
▁cari
ブ
國中
增长
5.8
▁sumus
cina
teenuse
还需要
▁podporuje
▁Sarri
帐
厨房
轰
គុណ
▁Nov
▁advertising
探
▁pengajian
Lo
古典
仍
ហោ
▁imellem
▁Privasi
▁Motor
波动
龍
穿著
▁Robinson
▁Želim
左右
▁stundas
գիտ
引
ABU
▁sasniegt
բար
▁Bauer
▁Plac
▁cultural
▁transmitir
ala
▁food
▁rokok
AP
▁Spiel
▁hemat
▁нөөц
dige
▁kajak
▁SAY
iiii
贪
關
tiradi
ct
▁pot
▁minute
▁Geographic
最後
▁pohjois
RS
▁namenom
▁desideri
▁why
“
ial
impact
unkban
Kompeten
▁fru
▁bussen
▁haberleri
X
▁course
▁atractivo
▁barbat
送信
uks
Egy
▁tornou
NUS
亩
▁sankcij
մեր
▁may
▁rela
▁account
可是
▁ustida
mag
▁Sitesi
asi
▁2010.
▁Sil
▁podobnie
▁(...)
logisch
▁Jugendliche
LŐ
▁Slovak
去年
▁greš
▁dollar
schen
▁escapa
▁minimum
▁Kalla
時
milyen
继续
▁dolaze
▁naturligt
成本
▁theory
▁uitstekende
效果
筆者
kach
鬧
▁Vancouver
mul
▁regna
athlon
多樣
INK
▁Aboneaz
Uradni
dot
xeta
▁hilbijartin
▁prosim
▁gerak
▁aplikace
▁czasach
AA
▁Logistik
▁nganti
▁tarefas
工会
▁luovut
邊
者
强制
▁trovo
纳
ଃ
mont
类
▁bestilt
dda
▁bekrefte
20
▁renka
feminism
pdf
▁sram
▁25.000
济南
▁Aldundia
▁without
▁FA
rte
▁godkendt
▁Green
▁Vendi
森
Matt
stavila
▁numerose
▁ka
▁Sabab
▁Elə
▁Via
jor
▁Նյու
▁turn
neuvo
fragt
▁vii
mesi
▁Essay
▁Budapesten
▁baseado
▁※
修復
UNTA
▁sal
▁vindeca
magnet
ON
漠
ame
聪明
賜
equilibri
慶祝
▁Rama
aw
▁sea
▁gyntaf
水
▁Chu
▁ሚዲያ
决定
▁Oliveira
▁renkli
▁Szkole
返
▁artifici
▁bike
喝
▁VPorn
性質
▁Zahid
uudella
lands
▁berilgan
觉得
▁Convention
ume
▁akhirat
▁Camar
投資
▁Zadar
▁dirigida
▁praktiske
▁Huo
▁baby
iji
中国科学院
厳
▁ibunya
▁change
▁Facultad
▁Sembilan
▁1-2
▁has
hna
▁erakusketa
▁31.
row
▁martxan
▁nimetatud
yxati
▁fjar
▁Prešov
▁Vapaa
▁gai
▁bedoel
會
▁salon
▁educat
kia
▁beseda
EK
▁creada
临时
▁Siyah
▁Abid
▁Maha
▁gauzak
▁optim
▁2:
▁aanval
gad
▁sultan
▁tjene
sistencia
保障
czona
▁minimaal
nje
tah
jenga
苑
▁FAC
IV
▁Beste
dana
▁ningunha
只能
▁colesterol
之後
gle
▁camera
▁Rom
eco
▁categorii
zungumzia
▁grutte
▁Memper
no
▁nach
ril
▁trebala
▁Patrimonio
▁ЦК
yenler
▁RSS
▁Portugal
▁polja
▁cihaz
社会保障
▁Positiv
imu
工場
▁regjeringen
着
▁poruch
▁Comp
Card
茅
▁posat
etti
▁Cup
07.
▁Bagaimanapun
▁ab
Java
▁aka
▁rinkos
智
▁negru
▁Colorado
▁overblik
▁ezagun
▁tunggal
▁nasil
!!!
▁Leben
▁missed
记住
▁meri
▁մեղադր
保护
▁gogor
▁Uma
处理
上司
▁borgere
▁figura
▁Nilai
corri
▁hoping
Watch
BU
▁Bri
▁Asif
外觀
kraan
▁1980
cap
一遍
紧紧
叙利亚
砸
锡
阿拉伯
▁Whether
▁mengerjakan
▁Problem
esse
lah
▁Ngunit
.12.
▁predomina
▁dijmin
oldeb
▁Forside
最后
▁Kikuu
▁flaen
პის
两个
在美國
▁ideju
▁liter
▁piknik
teater
Like
odi
▁valvo
▁bandy
Tu
KRI
▁matrac
rre
▁seguiment
▁libroj
▁attesta
Over
▁hampa
▁posebnim
▁92
▁American
▁hope
模拟
漸
视觉
躁
茲
▁Cre
旅行
▁qolish
▁privatiz
▁neviens
▁suma
速
▁Pilar
▁znakom
xerunt
▁ryby
▁voodi
mada
▁Soros
▁flaske
▁Kalk
▁Saksamaa
▁another
vance
▁con
kaz
ebb
468
生活方式
DIY
▁lyser
不变
荷兰
▁nouvel
这么
▁Brifysgol
▁dzisiejszy
▁Man
lej
▁paziente
mais
▁mendakwa
aku
▁Torsdag
▁Prze
ii
▁potrete
especial
rent
▁spremni
增值
tutkinto
▁steek
www
▁125
IDAD
▁faydalan
骨
▁edebilir
▁captiv
▁adatto
▁toga
▁barbati
▁Den
Гар
卧
tov
氛圍
协商
宿泊
▁IS
▁Hans
▁Hercegovina
▁esforzo
63
实施
▁Arizona
展望
▁prirode
▁82
INGER
▁Cikgu
▁sho
▁Name
见面
▁Japan
psi
置
les
▁antiqui
▁ገቢ
雅
UK
ukia
▁bellach
▁suggestions
待
git
71
▁hodet
的压力
紛紛
ـــــ
母
rile
▁bathroom
sko
bek
▁Lang
▁prvky
▁perfect
结束后
▁hidung
▁ring
▁Ren
能
▁Chinna
黄色
▁daugiausia
sas
<3
▁Garage
ָר
▁Ohio
▁S
▁ska
▁cutie
的特点
▁minu
▁historiske
不论
675
▁regalar
▁rak
絡
瓷
震撼
聲
▁Shavkat
▁bij
▁sup
▁cine
▁hosszabb
▁czytelnik
▁iyagoo
幾
oggend
▁Ao
分
▁Pocket
▁fact
UNDI
▁velem
▁zhvillimin
▁Budapest
▁suaminya
mate
interpret
infarkt
▁Kre
▁plimba
▁alto
▁bendi
▁hatinya
Ku
▁awalnya
bhadh
ZH
707
▁ben
2009
4.3
rana
▁Stefano
▁Hoe
▁Pr
▁aba
▁Outlet
▁evitando
▁lukija
privat
zketa
全部
▁undrar
▁Sab
▁podzim
▁darrera
parti
477
▁umrl
YEN
▁cita
穿
▁Druh
▁dikim
百萬
▁rodina
猎
中小企業
盜
▁lounge
▁tus
▁benieuwd
ware
耳朵
来
▁Central
公眾
mond
▁xeyli
报告
▁Sepak
tilladelse
▁national
▁lepszy
乡村
SQL
▁elevada
前
受到
excl
oto
998
▁gistingu
现
Oct
▁lugemis
Ver
រត់
北美
▁primary
关
▁skutecznie
▁po
▁Are
impia
Park
▁Foot
cik
▁beaux
lika
Angel
Temp
▁gospodarski
撕
坛
▁mainos
▁entdecken
▁fer
▁Sva
▁regula
▁raznih
▁ekziston
▁distribu
▁intreaga
警
▁commemora
考
▁gerus
▁Eskort
▁ներքո
bazi
從而
▁harakati
▁ուղարկ
▁bhi
arbeider
▁Դրան
▁coram
▁montaj
▁Referat
ukkaa
Indi
aikata
տին
wia
▁stemmen
▁didn
General
006
▁identidad
▁executive
▁Gen
▁lotura
▁asiasta
aro
▁genocid
▁gabim
▁guanyar
▁skratt
ဆူ
ymui
有時候
▁Miele
▁dobbiamo
▁leve
Գյումրի
sin
久
▁Kooli
▁Tomar
男性
▁pulis
vie
▁poderoso
這段
▁Associa
▁gyfle
▁facelo
kri
▁parhaat
優化
▁Bauch
▁emekli
▁propiedades
luokan
▁Bez
▁hvar
▁SO
▁self
▁shirkad
▁Stamp
▁hvide
工作人員
未成年
▁madaniyati
▁lingua
▁dokumentum
下班
▁fû
磅
Ch
▁hirugarren
▁toestemming
▁Norsk
▁possesso
▁Bekannt
▁Alla
▁dialogu
:45
▁arrisku
▁bet
fl
կետ
▁nim
strahl
▁poses
▁voelt
▁uyku
山市
VIA
▁nastavlja
▁intre
▁(46)
▁declare
▁humor
▁i
ka
▁super
hil
gjafa
four
tycznego
▁Jaurlaritza
▁mateixos
altezza
含
koppling
这一次
מיני
▁observer
▁Camp
▁zo
万吨
纽
图书馆
Occident
丧
湧
寶貝
rut
dade
普
xan
▁slapukai
ran
▁hikoya
ƏT
kku
kabili
68
▁daljnj
▁professor
▁aumentando
▁familiar
teurs
▁dettaglio
▁bucurie
▁Jawa
▁saturu
▁Telecom
▁atletas
enbach
nts
ရံ
▁Ekonomik
▁camina
▁okresu
†
rum
▁Obama
njwa
▁foglalt
olewa
▁lanean
▁mladost
▁Teil
着他
راڻي
▁SMK
▁belgeler
裝潢
阶级
録
ais
蔵
အနေနဲ့
▁auctoritate
▁Comercio
▁zelfstandig
内蒙古
頭髮
折
▁lit
posta
▁mdogo
▁94
▁away
在線
▁Wide
ECI
▁amestec
CD
▁Regelung
ship
brojne
▁cha
▁trai
▁inedit
出门
▁creier
▁qilishga
的地方
▁tilfelle
亲自
464
pare
侵害
砍
中華民國
fit
▁FOR
▁vaziyat
觀點
▁Kuopio
伊
bos
▁politikus
<
▁milijonov
▁eng
honneur
方便
▁Father
▁masker
▁franchise
as
▁colectiva
▁Scopri
▁cantitate
貨
▁corre
▁drugem
▁estrena
▁laurea
说
▁tihti
COM
▁faida
的战略
265
霊
TIVO
ေလွ်ာက္
▁odio
Ź
▁Przy
▁dei
每天
▁emergency
▁stoletja
gne
▁vahoaka
▁krievu
▁tartibi
scri
▁area
▁Schnee
ngi
schmerz
▁sub
poca
自拍
Az
▁Glan
▁արժե
成立
▁panel
handel
質感
▁poszukiwani
▁era
wikkel
abil
▁16.30
bs
lini
▁uboj
▁Buena
看待
luck
▁Neces
▁ravimi
▁pealt
▁directament
稽
▁velkou
▁treballadors
▁(6
友
oba
▁Jean
有人
秘书长
teraka
▁creador
▁Keller
▁Moet
▁rendszerek
▁hrvatskom
免費
▁engelli
▁neo
655
iaethau
電話
զբ
▁Adam
▁banyo
կառ
▁Philosophi
▁libera
▁dnevi
▁Ryg
oitetaan
ung
▁uhka
▁Gitar
aine
ូស
▁DELLA
▁მოჰ
hartze
TOA
▁progressive
▁photo
▁Koke
▁acreditar
▁mark
▁Ferienwohnung
結
▁gram
▁bra
▁98
▁spi
▁mednarodni
wis
hold
▁me
▁http
▁privatnosti
目的
ոստ
▁shooting
▁estetic
▁°
simies
Global
▁Bhaile
▁rischi
rot
▁dezvoltat
rado
▁considerando
▁zadky
設定
▁deyilir
▁skil
rium
xu
銀行
▁Stortinget
▁լայն
▁health
▁sinyal
▁forventer
▁ehf
▁nombor
▁NATO
▁offensiv
▁nevnt
NICI
▁herrialde
sprung
▁ohjaa
وټ
ELT
ravit
面临的
urbo
▁Aur
▁suuntaan
對於
▁utgave
▁dagana
▁cibi
lenir
youtu
-14
kostnader
姑
▁rifiuti
IC
▁mitandao
季
▁ek
▁Ericsson
▁Montreal
▁uvrsti
▁MS
倍
▁Minulla
▁sabon
▁Mod
▁sepertinya
▁Indah
▁steden
enne
▁recomand
香水
▁wathi
LAR
▁llegada
▁keskel
▁borsa
vent
▁triple
sca
▁abusi
▁Comment
persoon
▁seviyesin
▁30%
▁GPU
494
kaubandus
▁Digital
senteret
Ű
dinha
ကျောက်
▁speisialta
▁2,5
▁kom
HD
▁arm
청
omba
383
taseme
▁Gull
yal
siehe
is
▁war
ADA
魚
▁suiker
wak
Mar
收入
▁Nachricht
▁Techno
通行
1,6
▁discutir
働
▁one
▁investi
▁melior
▁sztuki
BI
▁Capel
428
▁ettikleri
第三者
▁fyrri
▁အရွင္
▁pea
GRAD
▁Nag
▁Klang
上演
活跃
▁12.30
▁politischen
သွေး
▁Naidheachdan
同時
▁Musik
降
手
▁hladno
▁Platon
modellen
バレ
nca
ziaren
进入
▁kallade
或
記
556
▁Cliente
skar
usu
▁horumar
▁pozitivno
▁industriel
▁camisa
ឆា
VA
▁tavolo
tes
這邊
▁basa
▁Amma
联
經濟
74
▁cliente
▁Kh
宝
宣言
▁acquire
bila
看出
▁vorgestellt
▁elettro
▁paytda
iso
▁himla
▁Morning
▁alkalmazott
hûs
▁cetak
▁verecek
ias
▁EOS
*
▁obrigada
netto
▁Haus
ilemaan
1941
imams
▁fur
畜
▁subordin
哼
安慰
快速
contact
▁vaso
▁dal
hati
的小
▁Emprego
SU
2008
EL
▁Vidal
▁asukoha
富
▁Մարտի
▁und
▁hold
presedinte
▁argentino
你们
▁deri
secret
▁herself
1974
為止
gua
▁istiyoruz
ineadh
作用
mica
▁NFC
▁Croc
▁equipo
▁katram
▁Henk
써
聯
ibh
管制
kro
赛
▁vest
▁Pause
yan
▁Abhi
▁dung
▁Partner
▁vanilj
ຕຸ
zek
拾
競技
糾
膩
余裕
陈
▁Pflanzen
run
ל
ndum
▁Dating
▁gab
陳
▁Valitse
▁pra
▁mele
lain
▁bazo
▁probablemente
IL
▁permitido
▁ball
▁Jasmin
▁Chuck
tou
▁Dobre
computer
▁kasvoi
fwyd
▁reading
installazione
▁chia
kierros
指引
▁Mana
菇
amivel
▁j
rra
民進黨
永
bert
▁trifft
▁ascuns
▁putovanja
▁Maklum
询问
▁baizik
如果没有
nja
Es
▁dificult
mati
EGI
媒体
▁vyroben
itti
▁nur
Word
▁Tweede
785
▁traditionelle
▁Candy
▁titulo
▁servi
kondu
▁looking
真理
▁billetter
▁It
ាញ់
根本不
针对性
▁izravn
rau
重庆时时彩
▁ဘုရားသခင်
oor
▁kateqoriya
fun
▁Enquanto
▁ly
▁su
ria
▁shartnoma
▁Surya
▁81
專
▁Life
▁Dadurch
rish
ဖြစ်ကြောင်း
▁convins
自己
▁Ent
▁TU
TIONS
▁GNU
▁davantage
▁Teacher
的大
▁Miel
▁tavoite
▁zlasti
▁settori
korban
▁pred
▁mazu
▁Mala
▁ငါ့
niz
nul
▁sarf
geladen
▁პრინცი
buk
▁box
prys
▁gebed
gada
初心者
專注
∀
shin
▁langfristig
▁Njihov
▁asioista
▁analogi
▁saddex
TIF
▁Fahrrad
▁Recu
▁weiss
▁Mascus
economic
▁Kau
▁aluminio
▁obvezni
EC
avtale
gaande
獨家
▁vaksin
▁Skil
协作
▁panasz
国家安全
▁menggantikan
▁Romania
▁Alpin
▁Opera
effektiv
歐美
▁koppel
台上
▁teniu
tish
▁bewaar
▁Con
Soft
ַל
均衡
灵魂
鑑
▁tawag
uga
綁
钢铁
veiði
隙
လျှောက်
▁rapport
▁piano
有关
▁chi
wah
单位
▁pelancong
rti
機器人
▁gudanar
▁nereikia
lal
▁extremamente
▁digelar
ោក
funksjon
自动化
▁Khi
▁KBS
▁Historic
▁intreg
▁Clan
heit
網購
▁ochrane
RTI
▁podvod
▁just
llu
东京
▁doktrin
▁hentet
▁postare
▁contamos
alueella
▁puisqu
话
東方
▁Registro
▁lustr
leyebilirsiniz
»
▁sit
北京时间
▁qurilish
▁vacation
▁zaude
蹟
vrede
Jo
脊
臓
百分之
淀
군
빵
▁short
▁Cumartesi
11
wu
▁keyword
反复
▁bajenn
▁Colin
cep
▁stol
安置
▁Coral
▁Akses
:20
▁pastra
og
您的
▁Clare
▁vivo
▁firmalar
维
▁situacijo
▁universiteit
▁Frost
RI
lok
Google
▁1868
▁snovi
oo
▁emision
adevar
▁Axborot
唤
鬱
▁urush
揉
∼
gemeinschaft
ሲኖዶስ
产
▁Suid
经营
▁situation
▁pengusaha
附加
▁gospodarstva
▁Horrela
▁Enkelt
▁Hukuk
▁2.0
ពោះ
runu
底下
▁socker
哈
7,9
zu
၀န္ႀကီး
▁Politiker
98
▁Bin
imizə
▁rischia
rinho
nettsteder
ffe
uojami
患者
ڈز
▁Verkko
▁reag
որդի
-11
亚马逊
撰
▁totalitar
最新
ggi
▁Celsius
▁commitment
▁izmaksas
稱
▁varstvo
elles
権利
iana
▁Qirg
开展
▁douleur
▁mul
▁pecado
▁vieux
▁Donald
▁pince
▁Legii
▁Instant
correre
Profes
▁cewar
▁Bring
NX
▁apei
▁den
一向
被称为
享受
▁Dari
diskut
▁tecken
▁evropski
-7
另外
▁about
spec
▁glo
宰
▁populum
off
ydi
▁Pingback
isko
▁Istor
这句话
bt
▁CONTRA
▁APEC
▁athugasemdir
▁klassieke
ud
销售
yti
mik
Ti
▁Membe
cula
Za
ttivat
649
GRAFI
vita
▁Fleisch
rinko
空気
▁Singapur
▁Makro
擋
飘
細菌
孤独
阁
▁govoriti
▁result
system
許多人
riedade
▁varia
▁dogodki
quart
▁Senegal
▁Filistin
去
oon
hiana
uer
▁situationer
▁kryetar
als
▁Miss
ացու
▁chocolat
▁opisuje
▁Line
SOP
teltiin
▁1840
បុរស
ner
▁indicato
▁mahsulotlari
▁kendu
542
շխ
販售
难题
特斯拉
tafuta
倫敦
▁Qa
▁Koonfur
▁konferencji
▁since
▁sulle
▁sesudah
▁instructions
▁Pyaar
cent
z
son
▁divisa
▁Abram
▁Բացի
价格
▁tah
▁broses
▁urme
▁permission
▁dro
▁ovo
瞬
▁habitant
continuare
▁SU
▁ajude
sida
标签
熙
湛
▁Jest
cur
ida
▁Labem
其實
外表
qiniso
uso
▁galerii
ole
▁market
iter
她
798
▁tavoin
რეზ
▁Region
▁Ende
WF
rensning
1973
▁besterik
▁Santiago
▁fyw
不可
▁planteja
国土
▁poprawia
ari
tage
▁skjedde
▁polskie
▁sna
gie
hely
nom
▁giver
7,6
sser
▁tired
▁hoffen
▁predstavili
aufnahme
punkten
▁Cohen
▁Erkenntnis
▁resiko
▁oz
得分
▁professionel
▁inspir
▁XXL
中秋
Bi
etta
▁Ramoso
▁AP
恩
▁Trykk
ကြက္
▁cujus
▁immediate
▁doriti
▁r
▁gastar
▁Kaymakam
sled
▁Beautiful
▁aurkezpen
▁rond
KIP
j
▁pauvre
▁Amazing
對外
▁Lazio
▁puke
▁Stockholm
典型的
▁beweeg
就已经
▁Boshqa
20°
▁views
一體
▁Rebel
▁dubbi
▁Kafe
▁Pur
▁consider
▁wychodzi
pala
chten
▁wakazi
▁folga
▁madh
▁cursuri
▁Maa
▁etxean
疊
霞
咒
흔
▁Raj
▁kur
အခမဲ့
▁Abdul
▁Public
▁zachwyc
▁done
▁lid
Ան
大臣
▁tudott
來電
▁Afrikaner
▁vietnam
▁jaunimo
▁fogyaszt
她的
verat
▁dell
▁Samtidigt
▁apporte
亮
▁հին
▁fai
geschrieben
▁mag
▁qayd
▁oblike
▁ministerija
虑
幽默
▁Gul
仪器
喫
债券
疑惑
쇄
▁Tiffany
မော်
▁LI
年的
▁umfassende
▁Kaksi
▁xavf
rab
▁loodud
▁experience
▁suplimentare
koloni
期間
ksana
▁KI
抵达
atur
016
▁հոգե
Caput
▁dangerous
▁Prabu
▁ST
305
lyasiya
▁partide
本届
IMP
▁Emme
▁testar
▁Part
▁prilika
办
CH
t
▁om
電影
适用于
貨幣
▁Thompson
▁amlwg
សរុប
▁Most
ches
▁cumplimiento
领域
▁29
LO
▁bilimsel
有效地
▁Afriko
▁tilpasset
flam
基於
▁btw
▁tabletas
lari
▁maz
▁Portal
海外
▁rappelle
patient
▁Coupe
技术和
allergi
anan
▁prawdziwe
era
chan
市區
▁rahvusvahelise
ଵ
▁zmene
▁chlor
▁Promotion
▁Karl
bewusst
▁relata
▁Antall
▁classico
经贸
侠
懷疑
減肥
盾
jun
▁impossibile
▁Password
▁Sabadell
▁Dmitri
Die
▁Sesuai
▁PE
▁campuran
▁Þ
▁kutafuta
▁modul
主人公
oqibat
製
▁spalva
1964
▁sokeri
497
无限
师
▁plafond
NUN
飯店
▁Cur
▁obdar
Ga
odpor
▁հայր
CSI
tel
▁Somaliland
通常
▁skryt
▁kn
▁vuelo
liq
▁lengan
▁tenkte
▁individuellen
托
一会儿
疯
wir
的问题
▁հույս
gui
美術館
▁menangkap
sies
ivat
▁funcionalidad
nite
節能
▁montras
▁caruur
▁Odgovor
售價
▁Nasir
▁integrada
si
▁Zahar
▁arbres
种
▁dalalka
▁doprava
bab
▁finansijsk
▁With
▁RGB
▁Fahrer
estudiant
ሄዱ
▁Credo
▁establi
Мал
▁sad
ulu
acha
viisi
比特币
685
▁Ollscoil
▁disc
gara
発
▁Road
▁toimunud
apos
ffa
▁Sama
▁obviously
而是
▁Einkommen
▁vali
▁Orice
rati
MOMO
▁sola
▁Specialist
▁Rusko
▁fallait
▁kompetisi
lamaq
start
日式
▁manteniment
▁egyszerre
比如说
▁vzduch
▁foi
boende
kod
אָנ
duizend
▁kraujo
▁fiz
提及
ေဖာ္ျပ
▁Aga
▁meio
kon
▁33%
混乱
批評
peri
▁1867
氣候
▁Bealtaine
控
▁gyventojai
▁room
▁Edi
▁Ett
▁vale
▁rang
▁record
▁raspored
▁Pay
▁kiusa
83
▁cando
▁Power
possibili
▁Saada
啦
▁mani
▁naravi
▁Yog
▁Iroda
▁nevz
▁blend
effect
族
▁plo
▁kuusi
貫
▁konularda
▁Dhar
▁peso
431
▁anfon
较
▁okuloj
▁MAIS
四個
▁reggeli
▁axudar
▁Praia
nasib
គិត
闘
▁Bild
▁Para
▁Abu
為了
什麼
▁ringrazia
▁publicznych
gefordert
▁py
IM
▁Kvinnor
AZ
▁ve
▁grave
▁Murray
▁samboer
▁access
▁dauguma
▁Teach
層次
奥
tunnus
▁Kurd
АСЫ
▁armastus
▁hacemos
▁aktyor
▁imigr
endi
列車
號碼
durchschnittlich
▁bacaan
达到
▁Helge
劇
ရွိေန
Y
▁lajmi
▁Juni
▁padidin
鸿
პირისპირ
▁ddigwydd
kaa
ata
▁rettigheter
▁BI
按照
▁Mara
▁vakava
▁taqdir
網路
▁opis
臺北
vest
▁Somaliya
故事
▁walked
EHU
▁progresiv
▁werin
▁spille
将
▁Sevgili
南非
合一
▁sjove
deki
▁szellemi
觉得自己
▁funcionament
▁ustedes
PR
▁Myth
▁halusi
PAK
▁kurzu
姊
▁norint
絞
mar
▁three
▁money
▁leva
ampianatra
資産
[24]
ζ
ker
▁battery
返信
▁UK
▁cyhoeddi
▁bersalah
热点
QM
▁12.000
▁86
▁prijenos
▁instal
▁vehicul
▁3000
▁operaciones
▁Endelig
LAST
▁senti
▁tardi
TSE
措
陶瓷
扁
缝
▁Lupa
萧
笨
事业单位
伺
脆弱
甜蜜
新能源汽车
▁Mareykanka
▁och
▁donne
▁desfasura
CI
▁hea
▁katedral
▁clar
▁vijiji
meni
▁gwella
▁recent
▁MAY
▁particular
▁funkcionalnosti
治安
六十
▁filamu
▁momenteel
▁objevil
▁erityisen
▁time
▁Gud
ዲስ
belli
▁armada
АҚ
絶対
nil
rina
tiennent
ረሱ
▁oper
▁evidenci
▁verwachten
▁nastavenia
▁Les
08.
pti
患有
昧
泳池
low
▁zenye
憲法
▁kegagalan
▁contro
▁San
連携
▁Avtomobil
stat
▁Nik
uu
Quan
▁Amigos
▁sed
形成
▁Gogo
▁Hat
▁konieczne
/4
1,00
▁lig
EDU
▁(2)
▁eljut
THAN
part
▁level
▁Show
▁using
▁fost
粹
颖
halter
-8
▁digwyddiad
貢献
綱
邮箱
▁merkitys
▁says
jek
adores
樓
▁Minimum
wasilisha
▁Colli
▁dating
funzi
REL
▁31.12.
BO
▁mahitaji
utan
▁წერილი
▁eman
▁platby
981
▁Mango
▁enam
驗
▁cleaning
▁aytgan
▁ISO
▁rusz
▁wakhe
亚太
▁Randers
2018
追
IRO
▁Romantic
besaran
▁21%
▁kokiu
迷你
▁basada
态势
终端
zbek
medewerker
del
▁Utbildning
isce
収集
▁gekocht
▁LE
▁wiary
aren
▁night
▁stereotyp
▁Oldal
▁Operasi
▁confi
▁13.30
▁%
obstacle
1967
▁Mem
▁79
fs
አዲስ
▁Gerra
lig
▁honden
yg
酬
sad
垫
疹
窃
登陆
南安普敦
蔡英文
姉
▁Outubro
▁ap
▁93
lf
▁Infatti
tut
▁Mata
▁seputar
▁faqja
▁conserva
ź
▁Southern
▁күші
▁sexy
▁limit
飞
▁cit
▁13,
▁gcea
IA
related
首先要
▁naujausi
492
▁Device
pakai
▁vojna
暴露
PP
▁articul
Fel
歲
date
▁Ach
▁Kvinde
constructie
质
HED
▁Մարդ
苏州
付費
▁poging
▁piante
▁specialist
伟大的
▁sorte
▁moto
再來
糟
修订
碟
owie
DI
▁Atelier
▁Jornal
4-5
▁Gyula
remont
EM
ions
▁vogliamo
▁inglise
更為
▁Hayvan
▁impresionante
▁MBC
应用程序
▁Dawladda
▁bezoeken
▁mbledhje
▁Anda
▁kondicion
▁Masak
▁Papa
▁GEO
▁Mikor
年度
viikko
eysi
anja
tajwa
▁Tema
崗
畢
康复
看護師
bijeenkomst
類
iwa
▁Instead
ens
▁mortuus
▁witryn
▁[1]
▁gan
▁1500
▁Selalu
▁landinu
▁Opp
成熟的
差別
ungs
▁imenuje
gres
不會
个性
doiro
visninger
▁thought
▁Maj
iga
▁Mello
ox
庸
▁questions
創
▁cijenu
原住民
speed
▁Umfang
▁Pogoji
▁Mam
land
klo
▁հինգ
▁seria
tuseks
这座
▁3.0
▁Codul
两名
toerana
免
一趟
這裏
g
▁Shule
▁Prefer
唱歌
ndar
▁Pleno
▁celoti
pihak
ingar
koulutus
▁Azure
▁finalitza
ED
krok
▁credere
台北
黃
NHK
欲望
tea
▁cleachdadh
chukuliwa
调
園
▁fut
▁polovici
▁meitsje
ミ
▁Monte
▁projekata
veiledning
▁site
UT
桌子
iyyah
▁vazhdim
lka
不到
▁Gabon
▁skylt
▁aloqalar
bun
Fa
pek
ngkir
LONG
▁MARA
▁Joan
pu
အေန
▁industrielle
▁Ford
▁uporabljati
愉
▁Poziv
STAT
抛
臺南市
愿望
liefhebber
▁Seluruh
▁chr
▁15-
▁brskalnik
▁tend
▁Vielzahl
▁arti
▁aikataulu
▁mix
心思
▁restaurant
9.9
▁အခြား
▁ratusan
rma
989
▁ever
▁AT
▁monthly
负面
more
▁hirmu
▁Feliz
▁artikoloj
後
▁condenado
▁aldoni
RDI
▁Win
▁signat
這間
▁Kalam
▁finca
▁sexual
▁dvere
▁Sky
▁reform
▁nuacht
虧
复制
手数料
热烈
响应
栽培
抱歉
这边
▁diffusione
程度
lau
ְ
▁fremdeles
ic
▁Liga
ged
交换
▁Indledning
gam
eurs
stwem
容
kom
罚款
KI
▁Kaysa
▁SC
越多
香氣
▁menular
zhledem
▁buddh
文件
▁Eerste
▁taakse
▁Marcin
▁Dr
▁between
▁happy
▁Brahma
▁impreso
▁arranca
novic
▁nevedel
Du
▁Jugendlichen
1)
不已
特定的
参与
今次
甲
쁜
專題
▁plan
视野
航母
▁Puigdemont
▁carte
專業
依
▁բնույթ
▁glamour
▁EDUCA
▁30-
▁medizinische
▁Drammen
▁Et
停
▁Pala
စိုက်
spausdin
▁dre
dav
▁encargado
▁Viesu
tsu
▁activist
▁mise
▁biograf
adapter
▁JE
決定
▁Fritz
IK
▁Bunday
ATA
RU
ցուցակ
۔۔۔۔۔
▁Herbert
MHz
▁Шеф
▁bat
kita
▁sejt
▁gott
▁Horizonte
▁selatan
个体
事情
復活
▁Svjetsk
星座
奸
▁Webgune
姊妹
TTT
mara
匹配
扛
貞
▁immigrant
婴儿
沉默
ስጥ
睇
各種
NET
▁Mirziyoyev
▁risolvere
▁Sho
IO
ns
▁liittyy
▁Dvoj
確認
▁primesc
▁pidada
▁geralmente
▁stefn
otto
▁meedia
▁sviluppare
▁gondolom
密
▁repente
▁200
較
▁realizuar
▁competir
▁gekk
▁meclis
arentzat
▁obliga
▁kveð
▁nourri
校友
zione
▁aprobar
6.2
▁Organic
▁zvolen
Mail
摩擦
坤
▁sababta
ossa
tib
▁Frank
vu
▁Alcalde
▁hamarosan
▁menschliche
▁prac
▁malengo
公演
▁kuangalia
▁PDT
▁Mar
DIRI
Leave
▁Rabb
做事
itan
▁km
▁listin
委
▁Schnell
▁19,
▁Tirana
Qual
▁adamlar
甘肃
檢驗
严肃
hrab
橙
諒
彎
▁89
智能手机
CP
▁(10)
英镑
▁poskytovat
▁Lind
▁consigue
▁gun
▁pošilja
▁pensiya
介绍
▁obtinut
iny
▁puissant
hatod
▁obvestilo
tamatta
▁pero
目录
dyn
價錢
Grav
▁aztertu
勝
微微
▁SOCI
NOR
▁objektov
▁gehele
高額
scrivi
▁SK
fort
▁konsekvens
▁guitarra
telecom
婚礼
medi
▁koob
asti
ksemme
▁Либ
椎
庆祝
貪
遵
困擾
▁tem
性的
▁Dio
▁Escort
▁pengajaran
▁Seri
▁safleoedd
关注
▁O
▁hier
▁dad
▁Malatya
Go
▁mort
tisipasi
▁Cultura
▁straneh
雖然
▁mindegyik
▁meczu
▁implica
jalta
相当于
▁sconto
▁Personal
▁megad
▁reperi
松
▁informacja
▁vivent
▁wy
▁pali
▁purtat
▁JavaScript
▁Dirk
展会
ຊູ
浴缸
淘
fec
▁beantworten
▁second
HO
食品
▁MTAA
名
▁constantemente
1-4
▁mad
▁ofensiv
▁concentrar
▁realizarea
funktionen
teli
▁Washington
▁Suzan
弱
rate
▁buchen
伤
kuvio
谈到
堂
▁kindel
mol
▁(8
塑膠
洩
▁Krzysztof
供
limi
▁Ensuite
▁luni
▁chluiche
eres
ali
▁ubi
▁blou
▁Olivia
▁uyumlu
大規模
galerie
▁seguramente
▁Tie
▁hospital
▁iPad
▁Wrth
adviseur
▁alegerile
无法
oir
▁Venstre
▁acordar
▁tulokset
最
tle
annonser
viamo
▁attenti
▁Pozor
huaigh
婦女
▁prijaviti
ides
▁guide
▁texnik
海鮮
▁Heng
▁olvashat
有效
n
心
▁pieeja
naamini
▁bazter
▁zinema
团
adoption
拋
▁Salamat
嘉宾
branchen
隐藏
巫
▁Feabhra
▁Mihemed
▁entspricht
既
▁slijede
gabe
ggio
▁wealth
tal
▁Gunakan
mma
▁miss
flu
zellen
GI
▁Crew
itus
▁eindig
▁բարդ
▁Chat
hala
▁toalett
▁revisor
7.6
687
▁planuoja
ejo
▁Segre
vs
▁sporcu
ើរ
DER
▁EMS
▁ziedo
賃
剖
▁Aufmerksamkeit
▁bien
▁bedanken
stein
▁NU
▁komitmen
▁overflade
▁radiator
စခန္း
bara
.01.
▁Hormon
▁reduzir
rede
▁podlega
▁busque
iks
▁irritere
令人
diyiniz
գեղ
▁Batang
▁Kavi
vend
サ
▁terapija
身边的
▁auto
orienter
▁სს
ესტ
▁Ambasador
plod
taendelea
▁Punto
皇帝
肆
竞技
賛
extrem
ဉ်း
▁out
▁cet
▁barbecue
nimo
▁bezpieczne
excursion
▁har
une
▁skyrius
農場
▁jatkuvasti
▁desplaza
英国
▁hrvatsko
rif
也曾
▁Feliu
▁etdirir
学院
周一
▁regra
/3
官員
676
aeth
了許多
▁Gerakan
Digital
yev
▁barndom
▁Ly
一笑
海水
薪水
tse
WL
狠
浏览
tis
娃娃
瑜
決済
莫斯科
▁360
▁dilantik
▁Google
▁afslutte
Pe
▁speranza
▁Oktober
SM
▁Phir
▁Biasa
▁regional
▁code
▁anefa
▁inca
▁plant
cultor
▁PBB
កាលពី
▁click
▁perdut
時代
我們將
▁jarrera
ECH
▁sus
▁ondorio
思維
ODY
laddning
9.000
▁adoptat
子公司
▁brif
▁kratke
▁Por
丙
傳輸
雑誌
ေခ်ာ
▁asubuhi
tong
▁gebaseerd
▁Mitchell
▁Perhaps
▁mahalliy
18
的发展
▁Prandaj
▁Dra
散
uc
▁internet
▁ederiz
▁direttore
▁kuskil
67
▁regiji
▁pametni
▁us
▁innostu
ruh
sszal
▁iqtisodiyot
Kel
877
656
▁ndarje
bruk
imh
運費
▁tiaj
tant
Heb
品种
▁audio
HARI
0.01
极
市面上
自転車
▁Gold
跟踪
晉
汇率
▁uurimis
▁Jakarta
威
▁Jahrzehnt
▁Centre
▁meshkuj
▁Len
structuur
▁chance
▁viimane
信義
gelaat
vis
▁basis
▁aurez
▁Speel
▁herceg
▁henvise
ffer
▁chyby
多項
ANGKA
▁քաշ
▁qaado
▁June
▁TFF
▁Fatima
很喜歡
▁Ziyaret
mens
▁chasse
▁traject
▁barru
▁9-
occuper
▁caramel
▁ngritur
work
749
▁fomos
塔
եհ
fiinta
后
stus
碑
威脅
宝贵
菸
▁emo
▁cm
獲得
▁contract
▁Ora
fte
▁մնում
az
escu
▁veseljem
弟子
▁FSX
▁erst
分成
▁house
新聞
▁landsby
▁wszystkiego
rende
▁via
rumpi
ពួកគេ
trust
传统文化
新作
plication
▁konsil
人士
ion
▁===
超过
nakuwa
緻
狱
不好意思
窓
ဂုဏ္
iera
uze
se
▁air
▁pengantin
▁TP
rro
hallinnon
▁Fest
▁Su
▁Bate
▁personalizada
eiros
▁puesta
eras
▁Glavna
kryty
进一步
一点
▁Municipal
盛
打出
▁News
工具
▁:-_
▁mleka
财政部
推出
▁Bibl
女孩子
owuje
▁tavola
mbu
ETF
zul
champ
迄今
剥
遇到
蹤
▁Gwamna
hm
曼联
zzo
调查
▁Sto
▁fol
▁Shemale
▁feiern
old
▁Tutorial
cla
866
▁oficiais
步道
▁profit
好的
▁they
▁900
▁Trabajo
▁kreditor
▁հասց
15
▁Uwch
▁Buch
atmosfera
▁producido
▁hommiku
总书记
表彰
不論是
潰
אַנס
▁Perspektive
▁October
▁GPS
ၿငိမ္းခ်မ္း
997
▁felsefe
▁pedagang
kira
▁cordial
▁Kumar
▁kalder
▁godkjent
▁Soccer
▁mascota
最大
▁boodschap
▁properties
惊喜
▁max
▁qatar
▁Her
haus
▁notranje
stil
European
▁perdida
▁volim
▁Prodej
mot
▁Veure
传
lashuv
知情
▁durumlarda
▁av
上线
▁1869
dic
▁mondhat
jah
▁mpira
▁aver
▁provinco
▁metabolismo
UP
▁vast
这
一切
contract
赋予
TPP
饿
ingizga
棵
浪費
▁butiker
▁bonne
ɔ
▁odchudza
這樣
▁Bi
valo
擁有
▁inwestor
tui
▁tissid
▁dheireadh
得
DU
keeper
作风
▁reprendre
▁reserva
▁fiable
utta
▁verkisto
ୱ
iba
742
▁djelovanje
▁intra
interior
▁Ce
▁millal
indu
▁Qo
▁znany
Nu
▁hefja
AYO
靠
rakennus
▁rood
politik
▁shkel
ကိုလည်း
dor
▁Mohon
kaasu
圈
赋
▁Polizia
ហេ
硫
▁pensez
延續
tuhumiwa
▁fəxr
▁sama
ntu
▁Prinzip
▁gift
Er
▁Chuir
▁CE
▁Jaipur
▁Ministrstvo
▁Գրիգոր
女王
▁removed
▁Ventil
▁gweithredu
cancer
tafiti
▁erg
lucina
▁LDK
▁amin
▁Island
iyan
▁tornando
▁akciju
suk
▁rud
▁detaliile
▁tutub
▁Angelina
nnen
ፋቸው
Իմ
iresaka
bord
▁markkina
oblikovan
喜
画
▁berri
庞
House
厲害
▁error
▁be
賽
突然
2-
▁Wallpaper
經紀
▁exceso
▁class
▁nesci
人妻
▁BBQ
▁posameznih
wethu
▁vinduer
▁TILL
能夠
▁Ba
xwar
tworze
▁calorie
996
▁lume
▁plasing
chte
▁Hij
?”
▁illustrer
For
▁sportivi
审判
▁ciudat
▁berjudul
离
▁Civil
HT
▁Sarkozy
▁Wahrheit
バ
▁matbuot
▁սպորտ
dev
冰
▁mensagens
ကြည့်
▁housing
▁przebywa
tani
dest
▁STEP
/06/2018
▁monarch
▁Lotto
▁Mirov
ေခြ
▁dosarul
▁ortamda
▁kulturore
▁molesta
▁viihty
▁detailed
481
▁prihodnje
家乡
▁sangatlah
▁Das
備
▁regije
▁Phr
大家一起
花园
▁winst
▁mozos
vakantie
▁Undangan
▁heaks
搜索引擎
莲
閲覧
禍
凸
▁eksistere
隐私
▁Erzurum
▁Monsieur
uste
▁Obrigada
▁kuhusiana
▁consum
苦労
▁Pranešim
一个
▁1988
tkazilgan
秘書
▁goedkoop
▁diversi
▁concetto
▁inden
kampagne
▁konektor
▁ar
chi
dica
作物
nutzung
▁muutenkin
理由
ohtu
的观点
▁consecutivo
prot
许多人
▁trattati
▁1945
示
ENIA
全国各地
▁podzemn
▁Resultatet
Սարգսյան
KEY
dok
安排
▁termin
▁kreve
layan
位置
▁ciekawy
▁Belki
cz
▁Good
▁Note
▁Kjell
容易
▁tharla
瞻
bəyli
▁parasito
方案
▁delle
音樂
▁pozisyon
资金
displayst
vahendite
dari
▁Rehabilita
կալ
tak
▁olvidar
ကင္
▁antigua
▁Ketiga
認可
▁offer
▁effettuato
▁Pavlov
视
▁wechseln
Tool
錢
▁ani
ghi
▁solid
▁medicinal
▁Innlegg
我們會
▁spalle
▁madura
teng
▁problematic
▁verschieden
▁tushir
សុខ
體內
NW
胞
▁იწყებ
扩张
派出所
內容
设定
雕塑
nolako
sau
▁Eindhoven
▁Minnesota
▁Olahraga
▁tabbatar
领导
▁robi
▁cin
境
▁gelernt
▁Domenica
veksling
▁tine
▁scripsi
会导致
egy
▁Pintu
▁derketin
▁vzal
▁olisivat
oji
▁DHL
▁hal
▁razlike
這也是
8,7
achuu
pic
spejle
YCH
讲解
▁piept
to
Yahoo
▁coinciden
保護
▁kombinacija
▁verdadero
▁surovin
fejl
lector
受害者
ologie
熱鬧
祸
蓬
釀
彙
▁ud
▁ung
紙
▁Iran
携手
▁glavna
លឿន
▁ammattilais
▁eskainiko
▁hagut
▁Puoi
迪
▁Geld
▁ripoti
讲
生命
mutter
▁vestimenta
Politik
▁brush
▁Plugin
▁fle
▁Tangga
見学
uw
▁Profesi
۰۷
955
▁Slavi
▁glu
▁autorizza
▁przygotowanie
▁Mongolia
▁Greit
▁realizaci
program
撫
蕭
ient
坚持
▁Xornal
▁2009
▁dichiarazione
▁His
dega
▁tragic
▁Komunikasi
▁Federal
▁Marmara
ctor
object
▁seneng
834
删除
年上半年
▁smart
介紹
容器
携带
▁Esther
▁Barcha
▁Stavebn
BEK
▁Jackie
工作
rite
▁reitin
▁neanche
▁protest
▁Maisha
你怎么
▁stu
ရွိတဲ့
KKI
panjakana
▁martyr
球場
回头
ghe
Peng
pai
之内
▁proff
▁modific
▁urbanist
▁Uiteraard
▁Modern
nik
▁itselleni
▁champagne
vna
▁dijelaskan
▁Aufwand
▁Bha
▁በራሱ
▁representa
并不
▁King
▁emas
▁condensa
cia
▁believe
▁contado
▁profesjonalne
▁87
▁Cat
▁indicando
獎
alka
▁bizning
过去了
▁rabatter
▁like
▁ref
體會
▁qira
▁Spol
供应链
▁START
jur
身体健康
薯
宵
胺
▁Evropy
tala
▁iustitia
培训
讓他們
▁boshqarish
▁Wordpress
▁wywiad
▁Like
▁Multimedia
1,7
看上去
▁aamulla
▁napig
eja
亲
598
▁ederra
▁Kos
▁izpolni
754
▁gewoonlik
tere
6,0
▁ziemas
magasinet
▁Shuning
▁pousse
rilib
▁šm
ati
▁abi
sang
覺得
0001
auf
LGBT
▁Aslam
▁End
Thank
▁Bagus
▁փրկ
甩
业内人士
爵
葡京
妊
摊
発揮
▁SH
彦
轻易
▁KONTAKT
▁supra
左
▁agricultor
iti
mmel
▁verso
节约
▁Master
dama
▁Wil
▁5
▁notikumi
▁Panjang
▁ymuno
▁faudrait
▁horrible
eza
▁explained
看看
spon
725
▁Krab
espoir
ATI
▁skaitu
▁5.
▁RS
當局
859
▁kepalanya
▁ڄڻا
▁walipo
▁nemalo
▁Patrimoni
schaft
▁drugoj
▁Beach
抗
▁iesniegt
转让
▁ordez
sma
▁ott
▁today
仲裁
肥胖
laki
ቬ
实际情况
掲示板
メ
▁ddweud
fy
▁terre
▁Tjejer
彩
")
▁svarbiausi
▁labor
并且
尼克
▁keskendu
▁kle
▁finansowych
方向
▁Pompei
一枚
▁Блок
89
因为它
▁situatia
▁Kali
▁Maqal
或是
▁Nosso
▁stad
ելիս
▁hala
▁hujum
▁reflexion
麼
bere
辟
样子
象征
駁
▁Gan
时
▁dor
過去
zone
▁givetvis
▁prodajal
▁January
之日起
▁commodo
Kanak
▁aussehen
▁cyn
百科
▁kandidaat
rung
唯有
▁oversigt
▁Dizze
ron
းယား
▁Botschaft
▁datorren
一家
attacco
▁armado
▁hil
奖
童年
▁markeret
診所
▁klassiker
▁-
on
剩下的
省级
ommage
haridus
eus
▁peroleh
yk
动漫
ሻሻል
բոլ
▁meciuri
彷彿
密封
▁Syn
▁memenangi
▁had
▁Prima
▁drie
结果
ပြောင်းလဲ
ຢຸດ
消息
▁Vestfold
▁lonxe
公司
▁karapatan
▁Agencija
▁prosegui
aires
▁effectivement
▁Xu
lav
▁pieejami
▁esquece
當代
▁klere
▁kimlik
rid
pelajar
▁hungara
▁Vse
▁steget
geschlagen
AFP
▁able
最大的
天
78
▁USD
冤

▁Sekiranya
▁Time
amba
ores
▁Gli
Or
▁Tagalog
▁bertukar
▁pose
运
mam
▁Ausdruck
▁konaklama
▁position
▁本
▁rykte
無法
trice
hidra
▁bar
▁Zahra
▁party
▁potentielle
马尔
主张
▁TV
tama
品種
vurdering
▁anjara
▁bring
▁sand
838
▁Rolf
▁uczestnik
▁HTML
招募
弁
ဘေလာ့
▁12-
ma
▁door
夢
▁Health
▁kinyume
▁(7
သည်ဟု
stop
▁livrare
▁Times
tribute
▁condanna
印
ngo
▁utafiti
▁At
մտ
tsa
▁scholar
HING
▁ato
▁vaqtida
▁Arab
FET
landi
gado
▁actualment
▁Pre
gemaak
▁presies
ԻԿ
ort
▁organizzati
▁demokratisk
▁Жүр
靈魂
စွဲ
▁mac
臥
信用貸款
▁Zgodnie
▁attraversa
▁Mol
▁encuesta
ting
emballage
▁Dei
▁acomoda
bina
老虎
▁honetako
tsi
▁kapcsolatot
ZE
▁rekreaci
▁kulipa
仅有
▁poseg
▁laten
▁seeking
▁mechanism
▁storica
▁bibliografi
lais
oda
▁bunker
多少钱
▁balkong
▁forskere
German
公共
▁renkonti
DAC
▁intoleran
携帯電話
teamet
▁Bli
▁League
▁Sizler
KLE
Standard
立體
第一天
有钱
4.000
consegui
vaihtoehdo
娇
▁immediata
喧
时时彩
▁his
焦虑
645
▁sob
目标
▁tessuto
▁School
环球
gebunden
領先
▁Loft
ရေးသား
▁ikhlas
styrke
▁ir
ሳሽ
▁Smart
精度
鞋子
當下
▁tusken
換
▁usafiri
▁Slovakia
▁Brent
ທຸ
april
ntis
LITE
▁mamlakatimiz
▁Hum
ambula
khe
▁MSN
▁Nas
文書
mengde
▁sec
助力
iteetti
扮
岭
圆满
Ղարաբաղ
寨
永續
▁electr
電子書籍
一樣
▁geld
▁kaikissa
▁sta
fuso
150
條款
・
tog
▁Eddie
cakap
库存
▁escultura
▁torna
▁dimostrato
▁bandhig
▁hausse
▁hun
▁83
▁Momba
▁watched
▁stare
589
well
sgoil
▁Negli
▁edizioa
pathy
▁tri
▁linear
▁baimen
▁elu
霉
mbar
▁Memilih
▁Raja
met
Pre
xshash
県
▁Սույն
Ex
▁Sertifika
ð
▁Oy
▁sensazione
CS
lga
▁hujus
▁fuerunt
▁udenfor
kraut
wala
雙人
▁Universitetində
bod
▁Avatar
中国
▁Nar
▁kringum
▁Nav
որս
dle
▁competitie
jengwa
).
▁бүү
pavil
标准化
▁Halil
▁taldeko
arra
▁סאַ
蔽
寡
苍
艷
87
퀴
late
▁Madagasikara
▁nad
史
꾼
컷
▁Mus
▁Pengalaman
▁Sai
差别
▁belirtildi
▁Handling
▁halv
▁occid
▁boa
Nagy
▁medvirke
span
▁accesul
▁Multi
Server
▁Orion
▁small
hte
▁1970
ale
spa
TRY
▁kommentere
▁tulko
▁budowlane
複数
OHJE
ash
GGI
Արեւ
▁Maraton
▁tikslu
阵容
▁stosuje
踪
收拾
狠狠
详
▁31
厕所
匿
教训
授予
共计
民营企业
奨
丫
√
▁muziejus
▁Stan
▁attiecas
▁eventuele
责任
▁Dynamics
▁lang
▁pool
ward
ufgrund
▁armazena
▁Pon
▁reklaami
▁deb
ganitong
▁pam
开通
phi
▁encontraba
egi
▁DKT
▁varasema
ston
▁kokain
eld
▁podpisan
黄
▁inter
▁valoriza
不少
原廠
▁wektu
vul
罗斯
英超
▁Zakir
豔
铃
互联网
▁suunniteltu
▁RA
em
一位
嘴巴
▁combien
alumnat
▁ole
HE
▁Bag
nez
▁Tru
▁ekspertiz
可爱的
▁Timp
父母
սուն
養成
▁Gdyby
▁blitt
增
领
▁bhF
▁ros
ITA
罪
▁Ple
叮
儒
rc
肿瘤
蜂蜜
聰明
桐
徵信社
弥
▁teemal
賺錢
賃貸
✿
▁Wezareta
▁having
更多的
身体
rsatkich
▁Hall
una
▁RO
梅西
TU
插入
▁bewegt
▁Pel
的身影
▁Het
cept
▁Diamant
▁preparando
▁cun
utstilling
▁Qurbanov
跳
▁immigra
ДМ
▁Kasse
▁tuntema
▁mesa
椰
抵押
辯
僧
atus
捕捉
Job
萃
喜歡
▁kambario
▁Har
▁virtu
▁communiquer
▁bezahlt
ឃុំ
obra
的事情
万元
▁pounds
▁kempen
ROC
▁por
ခဲ့ကြ
▁Kubi
火車
▁vytvoril
梅
▁Putin
本質
▁կարգի
有许多
▁megtartott
tos
▁wonke
▁Meng
▁Velike
արժան
tting
▁EM
做好
ինչ
▁Charge
cliff
▁forberede
▁terrorizm
▁gymnasie
unggal
辜
拦
厨
浑
店铺
塾
历史
▁Bru
▁raz
▁verzorgd
▁utili
▁HotNews
▁inde
▁bisedime
更
是在
記者會
▁Župan
▁prea
换
tez
▁Ot
runtha
▁komfortable
▁Dicas
▁adversus
nim
关联
▁compito
▁evoluciona
▁Hanif
份
▁Euskaraz
▁tarzda
的工作
▁esterni
▁Qua
婆婆
▁zdrowy
▁Aj
▁see
断
▁restant
▁recurs
----------
aynay
hau
謹
瘋
ଋ
▁Kuala
鵝
ervaring
hothutaw
▁Pubblica
的方式
▁Aktiviteter
▁rein
▁Put
▁poriadne
▁Jul
▁bovendien
▁maintsy
▁mjedis
▁situasjonen
▁zachowania
Telugu
MENTE
▁11-
▁beri
▁MORE
▁Tik
▁Kabhi
▁Magac
▁felicitat
Mobil
▁բառեր
▁խոսքը
从此
▁agentligi
▁glam
LIST
var
▁KHAN
▁Pia
两者
▁spenning
审理
幼稚園
消費者金融
叔叔
推动
嘻
nguqulelo
▁music
措施
▁Hei
▁BMW
jama
▁Wtedy
▁anahtar
▁gioia
▁HABER
▁sellaisia
gress
▁Taraf
修行
▁Csaba
▁Masa
自行車
▁cad
▁kha
▁soci
▁Theo
▁Manuel
iques
从
▁pracowni
talan
▁Qaad
▁Dhabi
合法权益
草莓
夯
屑
睹
▁Corona
个百分点
饮料
▁Setiausaha
尽
ျဖင့္
▁Spencer
▁epistola
▁ceramah
ister
▁golf
As
▁cuadro
着物
▁Sunnah
湖
▁Template
▁tyrimo
分辨
ေသဆံုး
daharan
▁chose
lub
▁lipsit
▁Thi
aug
ــــــ
国家级
▁tuskin
▁demande
据说
IÐ
aurait
▁Surah
651
▁Registr
semua
這類
▁continu
▁separar
▁Arewa
GAY
瑶
▁Banner
助攻
▁алғаш
gar
藏
▁5000
▁High
zne
ALA
▁aanbieden
▁Midoobay
自身
▁revanche
▁es
三
▁soldados
会社
成份
gan
▁couverture
▁stanowiska
▁contatti
▁least
pred
ionann
▁rezident
IRAN
Ki
面膜
:1
▁Architektur
ws
▁ajoute
utus
▁Administrasiya
tati
law
let
婴
xonalar
▁event
创始人
晕
坠
瘤
拐
硬碟
礙
▁Cumhaichean
ables
mpe
专家
▁Publisert
▁imponerende
▁Mobile
▁Eiffel
▁rakentaa
亞
▁fiziksel
rtasidagi
▁poliester
兵
betale
視点
▁Basketbol
subiri
rij
povedal
▁reduziert
为您提供
LS
▁Praktisk
AMOS
▁limbaj
len
aeque
▁skrik
tiga
spoed
klip
key
▁pretendent
▁gli
cut
衝擊
辉煌
粮食
▁convivial
顶级
607
汀
億円
mahdollisuudet
▁Gemeinsam
last
▁aforizml
▁fat
▁rafforza
▁ragazze
▁pokazao
▁sati
精準
便秘
▁Marketing
▁dizendo
▁lelkes
▁daxilində
▁Faisal
▁kumaliza
▁seis
innen
▁wanaweza
列出
▁Anlass
▁les
▁clients
▁labirint
▁ayahnya
▁shkelje
▁Asiakas
tivi
適
60,000
的時候
▁գույքի
llis
餐
hotel
▁Teh
残疾人
评选
竞争对手
禽
ヴィ
睡覺
zana
偶尔
လုံခြုံ
edd
▁Lee
▁Ken
굳
inas
刘
▁comunism
▁AD
sya
▁Juli
▁Sadiq
▁Third
藝人
▁cartoon
▁previously
▁uni
▁Ehren
895
經由
▁Kot
ေခ်
▁pays
畫
Chef
队友
踏实
架构
珍貴
掲
▁csaj
▁Ubytovanie
條
▁atlaides
化
谁
▁novedades
▁beskikber
▁sekiller
▁Absatz
▁million
▁corretto
ipun
▁liga
競爭力
▁Budak
▁available
vuori
▁2018/19
tate
ONTO
ասեր
▁Bill
VALI
▁Hin
▁Ant
認為
▁potez
ubuntu
▁ki
mer
▁smelte
Өз
志工
indi
加息
▁Laboral
▁tani
鷹
为客户提供
东莞
碰撞
恭
栄
mula
▁Mc
▁pun
▁conform
▁ultra
dde
鑽石
▁win
LY
lainen
asia
▁سړی
▁visit
▁ddigon
▁materyal
小時
robil
▁shop
lement
▁Dusche
GO
▁cy
▁Nihil
HUB
SZ
爱国
writing
▁Eintrag
平稳
sciamo
▁iepen
bei
提问
kupljen
▁II
လောင်း
走進
immigration
生活習慣
Անդր
▁Set
▁sjellje
▁mogna
oka
▁Dir
▁drill
创办
棕
休憩
东南亚
utilitza
轟
▁Fort
▁Weg
▁mengajukan
建筑
▁edycji
哪
▁Tutkimukse
uv
▁Tirsdag
▁Hen
以来
▁pomaly
▁Quelques
玉米
睡
▁voltooi
၀ါး
▁digwyddiadau
▁indstillinger
▁prirodno
▁Loop
外
院士
▁Mask
▁resign
▁UNkulunkulu
木材
学费
▁Ghosh
lust
▁attacca
▁puta
▁thousand
ETTE
▁sanciona
▁HIS
izaciji
江苏省
模仿
praxis
:11
棋牌
▁Illinois
arta
▁Shariif
AU
polttoaine
▁la
▁4
▁NI
▁euch
UA
▁smartphone
▁obrovsk
赢得了
kiendelea
▁bolezen
對
▁sunulan
cke
light
▁kadrov
▁sizlerle
兰
▁children
▁osiguranje
行
▁eros
브
հաս
▁programvare
规定
行動
▁Ligji
NGGA
ປູກ
▁times
tkaziladi
kongres
▁91
ruhusu
▁zeleno
▁amgylch
▁Territorial
承擔
跪
霆
温柔
▁Pendaftaran
iner
▁Home
▁Bedankt
▁merusak
▁Institut
aghahanap
金
ped
▁Xeberler
▁Arbeit
客戶
▁Ä
通過
▁Welkom
合适
ၸ
里
▁MODEL
NAY
6-0
加熱
▁տրամ
ngkong
6.3
rug
蓉
▁liggja
Wahai
▁Rahmat
▁BER
▁Etiquetas
一定要
羅
準備
sala
BE
実
人員
▁Engeland
▁uralkod
▁XIX
一塊
▁tedbir
▁infra
ul
uf
ily
toiminnasta
▁kusimamia
ASI
▁comhairle
elig
避免
▁xxx
Myanmar
KS
▁izbris
Travel
PHA
▁aunty
▁variant
atie
務
osassa
5.9
▁istedikleri
電壓
巩固
吼
博览会
嬌
▁Demokratie
应用
冒险
平方公里
uel
▁Rei
▁Yhteystiedot
rekin
phe
▁Ochrony
▁svjetskog
▁incepand
pena
净化
射
nur
▁Www
▁tunnettu
▁Nabi
▁Go
sllav
▁Loodus
▁diputat
泰
keskkonna
/6
體重
▁kuulutus
▁garota
ENT
wirtschaftlichen
Blogg
Estudis
力
广州市
▁Bilder
dang
grafic
聚
麟
趕緊
▁Gorffennaf
▁enough
▁Juan
torio
玉
勢
▁lovgivning
任意門
▁minimal
yt
▁mengejar
▁reste
ento
無視
▁Navigation
▁propozim
▁Retail
▁amikoj
感到
969
▁kan
▁2008
▁englische
ခြံ
▁Pris
▁centuri
▁evaluar
报警
ohen
▁Baba
▁vs
▁Am
▁Socialdemokrat
設備
EU
査
伊斯兰
蘆
估計
▁LG
▁Kulttuuri
秀
减肥
▁gourmet
▁julkaise
▁systematisk
▁uudestaan
ungkol
▁Orang
▁beidzot
▁spill
▁gagasan
▁1985
▁idxal
細
▁malayang
vana
avslutning
▁Estatuto
ORNA
▁mena
▁verskaf
▁sagtens
▁emp
▁soli
未來
▁Verifica
▁Singel
生
rac
fighter
出発
aspect
TEAM
▁Will
梗
hd
悄悄
爵士
船舶
Check
媛
中古車
麽
彬
薛
首位
բաղ
▁Os
▁Selv
cak
爆
PM
▁asteburu
1-
▁əslində
ဝန္ႀကီး
▁during
▁affordable
▁funkcje
▁abonament
▁pilot
卻又
証明書
curi
အဆင့်
▁zone
毒
试试
就可以
▁puff
事態
sionist
叠
纱
尹
绵
甸
瞪
▁Nachteil
▁‘
困扰
一天
▁praw
▁Wazifa
▁bildirilib
just
这意味着
▁Univerzitet
On
skatoties
▁ENTRE
承
▁regular
▁gereeld
▁dramatik
▁constituye
▁Fawr
radigan
出現
▁expira
▁Adalet
lius
為主題
▁GB
▁budget
▁პროცესში
▁honor
新闻发布会
釈
▁Dastuurka
LER
say
ukan
▁Pertanian
▁Llengua
真正
顯得
▁sastoji
reng
up
alu
▁martw
▁carne
ឡើងវិញ
▁spendera
Ca
ရွိေသာ
▁Guido
移
▁smernic
vice
À
抽
dun
▁Aprel
想
▁pani
oga
▁Jogos
▁Dol
决议
领袖
▁kandydat
恤
絨
檢察
减轻
伴随着
▁Hus
賣
▁170
第一次
빗
inflammation
▁maamuzi
▁INVEST
▁tali
▁cupcake
▁2016,
▁Usalama
▁Ca
pio
文章
▁Anak
▁tenetur
talo
oireacht
▁Watch
▁July
乳
▁breve
地區
▁net
▁climatique
制服
986
第三
▁Tarik
團
▁Cadw
▁Jen
▁flyve
▁concert
▁nacionalist
BS
壳
鋼琴
won
芸術
燙
譲
ـ
哥
andraikitra
傷
nama
mbe
IE
▁3-4
lne
▁edycja
ulla
▁Vorjahr
▁kalsoon
bild
▁documentazione
▁clo
▁viimeksi
▁get
ဟော
spannen
各种
▁rimedi
▁audi
▁Thermo
▁scopuri
ٻي
1952
▁mol
alqaro
dl
yun
旅遊
▁napisz
KOKO
勧
莓
交渉
騒
去年同期
基督徒
rama
▁Magyar
뻐
Ufficio
▁Einladung
▁bitarteko
▁kuondoka
▁Kosmetik
等等
▁presentatie
tech
▁trajneri
▁Ski
▁consulta
ione
▁possimus
走出去
▁mendatangkan
TC
▁invitados
▁Jelenleg
ch
▁mehmon
▁tarinoi
▁Pronto
▁dsb
RT
▁cabell
手機
▁akhri
lata
▁presiune
Untuk
schlaf
▁դեմք
▁virtual
ZIONI
otta
▁vaalea
▁gayret
Royce
▁patrol
節約
jt
▁Broker
魄
လန်
唉
Information
床
positio
MULA
繁忙
nyelenggara
timi
▁Fylkes
▁data
▁reis
뚜
▁Gewerbe
▁uhakika
▁hay
▁fundamental
▁ariannol
騎士
乐趣
▁muutoksia
瀏覽器
空間
▁wettelijk
デ
▁linguaggio
▁sunnudag
▁note
quam
anse
ab
▁trabalhando
900
▁bygnings
▁heitir
▁establecemento
makelaar
front
照片
▁stosowany
stokk
▁preference
因素
▁ham
sig
🌹
hti
再
CK
rett
▁papier
▁Waffen
gens
▁carcere
誠信
▁far
▁azadiya
အောင်မြင်
▁lys
BUNGE
▁Allergi
▁ruux
▁doing
sper
▁card
停下
▁cadouri
▁install
tie
▁Legion
▁TL
០២
合約
▁integra
8,1
۹۳
ual
鈣
各种各样的
沪
煩惱
ARRE
迭
干扰
侍
▁ro
索
▁itakayo
▁pou
▁nincsenek
ica
▁neesmu
▁style
▁paisaje
▁Has
▁Durango
▁merhaba
veri
▁Cipta
電子
▁Ribera
▁hermosa
STVO
▁nous
▁dot
dlo
freunde
anwalt
▁inovador
药
mail
▁իջ
▁Kes
▁regiuni
申请
▁trenca
gala
operator
▁relax
养殖
什麽
走廊
ize
▁actually
▁ultima
▁adi
fanyiwa
▁promet
▁funnits
▁making
▁Styrelsen
杀
▁80%
团队
▁valamelyik
Afrika
▁gaadhay
▁cotiza
▁interrupt
毫無
減
ling
▁Hos
24.
並未
実家
▁spun
▁pag
▁Daha
支撐
脹
信赖
郷
▁working
▁Negara
뚱
븐
▁giudice
ga
▁Is
gai
aar
▁Pres
▁detyruar
▁sky
play
▁Defense
▁inmediatamente
基金
▁gee
▁Kniha
▁kanpaina
展示
▁gimt
▁iliyopo
Ω
🙂
没错
Euroopa
▁Vytvor
ĞI
▁Care
网络安全
穫
萎
颱風
確率
记者采访
睿
共和国
凹
Ґ
pool
▁Standard
▁anugerah
▁Sat
繁體中文
▁evolu
▁Ber
▁ass
▁oppkobling
▁muuqda
▁intens
▁kurumsal
eo
):
iere
▁psi
//
▁Door
土地
理財
06.
▁mandat
▁Get
沛
▁obvezno
轩
按鈕
▁Ci
成長
▁geo
▁rot
enta
▁mot
▁Tiesiog
寮
▁TODOS
亿
atra
▁opieki
Th
▁10
▁bou
▁minst
suzluk
▁temp
.05.
▁(15
当选
个性化
外资
▁prime
vin
siden
▁instru
stor
twory
▁inn
အန္
嬰
监狱
蕩
取决于
传媒
▁neighbor
圏
igo
▁usu
玩家
wydd
120
養
▁paljasta
▁ljudskih
▁spodbud
lsa
▁geschaffen
▁գոլ
▁Liber
▁HP
▁ekologisk
bide
conecta
▁Prezes
▁oddech
▁sakrament
▁cieš
▁miracle
▁edullise
vahelise
1705
▁Norbert
Hi
▁ካሳ
貼
▁kasaba
▁DEL
缅甸
圭
祕
掌控
封箱膠帶
肿
登錄
终止
陷阱
▁Advertising
▁BREAKING
▁Till
▁Evenimentul
▁behoorlijk
▁terror
tique
▁vot
▁arbetsgivare
▁duilleag
▁affitto
OP
▁somewhat
amu
▁primjerice
首爾
聖誕節
▁Samo
▁tingkah
ビ
▁forbruger
▁Site
整个
工作坊
▁taotluse
▁Lo
▁close
szerkezet
▁Harry
▁prevzel
▁aspirin
▁2008.
eit
公安机关
ագրում
▁pogojev
燦
涙
瓣
▁Bulshada
▁Transport
▁Meitheamh
▁Schwangerschaft
满
▁Avengers
▁Ontvang
▁Նշենք
▁moda
▁fonksiyon
ທຸກໆ
▁Stanislav
▁acessar
:12
▁tab
▁photos
afegeix
▁pierderea
vesti
▁2009.
▁appar
fic
fadhili
ljivanje
▁disco
▁Normandi
▁getting
arkisto
▁Nam
▁Konrad
蒼
坚实
▁Ambros
landschaft
只剩下
ឱ
ARI
▁screenshot
▁Jelgavas
▁povezavo
▁shkaktuar
▁constituent
▁morsomme
▁stal
07.2016
▁saaneet
သဲ
▁opazil
substitu
书籍
vexti
▁Alex
▁dnevne
▁1984
▁peli
▁accommodatie
▁dituela
bona
▁concessi
又
iser
▁monta
聯合國
ကင်း
tradition
泡沫
▁en
▁il
▁500
知识
onte
eno
▁Rak
▁Atualmente
▁specyfik
▁Lavoro
▁90%
▁dura
共建
▁nejsem
▁101
▁Kra
▁jedinica
ili
:01
必須
▁Duits
治疗
心態
摆脱
▁relatii
kommunikation
▁legendaris
会产生
▁rozsah
▁pili
▁အခုလို
▁Haraka
绳
滥
绝大多数
gend
punct
antwortung
▁Destaca
lima
活潑
副书记
emedim
摂
駛
夫妇
焚
箇所
ues
sili
miento
▁birgalikda
▁GENERAL
▁publica
▁fhoireann
▁dopravu
vat
講
飛
▁Heizung
▁refresh
▁berbahasa
▁(17
mic
mmen
aman
▁Press
namespace
▁airbag
▁voordelig
秒
▁lagring
越来越
▁Finn
res
eya
▁psychische
现在已经
dasarkan
Lu
sahabat
市场份额
优良
黛
艱
鉴定
菁
轴
向
来自
緯
mier
佳
ations
nata
bola
▁또
一名
▁liiketoiminta
▁Insight
▁resta
▁relasjoner
体系
▁Rat
▁Bran
▁precisione
看
▁group
867
▁Rigtig
▁accommoda
vad
UNDE
Prav
lenerek
PUBL
សុខភាព
▁cent
ကျန်
興建
蒋
kereszt
PL
lock
▁taraqqiyot
▁istirahat
▁Click
▁gefnogi
▁Tau
▁transversal
▁eleitoral
▁Xiao
▁mut
亿元
mission
▁Stuart
▁Choose
役
▁Kamran
▁costumbre
▁restauration
▁organisator
HI
stava
potrebe
▁oprosti
ense
▁5)
葉
ajo
那个
▁rozhodl
研究员
TEN
menneske
elle
▁objavlja
Berlin
▁madaniy
▁Amin
纷
金正恩
抗議
▁visual
▁Dipartimento
▁ske
申請
▁hy
shambulizi
ales
▁dauerhaft
▁cool
boerderij
▁Lufthavn
▁Israhel
▁csavar
▁Plusieur
▁regizor
ksa
▁dibadda
文字
在
olu
▁(12
▁krauj
▁Error
consider
信徒
▁though
▁Von
语音
▁krekt
自
▁lika
▁105
IYE
▁սեւ
▁Tem
廁
妥善
電子郵件
foretak
ؔ
▁Holocaust
:25
အဆင့္
inger
▁Itali
▁bloc
▁cada
see
翻
依存
综合
▁dise
調理
▁Jon
▁conseguimos
▁kung
▁richesse
▁RECE
例如
▁navode
▁tik
▁JO
ացրեց
gawa
frukt
织
耽
允
约束
謙
爱好者
浏览器
kula
▁novel
▁titolare
ansa
▁serve
導
▁gesammelt
▁krijimin
▁ehtiyoj
市
▁ujutro
隔
▁Novinky
loidhne
▁5%
▁(11)
傳奇
aanbieder
pay
▁muualla
▁ocijeni
ely
imento
▁sartzeko
EP
▁tur
▁inocente
▁nouveau
剩下
▁Clicca
些什么
グ
ing
ngependa
噸
សែន
缸
卿
▁protein
瀑布
▁MerrJep
▁Ali
bij
▁oft
ကြၽန္
▁periodo
▁assoluto
yabhaskar
3)
▁nyitva
gues
▁gedink
dara
▁schriftelijk
▁quelle
spre
▁tyrimas
▁satu
▁pojma
▁large
▁baditu
▁continue
納
ሸዋ
硬
rien
盯
▁helmikuu
怠
消
覆蓋
賊
霄
拭
示威
噪音
颤
營銷
捐赠
癖
dhu
▁Blowjob
▁PT
iger
rob
▁czerwony
▁joy
baba
▁Տպել
▁similar
▁Mein
▁dosbarth
發生
▁tanggapan
比如
▁meeskond
▁acceptable
▁Amsterdam
lip
chat
▁jartzea
Learning
▁oiread
輪
雄厚
粥
模块
所得税
琉
▁Eh
▁nega
良
gger
▁PRADESH
▁vidunderlig
▁Kota
tek
模样
▁Gam
▁Kong
▁21,
教授
▁populiariausi
箱
媽咪
▁jadual
tus
▁Rai
▁inserito
当时
uus
藥
暂停
究竟是
▁Terra
▁gilda
▁Ring
preven
minstens
▁joc
▁dogmat
▁Finnland
lqin
▁pere
▁ychwaneg
▁char
▁beliebt
뢰
農村
▁Mul
oqrafiya
艺术
▁Hispanio
专
联系
▁came
akan
▁transpordi
op
ovovavy
▁Eigenschaften
麻
▁Wohnzimmer
▁view
▁presedintele
▁Tip
istes
▁pi
glas
bung
UKSEN
▁Visa
▁schiena
▁redatelj
opera
▁reducido
kunta
▁galaksi
ხსენი
重新
麦克
▁registr
ire
▁crea
▁segurtasun
廈
辅
贩
滲
至关重要
众所周知
贿
高齢者
珍贵
俱樂部
涵蓋
驳
击败
蠟
IX
▁Silkeborg
▁Lab
然而
法
uff
思想
verzekeraar
▁Festiwal
tasuna
縣
私募
▁mel
▁memoria
▁Boleslav
▁Leidenschaft
▁musiikin
▁Kla
▁(1988)
▁Playboy
gji
▁gent
▁navodno
▁Eventual
▁մանր
▁elmarad
▁stravova
▁presidencia
不仅
▁belle
▁Durchschnitt
▁sefydliad
▁Olen
馳
愤怒
淹
谎
遍布
游泳池
rik
特别
▁CONCELLO
ical
wys
aime
▁effect
▁Nogomet
beri
▁artiklen
談
厚
▁toekomstige
▁razširi
abo
/11
▁չկար
dou
▁reliable
▁musunuz
家族
▁imperfect
▁CRIS
▁fotbalist
▁Oikea
▁gleði
Ya
▁17,
Sveika
suz
春季
▁Շահ
▁pie
▁Datenbank
▁hast
庞大的
雯
新一轮
桥梁
▁hap
into
▁CC
▁Arhitekt
▁filipino
▁dy
▁dirasakan
平均
▁Executiv
it
▁On
每年
▁Agencia
vic
新闻
▁bevege
▁AV
▁Fre
continent
Special
unan
鉴
恰恰
領袖
臀
大統領
赠
婚
奶粉
enti
▁Bala
hot
▁raja
▁Kandungan
▁EEUU
▁America
來
▁vod
▁Himalaya
卖
▁declara
meye
▁Monroe
balulekile
兒
▁international
▁reagieren
很
む
耳
就会
▁abusa
▁mallonga
▁gain
▁Meer
▁nutri
▁proba
▁Sti
▁snurr
▁Komitə
▁Char
谦
鞭
▁skip
磷
眼泪
▁embargo
▁Kaspersky
▁anxiety
▁tempo
显示
▁Ala
▁oto
觀
▁Last
fond
▁Texnologiyalar
▁emandako
hof
▁odseku
▁semplifica
▁Audi
▁sobald
▁oversettelse
▁colloqui
▁pirmasis
處理器
腹部
缺點
forgalmi
bran
▁Forrige
▁Sentrum
肯定
課程
▁Brit
vari
orientierte
▁zamiar
▁Sep
▁Pul
beitrag
hesab
ZO
2,0
▁obnovit
▁tome
NYCH
官兵
髒
路透社
kapcsolat
灾难
蒐集
尻
include
inden
浄
▁troch
▁Tegelikult
arka
▁understood
ixo
စောင့်
▁Gall
▁fler
▁ikuskizun
Ju
tumblr
▁complet
▁skin
▁stosowanie
▁kolayc
▁creativitat
吸
▁dostupni
▁if
bry
than
▁koltuk
▁1986
▁Fit
翌日
tot
pir
▁Tako
equipament
rat
▁henvende
咱
煞
发改委
宣佈
▁CULTURA
有的
▁pabaigos
+1
ibi
ZI
▁Medikamente
itud
▁dich
更是
▁Jo
▁Jack
南昌
气息
▁badiiy
洋
▁Axencia
鄉
▁patirties
▁izandako
▁pagtaas
▁already
▁musiqa
▁namorado
familj
▁bihotz
agricoltura
▁months
pers
▁perc
tolerance
mis
優惠
▁Ou
不可或缺的
▁Ball
賠
薪酬
李克强
楠
篩
▁secolul
秤
အဘို့
楓
ra
▁wertvolle
▁gyalog
▁voulait
▁avocado
▁Spannung
▁soffan
ate
ars
nev
▁henvisning
事
kvapi
EST
▁askatasun
▁beste
▁Kunst
奕
呎
今日
lund
bwechslungsreich
▁adjudica
ain
止
登
▁literally
ille
Car
▁etiraf
nang
▁bertajuk
zas
▁Koniec
cola
▁wonderlike
▁grijeh
变动
▁FM
洛
▁Tuy
▁Espanja
▁ging
အက်ိဳး
van
▁chef
ongelma
▁SD
ranno
這是
kanava
OLOGIA
▁extrem
▁postihnut
▁planta
诈
珀
Sign
懲
暢銷
▁RAKYAT
ser
nig
观
▁RESULT
▁Kontaktformular
keit
▁Savunma
▁rau
▁impressive
▁czynienia
▁Fr
▁bob
▁papuoš
cing
▁STUDIO
AH
Gruppe
医
▁una
tata
異
PE
Virumaa
▁Develop
国籍
領取
▁Apotek
irt
▁Unter
厘
艰苦
▁webcam
穿梭
师范大学
羡慕
▁flo
▁Guðmundur
温
▁kelulusan
偏
▁bil
▁rub
▁GRATUIT
▁punt
dera
▁encaixa
▁videos
▁Taliyaha
▁oricine
证
idu
臉部
▁ties
լյա
wani
ninger
zka
▁Bat
isolation
▁Gallwc
▁volume
▁Jalan
▁ghlac
以后
▁rec
富含
▁Scrap
▁askerler
櫻花
耶稣
璧
神奈川県
▁Storbritannia
DC
▁tan
場所
▁lever
資
▁mamma
▁Citroen
ram
▁roll
希臘
ulan
▁hours
▁nettbrett
料理
▁engagemang
▁iguais
intercanvi
▁Pradesh
▁Կոմ
▁imp
od
运气
▁չես
据
▁holnap
nec
▁vivencia
▁timer
▁vremenski
▁blogger
▁HO
yek
smijeh
mid
▁in
▁so
羨
冰淇淋
檯
随着
▁someone
▁Dhinaca
▁BU
涅
pho
▁perhitungan
▁beschermen
▁Pad
咖啡
ligen
應該
▁=
▁neat
CIONES
vier
▁toteaa
▁negli
▁Interface
▁wykorzystania
▁Ankara
▁doesn
kova
▁mbunge
▁kasutamist
۹۷
善
深入
maal
lent
▁arogan
▁pornografisk
灿
虐待
▁observa
钥匙
细致
yong
▁Rodrigues
▁Wisconsin
▁Ge
▁NY
냅
▁fotoaparat
▁Arquivo
▁1987
▁Apotheke
▁Belastung
▁Allah
▁overgrep
tation
工业
▁visas
▁alma
▁opvallend
▁ejusdem
nd
▁Ras
▁doctor
准备
Quiere
▁curs
▁Aquell
▁idoralar
တွေ့ရှိ
▁(0
▁Azaroa
莫
详细
丛
嗅
牙齿
醜
皺
燥
心目中
nki
俏
藻
资深
候選人
entre
▁declarou
▁franquista
结
▁artist
護
▁qəlb
▁gc
lene
▁qimmat
提供
rgan
死刑
▁buy
▁frutti
▁tgk
fikisha
▁Stereo
▁africano
ungan
▁talk
做
▁Landwirtschaft
aaseen
TOIMI
konstruo
uren
▁ierosin
▁1/2
icos
粵
旱
个工作日内
棲
薪資
ツ
歷程
抓
▁kami
豬肉
sub
▁Sunshine
▁ditempatkan
偏偏
▁Wizard
wm
功課
郵便
▁poliklinik
▁abitabile
▁mooglik
roc
tene
bbi
▁Sigmund
▁rod
▁ڇڪ
▁gonosz
inen
menettely
▁teng
gesprek
ကိုယ္တိုင္
▁vorherige
复合
▁Mare
▁entiende
▁18-
蜘蛛
▁officio
澡
苯
耻
帷
致辞
図書館
詐騙
Pirenena
▁adxudica
▁impormasyon
▁jou
▁(+
剧
tali
封
▁Tab
▁07:30
rir
▁Preis
▁hinsichtlich
▁composant
us
▁shikoni
rf
kko
▁filologi
betjent
▁inscrie
▁LO
▁ed
▁Eg
▁typical
虚假
蘿蔔
ヴ
▁stri
dii
▁Fal
休
tors
▁bila
▁contribu
poli
▁nieuwsbrief
kulu
inka
▁luksuz
ingi
正常
itra
也可以
很高兴
kommunikatsiooni
Khmer
▁castelo
▁fabulous
William
ullanabilirsiniz
残
▁objetiva
▁Eccles
mat
ընդգծ
▁viimeiste
leichzeitig
党和国家
蕴
捡
门槛
餵
oase
▁Comunque
iak
▁aeronave
unta
使用
▁studie
▁grandi
▁map
▁ibidem
事業
▁koszyk
inn
告
▁gene
Xalq
▁malfacila
脱离
▁credit
▁des
教学
鉴于
▁migracij
▁Vreme
▁cause
腥
魔鬼
verhale
哄
韋
悍
収録
ˇ
青年
▁mane
BB
▁harmoni
▁gam
벅
Isiraely
▁lisenziya
▁links
▁vou
▁combina
OL
범
▁deelnemen
▁historie
加强
▁uns
satt
aixeca
lade
LU
醫藥
people
opettaja
Problem
▁conclu
▁einer
feld
▁bilgilendirme
fica
蛙
叢
惩
渊
厘米
vasta
葵
梳
倩
机动车
▁Caribbean
▁Pierwsza
建议
:16
压
գաղթ
▁perumahan
▁Thanks
/9
▁Sony
dak
申報
▁kuchynsk
▁srdci
sob
▁arvatud
▁Also
79
康
▁Plat
飲品
遺憾
徴
窟
侵略
忠诚
犀
細緻
encyklopedi
uar
▁White
▁costituito
▁het
▁apa
▁nuorodos
▁Cooperativa
opp
▁molteplici
assunzione
▁3:
▁Հաշվ
Ad
▁1.5
精靈
ฮี
fe
▁Bara
▁crystal
员工
▁plyt
▁Bed
News
▁Indi
▁zlorab
▁aber
="
mogelijkheden
议题
▁instalacij
ocupa
inda
▁vo
▁rieši
ေႀကာင္
2006
▁amddiffyn
▁HU
▁HR
nos
▁detail
untur
▁Bla
谈
ကြ်န္
愈來愈
▁Grad
▁Ururka
安卓
▁Extension
▁Gjilan
▁Andre
▁mochila
▁Muslim
▁tveir
▁mono
ရွက်
▁eestlaste
uk
hum
လြဲ
oittamaan
▁plac
▁pakkumise
page
▁80
▁brit
怪
NS
利兹联
模様
貓咪
繽紛
游览
台幣
诱惑
篮板
痒
简历
ကျနော်တို့
▁February
▁combustibil
Wa
툰
izdevums
ið
eron
▁Wasaarada
舞
▁eligible
▁mindennapi
▁NG
hne
中央政治局
▁Baru
Sullivan
▁Ferreiro
戦
▁Tat
▁Autobahn
▁previsione
▁bron
▁unusual
▁enabled
就是
▁Kah
▁ostegun
多少
់
▁səfirliyi
富裕
电子邮件
最大限度
邵
智慧型手機
遏制
高质量发展
捍
洗濯
千万不要
混凝土
▁Ugyanakkor
▁dam
▁numer
鶴
▁Word
▁Presseforbund
▁misdaad
絕佳
▁Meri
▁Kitabxana
解決
tma
様
▁galaxy
▁poszukuje
line
▁Legislativo
▁Ahmad
▁Esperamos
ight
捷克
▁Rakvere
▁black
istituto
下午茶
STA
大量
tauchen
▁Sak
▁hududida
▁car
矽
倆
拼搏
逃避
化妆品
湊
愤
viz
比利时
祷
陥
典礼
土曜日
▁Well
▁gul
CR
confidencial
service
一番
▁soo
▁Voi
▁dienests
順
anterahina
▁norm
▁Francisco
▁quan
▁krompir
缺
生產
重点
▁Botanic
▁szavai
削減
根本
濫
崇拜
樱
乔治
维生素
優異
妞
砲
:13
▁Erwartungen
▁precis
▁Lommelegen
贸易
▁dibunuh
ac
iese
▁Guillermo
▁rou
agi
▁Arduino
ret
▁action
▁recomendo
▁Grande
:14
▁alumiini
▁uveljavi
▁Hoeveel
▁Nagy
▁social
▁Blackberry
▁kuvitella
的生活
▁drive
kade
▁Osteo
▁Definitiv
此次
涯
顽
严峻
渗透
垢
竊
pta
噂
货币政策
嘿嘿
嵌
追逐
辣椒
庙
餃
▁proto
大的
▁goboleedyada
▁Kup
濃郁
stacjonarn
▁Behinderung
▁Pueblo
▁Schweden
▁gogledd
▁eksotisk
分鐘
▁cru
▁Palembang
践行
▁Server
▁gyvenimu
▁finale
▁officina
▁future
▁fin
▁provide
PT
▁Novo
끝
▁mlijeko
▁Alba
▁vaimse
▁ku
con
ագրե
▁gala
▁Mwenye
▁Mali
藩
姦
琦
情侶
兼职
dov
粤
▁egenskaber
▁Image
山
項目
臺中市
▁35
▁keentay
▁telefoonnummer
▁ekanligini
FI
▁ustalenia
▁Keyboard
▁Erakunde
▁septyni
▁light
▁lice
▁Xe
挪
纏
挂牌
玄関
遊覽
児童
ಔ
知識
佛
mm
view
▁Tarptautini
▁Alam
▁eraikuntza
▁Richard
▁four
nnan
▁aprendizado
▁homenaje
呼
tern
▁dolgozott
Gu
pen
際
右
願
▁unutarnji
hieronta
quisition
炎
‐
▁Ungarn
祀
沐浴
厉
轿车
扫描
歓迎
iju
▁Haugesund
▁Iwerddon
▁qi
▁bakoitzeko
▁Massage
丁
colo
툴
nska
▁key
▁od
▁ty
分钟
▁tusentals
▁ochorenia
ႏွင္း
▁veri
table
-13
入
cks
kujundus
欖
霖
考驗
監測
隔壁
闇
翻訳
清华大学
韵
零部件
♂
▁Cualquier
▁DJ
text
打造
▁cont
▁vec
▁State
▁Stoltenberg
▁djevojka
ende
▁həvəs
-2017
復
▁Trevlig
▁debat
▁weiterlesen
▁Penduduk
▁EXTRA
▁wirksam
sien
▁poticaj
stur
▁fantastyczn
Galicia
ortintoj
schirm
▁storitvi
哨
产品和服务
亲爱的
淳
澄清
▁kana
စျေး
旅舍
▁Gru
▁SCHOOL
▁cabo
▁rea
▁ste
▁Poz
疾病
/12
pris
blad
STRATEGI
额
NT
킴
▁giustifica
優
▁6.
▁dair
▁Crkva
東京
▁Mihaela
iyat
▁Dan
.1.
skan
關鍵字搜尋
▁qiyaas
rach
計
▁Ho
▁Desde
tida
ote
伴侶
齿
EZ
阻碍
墜
乖乖
咗
癢
鑑賞
笛
穀
鄧
▁Schumacher
▁Xuventude
公開
▁voi
▁25-
kama
SD
▁Dijital
▁irgendeine
▁vice
criptovore
▁Blue
▁Our
:40
▁manbalar
▁budowla
▁please
Magazin
bewust
阿森纳
▁hyfforddi
菩薩
宠
有限责任公司
钢琴
措置
濃厚
兌換
尸体
开奖结果
▁kommun
:17
▁mir
▁16-
▁senior
▁Fle
经过
▁Ulinzi
▁Studio
▁Vittorio
illa
▁SM
▁kooxaha
wert
leikkaus
▁Salaam
最终
wali
ubi
▁reliqua
▁Sang
肅
爸媽
恶劣
顶尖
匈牙利
剣
眨
蘊
奔驰
▁Kuvvetleri
▁Svizzera
▁Mama
▁io
▁Hacienda
▁Ketahui
▁na
▁don
wyn
▁oczach
▁manual
▁futur
bəyov
▁valandas
endum
表現
▁Jusqu
nge
pina
育
intervju
amicizia
▁Autism
借
▁ero
▁nazvan
匆匆
澄
豁
梵
六合彩
殆
醛
▁contra
▁1920
优异
民进党
測驗
大型
▁Eksempel
▁bina
體驗
▁girl
▁Dhe
▁Pemimpin
▁Soekarno
▁Dank
firma
sut
dru
▁dihadiri
▁Costa
▁wasiwasi
▁sinn
~
息
擴展
lir
秋
藝術
▁broneeri
erad
▁UE
性价比
天主教
繹
人民代表大会
于
憐
边缘
猿
maharashtra
轮
▁PUNJAB
Implijout
▁Infelizmente
▁Soo
lma
▁staff
agem
就行了
▁lacus
▁Konvencij
tta
許多
[36]
似乎
尾
▁Freundschaft
os
tin
▁Damasc
Cymru
▁Tuo
杠杆
孵化
倘
彻
职业生涯
▁STUDI
nol
▁Renaissance
▁formal
▁consuetudine
符合
iriwayatkan
eken
▁shuncha
空间
fru
itza
高等学校
▁aby
▁govern
▁chercheurs
▁drama
Am
程序
確立
▁izmenja
通知
情人節
▁zatepl
預估
▁Vest
Bundes
cr
薰
嵐
燃烧
称之为
谭
冈
▁հարուց
拉斯维加斯
▁Excellence
▁Griechenland
▁cours
upp
Ensenyament
▁Muharrem
sal
▁browsing
▁dibiarkan
▁Mtwara
▁nehezebb
▁Mid
▁pension
▁Spo
▁(16
▁Aug
▁office
▁table
▁wybitn
▁Pri
▁professional
▁meddyg
▁orienta
▁Relativ
ING
ternitat
冇
烘焙
隶
▁training
ation
ahan
gende
▁op
▁Siz
▁Kel
标
▁metro
kustannukset
▁Perhatikan
▁qaataan
▁gibanja
▁ilyesmi
▁planet
▁cotisation
▁mashkull
nar
▁Mary
▁Cavalier
零
veni
verktyg
attache
阐述
亲戚
▁villa
猜测
眷
糸
鉛
丧失
iya
volu
▁hoa
訂
價格
▁Vuitton
▁desgracia
itis
▁Khasiat
▁Brand
▁alumnas
▁smanjuje
戴
▁pirkimai
▁Rehberi
▁yleinen
▁Lizenz
▁ubrza
vok
______________
VO
frelsi
Economia
mak
哥伦比亚
讽
办事处
不确定性
碍
讨厌
灸
倡
顛
一站式
綴
鑒
联络
袜
茎
▁Աստծո
Ri
阳
▁erreferentzia
rmi
▁client
▁confecciona
破壊
Szolnok
▁dizanin
▁insa
▁izendatu
▁country
revisjon
嘱
marmelad
▁esclusiva
禱告
戳
▁ng
▁Op
杯
▁Nuk
verarbeitung
matu
▁rico
▁Bai
將
칩
schakelen
cada
▁benadering
▁malsamaj
-0
▁gru
塞
▁Sekoita
▁molecular
▁kendskab
MU
uza
Vojvod
▁ordina
▁220
seizoen
lat
▁tara
▁Mars
▁tatt
▁19-
▁Beyonce
▁Str
riko
▁Zwolle
▁inqilab
▁meet
▁Satellite
▁Kenya
gge
kat
▁zdziwi
unar
▁Novi
推进
▁THE
严谨
ateicoties
釜
栓
嬉
必不可少
纤维
療癒
慕尼黑
▁Woensdag
年代
ET
ː
▁Moottori
It
大会
▁pat
▁Utrolig
補
▁clinique
▁գոտի
户
▁sztuczne
xit
风险
▁meer
▁dwa
▁went
弧
▁secret
潜艇
沙灘
▁cittadina
籤
篷
▁Cena
题材
Mombamomba
▁Erkrankungen
▁lieu
TH
▁총
▁drink
hiya
司
▁opp
出了
희
▁Oqtay
▁najpoznatij
▁Golf
Uudenmaan
▁sœur
▁Erkenning
nych
wor
▁arbeidsgiver
▁schi
▁strasznie
landa
სწრო
zki
賬
負債
澀
摺
瞒
艾滋病
違和感
把
betreuung
▁Satversme
KU
the
ၿခင္း
timo
▁Darlehen
▁warga
sprezece
▁irodalmi
▁easy
▁duodecim
▁megalapoz
暴
▁bli
▁porte
▁understrege
sah
▁innamora
▁leuk
螢
里程碑
说实话
拱
酱
彥
魁
荣获
▁mustahkam
嗓
▁algorithm
▁Promo
▁reforma
▁Hak
Ϊ
消费者
▁Eclipse
▁Progetto
DR
▁Southampton
je
natarajia
▁Spektrum
▁kelainan
▁aheyd
▁orient
iei
▁Hotel
▁transforma
▁Bundes
▁bemanning
dali
▁Delovn
ntar
ရှောင်
sekvenc
WhatsApp
篇
殴
簽署
筹备
习近平主席
岛屿
菓
欢少爷
親戚
八卦
巴塞罗那
laka
▁Csatlakoz
▁Uqobo
▁arma
▁prove
职
视频
/8
▁god
为什么
▁գտել
▁450
▁Fassung
▁meta
▁New
▁kunyit
▁half
▁Qual
阶段
Previous
24
Connect
捞
陋
behindert
үшкөн
玛丽
You
酔
顺序
诺贝尔
▁Kit
▁Verteidigung
▁70
lage
▁plot
▁Benjolan
▁tena
投入
dze
Հռոմ
▁muretse
▁hem
introduzione
▁Cada
comunitari
▁middelalder
▁Tum
在一定程度上
转型升级
尊严
汕
討厭
咯
傢俱
沐
驚訝
宜蘭縣
▁as
阮
物聯網
娩
▁hizkuntz
年前
▁Stor
▁governo
AG
굽
atteggiamento
▁celebra
瑩
▁Lurralde
▁their
diga
扉
▁Ingen
▁przemian
▁Rod
palkkio
▁interven
amerikansk
鹤
椒
肛
贼
賦
俳
အွန်လိုင်း
寄
溫
我想
▁Xafiiska
▁Od
▁Antonio
注
orthodox
▁Beverly
akadeemia
TP
▁Card
▁what
▁ngisor
cade
▁hall
tafsiri
▁posamezni
ադաշտ
▁Vigo
▁valamely
▁naukowe
猶豫
竣
毫无疑问
寧靜
专辑
腻
挣扎
氏
▁Bot
▁gwirfoddol
▁(12)
▁Kis
▁Wasser
▁Ya
▁Lau
▁CA
▁Spilleautomat
父
▁zadovoljava
mala
zg
▁bab
▁Ivan
貴
c
▁Ti
▁skandinav
onta
▁Wall
children
Bagaimana
娅
对外开放
颠覆
綻
倪
LL
▁laugardag
愛好者
bing
ARE
fek
▁Waqooyi
▁Ist
▁performance
▁ano
▁Songs
⬅
౨
sod
▁Erholung
tores
行为
▁AQSH
▁Objetivo
晚上
▁Presiden
hudumia
▁ochronie
不足
erkrankung
▁energetyczne
tne
sthetic
nechajte
▁won
規范
kereskedelm
啲
墾丁
喺
遜
失踪
害羞
一生懸命
严厉
汙染
▁Eller
▁Sekondari
▁GA
促进
▁Software
2007
▁concept
▁Ermittlung
▁Jag
▁criminoso
cari
▁Vrancea
▁nimûne
▁Analisis
sele
halt
▁Meninggal
coimhead
预
Esquerra
▁Dziennik
egu
schlecht
▁Bog
beweging
党委书记
嬤
损坏
一年一度的
溺
秘訣
鹅
二维码
▁anspruchsvoll
protseduur
▁Schicksal
▁Mau
fol
支援
▁Vabariik
emo
▁La
▁sker
▁Crkve
筆
Jugosllavi
▁Ft
▁almacenamiento
▁odkril
yb
Partekatu
學校
▁meditacij
yim
▁Ekskl
wand
Please
▁(9
凈
繫
拒否
柚
地下鉄
ေက်ာ
▁Om
▁Bumiputera
▁Pascual
▁Perawatan
Art
▁pow
▁第
▁classe
matoanteny
▁mortgage
▁suunnitella
cti
:50
▁wygodny
智慧
jewelry
首先
就能
tioner
驕
▁assoluta
ՀԱՅԱՍՏԱՆ
筍
斩
쓸
常务副
Wikipedia
▁BR
▁masse
yi
持续
ကိုယ္စားလွယ္
▁Daily
生物
▁Vila
▁zum
都不
功
▁neaparat
▁postopki
不用
0
驚
▁agent
雲
▁funk
osobowy
炳
掙
寬敞
是怎么回事
▁consapevole
▁Stat
▁Mpifankatia
ender
规划
orna
点
▁friends
任务
▁handlekurv
▁Brigitte
▁Alcune
▁Par
▁mineral
▁Krist
vang
▁hypno
fundi
karan
政协委员
汶
居酒屋
媳妇
Շիրակ
▁Ang
不銹鋼
袍
飆
檢討
混雑
鯨
Chandigarh
house
▁North
▁RealEscort
读
▁recusandae
目標
▁bin
eid
幸福
place
▁1960
kokoonpano
▁anything
▁Kunnskap
▁Akademi
娱乐
▁addiction
▁bijoux
▁hud
▁stup
▁sag
振
馆
▁Q
AMA
傭
意想不到的
鮑
悼
濡
缓缓
律师事务所
隅
參加
▁Giappone
lin
▁Pembuatan
ters
tino
!”
▁First
🏼
OT
经验
▁beveiligd
▁znamenit
leng
laya
:19
dimensjon
粽
千葉県
饶
覚悟
los
▁fiscal
鵬
✪
▁Sono
缆
▁Material
▁INTERNATIONAL
▁touch
瓦
'
▁E
kola
vere
▁diteruskan
人口
▁Rose
▁Mistefa
樹
▁ps
▁vergleichbar
ullah
overnattingssted
▁Intel
bari
rme
滿滿的
勵
繡
衝撃
봇
頌
▁giudiziari
▁nerv
ugu
:18
emi
▁retro
▁Ide
▁aeternum
牙
EA
▁tar
▁hardcore
▁empat
▁Send
▁rim
▁cunostinte
avat
▁valandos
illo
▁Lidhje
▁40%
jali
期间
揣
莹
live
DD
詳細
▁dolzarb
uji
▁sapien
▁GLOBAL
af
erd
:22
cy
뼈
▁Luonnon
魔
▁meridional
▁("
▁matukoy
▁Huolto
▁Nej
▁Nah
▁mes
谷
象
max
wana
▁optimal
▁physio
▁phone
揽
瓶颈
钉
星巴克
棘
焊
咋
痕迹
▁sign
▁rayon
▁dictum
biz
▁'
招
▁beasiswa
mum
▁Xo
▁Yvonne
▁eedeeyay
豆
▁verhindert
▁avkastning
▁she
omi
▁Ris
▁terme
其
nnar
凸显
在这种情况下
壤
凳
氢
多伦多
栖
危険性
銜
koh
▁saw
聖
▁Text
imo
inha
elli
发布
nen
▁pogrzeb
▁once
Քրիստո
▁kunstnerisk
▁kutubxonasi
rend
kea
▁manastir
朽
孜
當事人
緬
倚
取締役
乞
涩
伴侣
摩
▁Fil
▁Impressum
▁2013,
EB
▁Minu
鑼
൧
▁Local
▁Oromiyaa
▁odwrot
▁przekroczy
▁Hann
▁Possui
▁funtzio
2018-04-0
▁until
Skelbimai
眯
懇
夥
sha
▁Perwakilan
▁motsvarar
▁useimmiten
▁Pem
▁att
sema
盤
▁become
▁ye
▁Shop
▁corespund
▁effectieve
最棒的
▁systematic
teni
inkluziv
▁kina
利益
丼
馮
硝
氷
已久的
▁酒店位於
NASDAQ
pl
GY
aid
▁certain
▁press
▁Article
wed
▁barrachd
▁bersiap
zze
▁PELAJAR
▁Jung
aks
▁tilkynnt
▁seurustel
犯
anggep
stal
从业人员
疤
叨
aproximadament
飙
攪拌
國務院
灶
环球时报
峻
形式
▁gubernur
▁kao
淡
▁Jar
OSPITAL
hut
▁toevallig
▁minister
▁allo
▁Kurs
▁kesimler
250
▁Spjall
▁Durante
dow
貫徹
▁vedligehold
茹
胚
贅
新华网
钦
籽
Bhayibhile
▁Montpellier
▁Muhyiddin
vig
▁dofinansowanie
▁Sou

▁selv
▁situ
aldi
▁Kri
▁afgewerkt
neb
BC
▁vyanzo
ҮСҮ
▁pendant
僅
Sverige
捆
可行性
外星人
憶
抛弃
帘
禾
政府工作报告
灼
▁tuna
ဈ
kor
▁Kedudukan
仑
惰
莖
澱
燭
翡
噛
HAN
✔
禱
哑
苔
寢
茵
🤣
阀
剃
眸
amme
隸
뚝
嗨
嶄
枉
稲
斬
抒
哉
滷
誦
弈
ァ
竿
弛
憋
俐
禧
杖
榴
ヵ
杭
▲
鈕
寥
▁Dur
厲
貢
揪
廿
瞳
龟
拚
現場
蚁
乍
耘
淵
尬
牟
榨
芥
賑
빚
沧
醃
遼
鄂
淇
悄
烫
冕
粋
뽀
械
熄
坝
佼
茜
駭
檳
贖
氛
庚
樑
彤
侣
咧
谍
諷
狹
脇
廂
故
絮
梭
驶
咐
￼
脅
譚
board
ஊ
噪
喇
毗
콕
嚷
缅
瘫
輻
虞
艙
凰
퀸
鑄
媳
阜
饥
氮
莞
妒
鍍
忱
縦
嘩
呜
▁prov
憧
ɪ
筷
紹
肘
亟
惱
韌
咩
熔
뷔
흠
咀
樞
谜
鈉
曙
穗
曖
抉
ۚ
鸽
兌
冀
憎
綫
喋
😋
浆
懵
阐
瞰
hab
撸
獣
粧
雁
ଙ
颠
汙
仆
耿
覓
캘
珈
饒
蔬
芒
檻
墳
苟
駿
骸
氫
渋
钙
瘍
纬
麺
ὶ
🔹
璨
酮
聆
嘎
沦
褐
涡
渦
亜
炊
巣
炙
呦
▁management
Ŝ
傍
駄
樟
nese
熏
拇
玻
冗
ଊ
嘯
喃
搅
噹
貶
荔
柿
濠
镀
̲
鹼
鄙
茉
眩
鴉
냄
蔭
斧
ۖ
뜻
稠
逻
薦
裴

屎
欽
寅
管理
tex
͡
溯
歉
浙
钩
窘
惚
墟
▁After
秉
姥
哟
噌
뮬
ጴ
胰
扒
竖
嘔
汰
淩
櫥
挿
̇
itz
̅
vou
鸦
劈
嚣
褪
缚
滕
翅
噢
呃
啸
堕
捂
琅
汐
庶
壶
睜
蹭
鈔
渺
嚮
饗
歹
盔
韧
煲
衬
窒
聪
撩
啃
僻
嘿
麒
幢
亀
켈
璀
😱
拙
拢
鉅
慷
紓
臻
轎
閘
ዪ
뱃
ila
칫
瑕
鴿
俘
蝠
沫
怯
挟
绣
銃
覗
✖
ॲ
聰
渠
蚂
▁Side
酶
襟
癥
锤
勳
蒐
翹
깜
芹
晤
▼
赎
糞
蒞
呕
ٓ
뜬
‰
齋
ャ
吱
詭
遴
畝
錠
囂
葱
萱
ֱ
쏠
▁arri
咚
煥
唾
噬
搁
窯
▣
朔
෴
謬
ႀ
陡
蝙
濁
賄
憩
嚟
拎
谨
翘
删
陌
慑
棺
朦
攬
Ï
韶
൨
泻
荆
躯
ctus
羹
潇
亢
惶
曦
蔗
哮
铅
烷
嗚
岂
♚
빔
喱
瑋
빼
翩
綺
蝎
攒
砺
趾
蕎
頰
땡
😜
膀
颂
閑
亥
墮
攔
绒
逅
躬
晏
窺
甦
彪
顕
Ƙ
켄
璃
訣
驴
拽
葩
鉤
匣
宸
伶
晦
哋
簧
寛

벡
滔
沂
呐
磕
屌
voor
幡
菅
葫
煜
诡
笠
֣
door
紳
虔
巍
鲸
诀
疚
衅
ntas
叱
⋅
偕
첼
肴
餌
晖
忆
哗
駒
焉
闸
🙄
伎
鶯
璐
屹
芜
氟
蕙
餚
羯
汛
剎
綾
︎
😃
曠
ㄟ
磐
镖
妓
歼
▁Milan
咎
痢
俾
瘟
鑲
擷
蜀
蜡
酚
葡
晟
飪
懼
掐
栃
珂
▸

湄
蕊
掰
氓
瑣
逍
隋
眶
榕
詐
😇
戮
毬
杠
痞
坷
雛
炬
禹
滬
☜
汝
岚
骏
腮
瞞
贡
琶
闢
馈
拷
碌
☝
֖
쪼
캄
值得
谬
橱
嘀
涮
砥
檀
悸
夭
篤
癡
鳌
樺
ÿ
扼
俭
芮
纺
憊
鈍
riad
詫
宕
豈
ᄂ
枣
樁
糯
嘶
挝
ឪ
榆
曳
😀
渥
聋
紊
鍼
瀉
緝
荘
棗
⇠
邹
輿
罹
痊
漱
绷
吩
吝
峭
寇
柵
峨
囤
捅
焗
ۡ
歎
杞
諜
襄
ѝ
噁
▁1982
玖
豫
栩
麓
茸
顷
諮
愕
蔑
臘
鮭
逮
穂
蟑
ෲ

▁Gol
溼
嗦
濒
浇
匀
睫
馴
晾
烙
鱷
钞
覇
Ŭ
🔸
贞
拂
搂
顫
渤
勺
憾
╱
婿
坟
绊
乒
靓
砌
揍
骆
ʿ
吠
啞
埼
沁
揀
鶏
皙
∞

ฃ
潑
窍
絢
熠
祛
黯
嚎
栈
sok
巖
闽
骄
鬍
昕
肃
琵
聂
鋰
毋
擎
📲
桔
峙
锌
颊
窥
齣
膿
軀
氰
敛
醣
唆
醸
愜
鳩
鱗
▁000
岔
埕
ឋ
戛
竅
嗡
禄
茁
辿
暧
畳
暦
踹
謗
祠
冉
荃
滝
缉
tero
茱
陛
칵
祁
蘑
跋
崙
渗
▁Cele
钥
喳
羚
缪
刈
竄
桁
庵
旷
成果
꽉
🙈
Net
厝
渭
﴿
ၱ
讳
漩
▁kit
阎
绽
攏
鞏
粪
閩
黔
斟
舗
淤
矣
饕
腊
☼
答
빡
劵
寐
▁our
▁Nuo
骤
篡
烁
祿
猥
碱
饋
鈺
槌
蠣
縄
畿
祇
潍
厕
▁East
羁
澆
涎
磯
钓
鎂
饅
凋
썹
ǝ
製作
룻
‡
舆
NN
盏
墩
沌
薈
嘖
洱
孽
恪
ឲ
嚕
씹

幟
穹
匮
铲
侥
裳
鋅
盞
诫
蠍
鲨
瀕
瞑
窦
衞
缶
̱
痔
豎
燻
諧
陕
梧
缕
緋
戚
蔻
黴
霹
瀾
吶
▁lain
vei
匡
袱
酰
邑
Ỷ
▁(13
둬
荊
秃
乜
櫚
jne
醤
粟
柬
呻
巔
舵
巿
隘
꼼
ሿ
鋸
嗆
邯
ֿ
倖
猖
棱
胧
矛
擒
瞥
翊
諭
領
駝
ၞ
깡
벙
蠅
磺
逕
遁
砰
鈦
怔
崽
pok
滌
嫣
暉
壩
鰻
႓
😏
宙
蜷
痰
觅
遽
霓
▁22,
徙
瑛
赂
ஶ
▁prin
改变
聳
虜
綽
雍
瑰
箔
惋
痠
掷
咦
斂
嘢
唠
拗
薔
锣
秽
😡
瑾
婶
鯉
宥
澎
竺
骰
叽
綢
壟
涕
这里
捣
腱
璋
疮
蠶
鋭
❖
姗
斉
⚡
콧
烽
酢
哒
舜
侖
啼
卦
猝
笙
諗
呗
痹
툼
蛤
茗
喲
▁Marie
逞
֔
莆
BER
囑
庐
笋
痣
攸
緹
ties
窑
啧
琛
莽
馭
匆
苓
樊
鳄
彷
堯
熾
侶
ahi
뽕
侷
斋
蛀
矗
൯
禁
챠
翟
鉀
璞
漳
▪
膛
钛
蝉
惺
稜
藜
摒
懦
筝
饺
憨
炯
寰
筐
呑
쿡
奄
崁
刨
縷
溃
臼
掺
嶋
遐
▄
攘
☻
Ŵ
▁Mercedes
丐
腋
斃
🔝
枸
禎
吮
▁media
▁positive
楞
兗
驭
颅
祟
鬚
戯
炜
萤
쿄
義
瀨
ၷ
譴
煦
tili
槃
倔
槟
缀
绚
馅
泓
悖
tice
钝
茬
璇
徨
❣
⤵
🙋
iq
瘩
啱
懊
钾
莘
➖
蜕
赘
甥
傀
搗
犒
昱
敖
瀋
咔
殻
岱
┃
챔
ffi
釉
魷
跻
拧
姻
諱
咏
輾
搔
擱
do
—
酗
暹
蚵
坍
毓
梢
闫
淄
丶
熨
唏
绸
驼
怂
榔
ȋ
▁pain
뜸
🌻
影片
詛
巒
兀
淼
辗
箕
芊
恺
鷗
妬
蓓
콰
舐
佰
撼
厥
ゞ
惦
啡
☃
惘
圃
擄
羔
渎
孰
擂
箇
孚
遏
癫
嘈
椿
懾
尧
蹊
吭
🇷
颐
氈
祢
赃
軋
镶
罄
嫦
駱
蝇
蠔
賤
蜒
wi
呪

쿵
汎
穏
铮
隍
弔
詣
腆
笃
剁
懿
禿
걱
咫
颓
艸
➢
▁utiliza
瀟
跤
暄
瀝
頤
酣
驟
簇
滄
迸
哽
呛
犁
鉱
▓
璽
睾
窖
靑
🏽
钠
踐
撓
噜
岬
祺
脯
叡
蛛
绅
濑
癲
鳞
喰
廬
歓
儷
恣
瑙
嗷
渉
佇
镁
☠
疣
✉
콥
誡
嵩
嚥
峯
甯
鸥
✓
骁
垦
蜥
瞅
缤
闵
窪
硒
玮
漪
渍
竇
锯
鷲
麩
捻
ෟ
機能
鯛
溅
韬
凿
篆
墾
়
肽
帛
噱
荐
壆
碘
皈
釦
挹
敝
癣
埤
抿
堺
↺
卯
陨
錐
虱
诶
殺
陝
褚
朮
妾
擘
羌
錘
跆
亘
惮
▁1918
☢
辙
巳
ႄ
꾹
▁dul
🌿
ʃ
氾
蚤
鏟
娴
匾
枷
玟
ಞ
洙
脖
蛟
虏
弩
恿
笈
緞
陜
醍
鵑
珞
绯
▻
ሢ
鄒
캉
̵
焙
♐
婁
剋
践
贮
屿
诽
粼
呷
噶
苞
傚
禺
婧
荫
嗤
幌
咆
箸
欸
曽
沥
遛
唬
樣
뿍

蚌
绰
辍
鏢
砕
觑
窈
窕
▷
攣
俑
蹋
輒
谤
鑿
餾
崑
叼
纂
殯
迄
錬
彝
玥
➠
ሖ
靳
嶽
啰
柠
拣
浚
汾
蚕
痙
鞘
儂
昵
镍
⇚
轍
贓
冽
綸
鵜
🇰
뺀
📞
龔
牀
孢
諦
験
谐
閔
皖
峥
馥
蕪
粱
瓢
廝
筦
淒
濺
恙
挾
浊
瘀
檐
蕉
狈
酉
涤
⇪
蹬
厮
敎
訝
穢
袂
☰
껄
支付
눅
Ѳ
褥

衙
褶
鉑
浣
搆
圳
懺
晝
嗣
髭
燮
貂
剿
謐
锚
羡
囍
頬
♯
✡
讹
腌
饌
蟒
戎
矜
膺
锈
糜
涝
涟
烨
搪
朕
糗
苷
特色
喽
啄
榭
諺
饵
卤
ˋ
銹
鮪
赡
鉗
茧
鎧
۞

醚
繭
檜
佟
铂
摻
悯
箏
谚
攥
蔼
葆
邨
蛍
嬸
荏
槐
☣
铀
♟
耆
😯
쟈
캬
🌺
匱
卅
忻
瀧
喆
裨
鉻
劾
酎
瞇
├

໘
쉰

喎
倶
箍
➻
隧
蛾
掖
锻
巩
礡
唧
胁
仟
道
glio
琊
铐
✴
炖
雋
嗑
😲
壓
顱
洼
🇵
諏
袒
惭
朧
褓
凜
戊
辫
斡
饑
瓏
拈
❁
沓
锵
儉
苒
鲤
鳶
梆
瑠
篠
௨
┴
燎
斓
鐳
栅
骇
诲
钊
橇
炽
珑
挛
叻
鏤
謄

薏
珉
訕
獺
礫
煒
‖
▁PU
禀
枭
轿
葳
阑
頹
忏
泗
貳
懋
rla
壬
鐸
漯
羲
粿
鉆
⇢
癬
聾
istu
뺨

ɐ
嗝
窿
谛
脐
筏
枋
轧
-21
掣
鉉
秧
浒
姝
鐲
驿
邇
翱
哧
珮
昀
壕
蔘
飴
睬
嘰
踱
▁Bo
⇜
⇔
鑰
ๅ
WE
📚
껌
냠
鴦
秩
纭
悵
辻
愫
荟
绥
郜
沱
姣
綵
簸
稟
纶
绮
帼
▁Vill
瀑
驢
祓
璟
✰
筈
떄
꺽
殲
😵
渕
蠱

豌
鷺
旻
蕨
疡
婭
隼
诋
鹭
閻
),
肮
潼
嗶
┅
隈
作為
啾
罠
閲
钴
桦
疱
瞼
嘍
炤
搀
⇀
羿
杵
鞣
蹙
韜
娼
铵
撂
涸
葦
櫛
漣
鼾
猟
粑
┣
揆
笹
▁vente
✲
粛
钳
빕
行动
🎧
♞
淬
俸
戾
氪
诿
狸
荼
妤
熒
稷
摹
峪
簷
踞
舛
憔
癇
醺
壑
聶
➹
溥
燴
娛
蚪
闔
↹
▁Internacional
晌
桟
垠
瀛
膣
✘
씰
켐
槳
🇪
銑
蘋
臧
徠
诛
疸
麾
頜
嗖
頷
勲
麂
掂
砧
裾
📖
ኲ
퍽
➜
呸
沅
吒
漕
罔
婢
恃
轆
旖
痤
▁tym
椭
僟
秸
絃
婊
勛
忿
弋
萼
泯
鹃
篱
絹
奘
坞
涪
攫
鎳
膾
堇
俬
夙
鎬
➼
礎
▁Baby
뇽
빽
뺏
🐼
▁comments
钵
泾
湮
☔
誨
疟
鸞
荻
瞿
匝
擰
苣
偎
唰
棣
孃
湍
揶
怼
锥
鹊
桢
扈
甬
瘸
陇
嵘
⁢
琨
獒
縈
鹦
裱
捎
钜
睨
拴
慚
氹
嗒
驹
聡
▁bis
枱
讃
邋
奬
撻
霏
甕
莒
處理
걔
蹺
琍
丨
▁2015,
憚
卍
鰭
糠
诬
锰
麋
蛊
蟾
甭
渚
坯
丕
籲
荀
頡
岘
泫
剌
摳
☇
蒿
亙
捶
桀
OR
圩
腴
ऴ
쿰
헴
▁AG
娑
祯
dal
▁Familie
溴
蚓
锲
旎
跺
攷
跛
繰
▁fronte
坨
雉
塢
佯
孖
潟
噎
槿
隽
孑
▁tax
梶
膦
捱
歆
筵
┓
⇘
▁1941
卐
妲
祗
螨
欅
佗
羟
涧
筠
☐
▁23,
챈
켠
╹

啵
隕
囡
哂
蜊
燁
幂
▁explo
滁
苇
舷
琬
叁
鵲
嬴
佘
饞
莺
挎
庾
缜
↶
幀
⇖
镐
吆
俚
⇃
뵈
쏜

僭
ၹ
屄
➟
鑊
↼
嶮
∠
町
倌
諳
髙
熵
鎢
稈
爰
龋
▁bani
摟
稔
湳
餒
娣
梟
餞
⇣
胯
under
疝
坳
壱
聿
镑
掬
皑
⇁
俣
⇞
莪
錆
쥴
😣
铬
囝
錨
雹
狒
褂
碇
煖
糅
讥
囿
訛
瞟
菏
̈
牒
銬
囱
浔
铎
壅
鐮
缄
昶
孺
柒
璣
埸
葷
rsa
∴
蔺
蚣
蓼
♘
ʀ
┲
˃
▁musical
Ὁ

▁Ziel
蜆
↾
覃

◣

躾
葺
濮
颍
勅
桨
搽
镳
昙
砷
萦
腈
▁Nes
藿
桎
紜
砚
砦
舫

▁dele
惣
暸
燜
诃
馍
荳
蜱
❂
嘞
՟
헹
캇
힝
🎬
裆
荤
袴
ヂ
🎼
羥
掟
玷
淞
踮
鈾
自分
鋤
阙
皚
♈
榷
룹
烩
炅
乓
▁gla
陲
脓
缈
袄
乩
鎔
溧
盹
冪
衹
glia
⇄
贻
蕁
颌
┽
⇟
╣
⇙
瘪
簌
┇
ᴘ
⚓
Il
踉
蹣
쨍
muk
鰹

ႜ
┬
kas

莢
囙
鰲
辮
驊
峴
埰
葯
粄
薫
椪
盅
暘
尒
栾
涣
怵
颚
缽
犊
谑
皎
饷
魇
臊
豢
┷
馏
钗
痧
颱
冏
戍
琰
畠
艮
⇡
冴
鐺
➚
▁Nun
珏
嗲
芃
鮨
嬷
綏
ᴛ
固
깬
뭣

쪄
캅
💲
➴
碉
👣
冢
咨
▁/
▁Ak
燊
恫
祚
閆
藁
霁
騁
氡
▁princip
爻
钮
炕
谟
皰
盂
菈
淦
擞
紆
嬅
俪
圜
谌
肏
嚢
匍
錮
瘴
攙
炔
螳
姍
┻
靼
vand
鈎
噼
↴
seid
侗
囪
ឝ
蹶
liz
ʜ

▁cream
🐯
for
蟎
榖
羧
胥
犢
業務
蝗
忖
摁
簍
萵
毂
彆
ἐ
鏗
鏘
仨
镰
泷
喙
煊
濂
飚
灞
▁Stre
隴
唁
貘
仃
亳
̷
韆
鞦
嬲
瞓
褔
┱
鱉
↸
gift
┞
錳
呟
暁
躉
↬
叟
錚
嬪
镉
飒

撅
鎘
🇿
껀
휙

🧡
尙
毘
幔
訥
鲲
璜
蛹
┠
奐
僥
澗
鹑
鉬
仄
滂
偈
闆
劏
邬
勣
呲
▁impact
魘
痂
纾
婵
勐
伉
堑
喩
笆
騏
☽
▁Cro
疵
┟
頚
邺
鬃
貅
뺄
▁bitte
벧
뵐
▁vert
쿱
蓑
餮
迺
馗
骐
篓
寘
襖
唖
郅
餸
∷
軼
谕
鏞
罡
耄
郗
晞
濰
髻
鸢
摞
骥
酐
膊
萣
悽
誰
蝨
┢
纣
钨
縝
脛
舶
秆
tado
獾
虻
巽
睏
诏
聼
蜢
硯
楹
塭
焯
羸
跎
┚
☋
♙
鲟
罂
嗌
♝
🐷
躑
配合
吡
鬓
嘤
焜
蜃
🐰
▁Taip
▹
꽈
▁trip
뼛
컹
藹
笏
瀅
▁Albert
蛭
鍬
鯰
籟
擀
玨
缨
錡
鉾
婀
捌
楨
緘
殒
剉
觴
诙
cida
鳖
藺
藓
鍺
岷
珩
鸵
螯
全
aat
嵊
毡
坩
犽
樵
沏
疽
贛
佚
摰
啮
峦
耙
颦
昉
柊
睢
猬
濬
哔
暐
┝
栉
鹜
冨
导致
揩
↣
趸
蛎
縞
☲
ܝ
냇
빳
퓸
忒
溱
郞
🎸
ona
琇
ect
✽
↰
➵
衊
▁exact
↚
伕
吖

欒
掸
砾
的新
镌
霈
詔
瑀
骜
焖
闕
殤
顥
瞋
▁stay
邳
彊
鄔
闰
囗
闌
☹
捄
汩
璎
菡
┵
膈
旮
┋
芫
雒
睥
黍
蓖
衮
驀
嬈
锹
鰍
姵
敕
峒
鴕
┈
靛
氦
蕈
跩
輥
☟
ゐ
↡
ㄝ
▁tin
卹
🅱
泠
蛐
뫼
촐

﷫
Ӝ
↢
厩
穣
휀
洸
褫
肱

埴
澹
艹
珥
酊
硐
苫
抺
蚝
叭
嗟
辘
蝪
糢
碴
燧
藪
畚
贄
呯
货
尕
儆
郯
榫
錕
瀞
鯤
胳
▁Bes
俟
萸
钒
貽
鏖
顳
恸
柘
鄕
鎭
紘
陟
靨
✁
╡
▁PH
仞
┡
嵋
踨
銨
┖
魟
🗽
┶
柾
馀
镂
丿
獠
褸
紂
颔
🇼
卫
ᆢ
Ṣ
Ἔ
疃
츰
퓰

ft
盡
▁women
乇
釆
⇅
▁Prin
仝
鳗
滘
溟
哝
幗
鈷

玑
澍
酩
瓔
鹫
雎
籀
釩
凇
讼
铖
▁Kle
蚜
挞
苹
尟
霭
牴
馊
鎵
痲
媞
▁Id
鈮
钯
胫
瘧
ヰ
鯧
旯
铰
嘸
忤
湃
垛
繙
烴
▁pa
ity
鋯
煸
翀
擡
殚
潞
肓
荞
蟆
┰
邗
靄
纨
旳
泮
脣
銚
痱
篭
龇
崧
life
銲
驷
惕
┪
鑌
骊
ꨯ
鎰
ಽ
᠐
‵
▁holl
▁gall
꿍
죵
콴

ishwa
▁Continue
釹
죤
鐙
🐞
玆
▁warm
秣
秭
炀
衪
飮
慟
赈
觥
氘
郧
闾
靥
箪
蜉
轂
僮
rist
錸
黠
螫
垭
簋
箐
轲
鮫
汴
桉
睚
逵
窠
绶
髋
牍
晁
珅
躥
鳍
桧
寳
楯
庖
獃
鑭
瓮
睑
谏
迤
堉
妺
晷
箩
踟
栞
朐
孪
歙
焘
阚
弒
怙
蔫
踫
鸾
芻
麿
EE
歛
莿
齶
玦
锭
剜
llar
垓
痫
穌
姒
鮎
蟠
荚
起來
▁pse
崛
嶂
羋
誥
铊
飨
鲫
龢
voli
꺅
냔
뻬
뽈
켑
▁Ich
▁arre
▁intim
▁VOA
꿩
vate
麸
⊿
襠
懽
賁
贗
too
鍥
梔
𥚃
炆
蹓
埜
曄
苕
撘
澇
譙
钼
淙
逹
糍
貍
鈀
諂
钎
抻
蒽
坭
啐
縵
蔔
눔
嵙
郢
騮
鐡
16
isan
锴
鈐
閎
醴
縴
宓
剐
颉
閙
蓆
razi
濶
璘
彧
鰓
囌
埒
猗
鉿
酆
宍
萁
蚋
舀
嬗
滟
燚
犍
牘
ㄙ
▁participa
蠡
抡
馱
怆
旸
槲
绛
胍
娉
岀
涇
銻
铟
祼
涞
銫
霰
✣
旼
臬
铣
铨
佶
薅
阉
靱
鞆
餽
鲔
弐
憬
閾
舸
銣
鷄
ㄞ
癆
窳
脷
钍
驪
澧
皴
▁1979
莳
鋐
🐸
֝
ǿ
🔞
꼿
뿡
졋
{
啶
寃
扞
▁Carlos
洺
璉
璿
綬
膘
銉
떵
뮴
칡

sl
▁reci
:23
昰
蘅
铆
洵
妏
燐
茈
蒯
岵
悌
箝
胄
愴
蓟
▁topp
汨
訖
薹
溘
祉
嚙
贰
犟
茍
凃
幵
硌
鏊
铄
錩
孬
簫
蠊
顰
邶
餉
軔
赟
鏜
躅
畦
猁
逑
賡
黜
gana
牯
鼹
飹
椴
萜
谔
湟
絳
懟
惇
佾
妁
襦
迳
阱
噙
縉
訢
氲
锷
颺
淯
逄
噺
觐
坵
凖
鲣
战略
媾
櫟
苄
鎏
腭
鹄
驮
糀
缦
罘
椋
檄
錀
黌
▁manifest
楸
噻
菘
↛
嶠
錙
魈
嘜
幷
蝋
骶
豋
缬
鈿
嫺
尴
癩
籾
藴
琚
缎
躰
ឰ
哞
怄
滢
澪
琯
赓
噯
箓
VE
̜
흣
뼘
쥰
17
Ȩ
塬
嬋
彣
彿
瑷
袗
诮
赉
迩
饃
鬨
鯁
鱧
겻
꿎
둣
뵌
뻡
▁hair
씸
쭌
쿳
软件
ꡓ
輕
벰
쑹

▁Ltd
槙
櫓
苙
醌
馕
蚺
闍
回
肪
⌣
闩
挈
裄
鬪
尐
跶
僞
粢
赝
遝
锉
鱟
鴇
ꨵ
赭
妣
孓
紬
蕓
蟳
锑
鳯
慍
磧
蠹
櫈
縐
芗
縋
钕
嫔
嬬
撣
樨
炝
芈
薨
蝮
谀
腚
酞
蓀
憺
氙
鴞
嵗
洮
槎
煋
燬
诤
刍
鏇
倜
▁slot
荇
聃
础
繽
畴
ዽ
콱
쐈
쇽
깟
굣
鸩
鸕
鶿
鶺
鴒
鲇
鲆
鰥
鯱
鬩
髑
餿
韃
鞅
镣
锗
鏑
醂
轀
跬
寶
趔
趄
谶
譟
譞
訐
蛔
葚
菟
苴
臾
罣
缙
绾
绡
繾
綣
穠
碣
皸
癔
猞
澐
渃
榗
椹
椀
桠
戬
懑
慤
愎
忾
幇
嶸
姹
妪
堶
堨
唛
哚
吲
劊
丂
⸝
onych
଑
ilt
쏼
鹀
鷥
鱘
髀
饴
钣
鎩
錤
鄞
躙
蹰
蹩
豇
谄
▁drag
覲
螻
蝰
薺
薌
蕚
莴
苅
绢
绔
筚
笤
矾
瑳
珐
玹
燔
瀣
沆
榉
梠
柺
杈
昺
撙
嶗
嫄
壷
堊
圄
教师
囹
嚅
嗫
刎
❿
츤
챤
뤽
뇸
껐
鸳
鸯
鶘
▁Mate
鳟
餬
颧
頎
韁
鄲
逡
贔
豺
謅
諄
衿
蜇
蚱
蘚
蕤
蓯
莧
茕
肄
聩
笥
碚
砵
玧
犛
涠
浃
氳
橿
枴
摈
揠
挲
恻
怩
忸
嶙
峋
岿
屓
塹
垩
唳
咥
倹
봣
뀜
괭
鳕
阈
锒
鐐
貲
蛰
茼
罌
篳
硤
硚
瓚
涿
慜
降低
孿
堛
埚
噚
刽
俋
➯
깻
▁import
깰
鳝
餑
輌
踽
赳
賅
讧
蟄
蝼
蒻
蒟
蒗
耷
耒
竽
窨
瑁
浐
栀
旂
壐
囃
佻
첵
main
뀝
鹌
騨
躪
赅
諉
詆
荖
胛
眙
瘢
甾
瓴
猕
氤
摑
꿋
龈
齎
鲶
騖
阆
詡
觎
觊
襁
筲
瘜
瘘
狛
犸
炷
潸
扪
徕
崂
嘚
冑
儚
僳
傈
ṙ
뿅
鶉
鵪
鰂
貔
謾
褴
褛
裊
袈
耋
繍
盱
溏
楕
戡
慫
幪
嬿
埂
啻
呋
兖
쐬
龊
脍
▁couple
縹
緲
痼
猙
狰
犷
爌
撾
悻
儋
pere
傣
⓵
뺐
깼
轼
轭
蹉
謔
蝟
蜍
苳
缥
篑
狽
濘
滸
浹
忪
孱
奂
嗇
匐
儸
maks
倏
➔
sett
铤
鑣
鄱
郫
蹑
跄
覬
ERA
覦
蔷
艋
檎
枇
杷
杳
幄
嘹
伫
tho
📰
썽
빴
龌
轢
軾
踌
谩
讞
蓿
苜
牦
梏
斛
嬛
剽
ὗ
챕
뷴
鬣
驒
锢
醯
躏
詬
纫
纍
篝
睪
痍
▁Porto
瓯
獰
孀
嫵
偲
챘
쏴
鱈
鬟
馄
饨
谧
讴
譎
莠
膵
篪
瘠
狞
囔
❏
▁Natural
骯
饽
醞
贍
诣
袅
蟋
蟀
籁
礪
泱
汆
槤
惴
嶇
꿉
髖
顴
靦
臃
瞌
獼
拄
鹉
髏
霎
遢
蹒
誣
荨
瞠
楂
嵯
充分
⟵
뛴
鸠
躋
蚯
尤其是
蓦
紉
淖
淅
樋
揄
捩
怅
弭
▁gu
側
鉚
谆
咘
꿇
輟
胭
岖
孳
፺
鶩
骛
餛
铛
讐
衩
斕
阂
賂
蝌
茴
颶
轅
蜴
矸
▁Sm
徬
跚
诟
蜚
瘙
琺
帚
倣
谙
腼
娯
啬
咤
▁Fat
隷
繚
礴
潦
啕
镯
缮
蜓
眈
抱
痉
殃
槻
₽
黝
閡
釁
蹂
蜻
惆
埗
瘓
掻
퀀
效
눴
눇
齦
颼
蒡
耦
怦
屉
榈
፸
搐
徜
徉
壌
sund
遡
褻
蝸
潺
忡
🇸
靂
獗
預
醐
遑
覷
袤
岌
儼
俨
鸚
鵡
烊
渇
嚀
缭
橢
굶
琲
뱉
髅
咄
鹕
鹈
蜿
ጶ
爍
馒
Ἰ
猾
酝
洶
۪
迥
暱
蜗
儡
彗
鍰
郸
莅
羈
殡
亵
謳
慵
糬
뵙
诧
pari
诅
辄
誹
蛻
殭
惬
끽
▁any
痪
邃
盥
屜
ὅ
鹸
侏
痿
咙
荧
飓
깎
饪
ἶ
腑
쨌
抨
胱
깥
媲
汹
螞
肌
忑
忐
娓
꺾
梱
벚
躊
婪
脚
溉
琥
邂
컸
痺
疎
匂
耸
뚫
尷
犠
꼈
骼
Ab
悚
惫
씻
髦
兢
绎
谴
睞
渲
崭
촛
瑚
ၰ
挚
剰
▁Spec
琐
譬
帜
붉
par
▁manat
恳
嗽
̋
눠
揺
瞩
癜
꿔
‣
睐
酋
깝
썼
痩
橄
拶
邏
矶
牺
ଔ
寞
谅
ὸ
檬
켰
揃
괜
繋
拡
蹈
诞
깊
雰
圾
槛
険
垄
ଞ
徘
赁
徊
蜘
踴
’
▁Mo
eris
url
love
吸引
ND
▁tarp
fund
▁Eng
▁Bob
▁William
皆
NK
ide
▁dood
▁GO
lach
▁14-
eg
▁Fly
▁negativ
▁unit
Video
▁Old
▁Carl
静
▁CHA
bog
▁90
的时间
女人
▁alia
esa
▁CR
las
▁Nak
▁Ata
▁Express
ara
▁Special
amp
▁South
▁lan
▁ost
▁organism
▁wis
▁pale
暗
etto
cky
ent
Ā
fog
odo
▁bala
於
▁adult
EG
Her
健
NY
gade
喔
▁research
▁slo
獲
▁Gabriel
uter
▁conten
ITE
FT
kkal
▁enjoy
▁pru
▁rik
▁24-
50
不好
▁mada
aidh
ors
cip
rken
▁ama
Bar
▁tang
arma
▁epi
价值
ert
瑞
▁Fast
蘭
▁industrial
▁boy
p
bart
kers
有了
▁economic
▁costa
▁Eli
ithi
▁tout
普通
elsen
超過
onen
▁priorit
tent
▁Xi
buru
tam
▁Wal
▁nihil
ikin
▁send
蛋
▁MD
rius
rier
apo
seg
wol
▁Dar
速度
糖
▁Fran
項
▁xi
nana
rli
spiel
死亡
itos
cad
eria
▁importa
**
ology
vist
规模
▁Vali
甜
Sch
▁scen
建議
guna
▁candidat
▁Han
▁Ami
▁lib
▁Kop
tei
▁Lin
▁2007.
tain
▁ha
......
▁minuti
▁Ra
▁Date
▁Act
再次
滑
▁basi
rav
打
▁charge
電腦
ijn
tum
▁rapid
▁Guru
▁train
cons
▁realiza
gram
▁1,2
随
▁foc
AJ
了一
INE
MM
▁poker
at
▁Tak
nikov
online
nze
hard
▁gilt
west
:21
▁mere
执行
▁Eta
▁Sad
ussa
的重要
文
▁following
乱
带来
▁word
zett
▁slag
▁PI
▁ideas
ib
rela
席
RM
vista
huis
台湾
cular
業者
:05
▁Royal
モ
ringer
jpg
▁Thank
▁1978
▁regi
elen
▁Gun
ibu
妈妈
▁VII
mog
lies
述
rena
full
课
課
▁Canada
:24
如今
下面
▁left
重大
RC
表示
都会
ones
awan
身上
▁Dec
toi
arum
▁face
經驗
▁Rp
▁Pap
inci
stig
征
▁prop
▁wa
sten
終
▁move
ail
▁You
vision
▁112
標
东西
▁CS
▁together
▁Dam
▁moni
▁ble
▁Bus
▁berke
itur
25
▁VA
wood
▁Dor
▁mat
欲
潮
kel
岛
井
▁estima
▁Zen
伯
14
kast
▁Informa
▁Say
▁Mail
▁students
▁Bola
▁mic
▁Management
老師
▁spin
ck
勒
▁Lebens
kal
▁Kannada
▁push
▁Museum
▁grav
人类
ally
力量
enie
▁Singh
mend
▁13-
▁dieta
▁Yan
▁Cali
▁gradu
층
yet
▁nan
owe
產業
usz
本身
▁sensibil
...
▁af
vel
商业
▁message
▁Nokia
bag
花
pli
姆
sku
消费
hib
官方
▁gave
▁Find
imi
ffen
▁Duis
▁yao
dini
num
▁dare
fika
okra
▁signal
oak
▁Ve
▁Stu
gren
rva
▁SR
▁De
mento
itor
UD
▁Kay
▁smo
▁70%
cial
▁misma
▁luna
比
article
印象
▁tea
▁formula
▁propose
惠
▁Make
▁hip
▁tung
sse
作業
這次
的事
▁bir
度
▁EP
▁(14
teria
參與
▁mening
PU
設
▁Face
セ
▁dru
过去
eka
ici
taria
透
▁prese
%)
uva
▁animal
▁bara
laus
gers
▁Majlis
loga
▁yen
注册
▁Call
▁nice
ani
思考
▁dod
mber
▁knapp
yum
资
▁MAN
▁fill
許
胡
和
ap
even
▁Haf
这次
▁Cri
enden
▁Korea
▁let
zil
▁Simon
ira
興
▁Gau
peli
▁speciali
elser
pren
▁city
耐
▁dock
▁hir
▁figure
▁laptop
▁Radi
人物
▁Hil
▁pu
rani
yw
▁pom
感觉
usti
▁solo
▁Bang
▁interpreta
說
stol
负责
ko
▁alt
spar
這種
eed
▁restaur
俄罗斯
渡
labora
看着
印度
▁My
:59
legi
Ve
▁ask
mus
▁basta
holm
▁Satu
▁kroner
刚
▁ff
頂
▁Pam
pang
部
hk
▁Waa
rza
igkeit
▁heart
▁script
mi
cii
幕
▁pan
quen
▁Pet
ating
▁dialog
▁Shar
▁Premier
▁1975
▁Spe
cess
nete
afi
美
motor
圣
▁against
▁CI
jem
phone
▁128
特
dela
nas
wad
童
▁cla
▁symbol
graf
暖
訪
作者
▁Tartu
层
JO
▁2018
ble
▁lager
▁graf
▁top
至少
報告
心理
smo
▁Internet
别人
兼
项
▁Upp
▁Todo
kina
▁mon
▁TOP
▁300
▁Sultan
▁Reise
▁stro
zir
▁parasites
vite
▁inge
atura
那
▁programme
▁10:00
▁Student
▁liberal
▁include
論
]
▁hub
记
并
lho
pide
制作
▁including
▁Hi
agu
▁Lig
▁disso
▁Sig
▁fram
5,000
▁Imam
公司的
▁quen
▁figur
▁1944
mp
基础
▁rip
rin
vare
▁Merci
tius
mund
▁45
▁1981
lp
▁berat
gel
pping
▁correct
▁prem
voi
▁influ
説明
苏
▁nie
13
▁Kuu
費用
igas
▁expert
iem
面对
▁slab
幫助
袋
▁everything
▁1983
自我
pm
▁Key
▁Back
osan
▁most
▁Sus
▁holder
▁there
▁■
▁Mega
▁points
dura
▁Bos
▁started
ruk
iant
▁matter
▁invent
▁Ona
주
独
▁17-
貸款
pende
klas
urus
stilling
▁2007
▁Angel
▁TI
▁community
▁Video
開發
▁salut
dez
09.
▁favorit
▁ura
歡迎
feri
▁21-
購買
rich
EX
anne
LC
▁canal
▁accept
YS
▁minus
▁means
Ru
▁RAM
▁Japon
▁Khu
方
編
remo
ery
▁Domini
▁travel
euse
logo
nog
pru
ood
-30
▁e
st
ras
持續
ZA
TOR
xon
现场
▁menor
ag
▁jun
▁produc
LT
▁final
kart
camp
由於
▁pt
無
aye
加上
▁cod
▁legisla
組織
nis
존
▁others
长期
▁stark
▁cinema
▁metri
薄
▁urban
LET
積
便利
▁spl
kok
ve
▁volt
hora
▁conto
kura
IDA
▁needs
커
▁oss
▁Hospital
▁dhi
tiko
▁euro
▁Control
▁complex
TY
:35
▁spar
係
▁young
▁nomina
▁anim
mera
▁mil
dare
▁ange
▁OG
▁law
▁price
▁elimina
丹
iano
▁Abs
鞋
toon
uara
由
▁Final
NH
▁mata
▁1977
▁transform
gje
nya
bil
dian
HU
▁deg
▁edit
▁mesti
maj
实际
▁low
quer
▁Sko
dua
▁Minden
▁채
顯示
▁nei
ald
道路
isi
▁(11
stran
▁akin
▁informe
宣布
▁Sla
有很多
▁Spor
▁Box
了一个
La
而言
lite
▁conditions
▁labi
过程中
了
tzen
ktor
▁Erik
sai
狗
penda
kovi
cura
▁Thanh
/2016
igis
ante
:31
刀
意外
▁Schul
▁Kan
▁Project
jala
▁fran
▁Videos
forma
一人
▁determina
▁Leg
seb
Q
公里
▁mela
▁eos
▁Termin
ûn
ddy
▁rand
▁RT
>
▁Ble
模
▁3,5
委员会
b
▁vol
rag
ijs
▁datum
dite
▁Sea
末
ember
胜
oq
▁Herr
▁ales
scheid
行為
ifi
▁Book
▁Kind
markt
需要
coli
nius
公園
zina
君
▁rag
▁Nee
qan
sada
▁CV
mal
▁produce
▁who
valu
3-
稅
▁M
▁Ek
DL
grund
辦
▁ind
▁Py
abili
▁games
FC
kiri
vina
男人
aan
▁HE
enci
wier
▁labore
如果你
Pu
▁UP
▁Mu
lever
▁Klein
dili
▁2014,
jas
▁resp
▁DNA
试
▁center
inan
▁amet
Fo
:27
疑
com
▁Archives
之外
mere
rge
▁popula
▁Contact
▁1950
kamp
▁Pana
创
att
ega
meli
▁Dann
▁formation
参
▁Water
abad
partner
▁elegant
bora
▁viz
農
海
▁Lit
▁Luis
养
句
gali
ated
▁gras
▁Peng
maat
erings
toni
▁sever
▁1940
▁real
roll
mbro
▁365
▁span
一份
回答
▁Em
sic
▁rece
(1)
▁tal
wl
▁government
▁Ro
▁Hom
cn
▁Fur
負
IMA
ncy
▁Bit
labor
▁Geschichte
mpah
▁example
▁Nis
旅
▁Nulla
屬
enze
▁ur
▁Bok
anca
▁proper
▁vi
eder
ango
▁2.5
lte
vind
怕
geri
AV
宮
rit
▁Stein
变化
経験
报道
▁bari
民族
附
sto
美食
cket
ダ
▁Dun
▁Pic
enia
▁parents
▁Johan
▁(3)
▁pass
▁32
▁uro
准
一度
▁vine
elem
▁1974
▁pe
▁Attribution
▁Dum
番
▁Um
rahan
怎麼
▁Bali
▁stud
▁Cy
▁Post
▁driver
势
之间
▁Programm
▁4:
起
体验
盘
▁Gas
▁cancer
▁Jer
▁Mustafa
▁Rum
▁host
▁qua
▁often
▁Work
▁Isa
▁Agus
▁act
▁Ibu
▁2012,
▁accident
arse
▁experiment
即使
▁Agen
▁1968
oms
▁modal
成
ics
▁OP
bund
▁stimul
▁said
▁within
▁inser
▁would
峰
認識
▁penal
kih
▁ster
א
检查
▁Human
ndus
▁been
0,00
ake
▁From
kov
radh
▁Zem
altra
▁Trang
出口
me
▁mod
▁cose
▁Historia
▁Arte
▁ende
▁Eva
zioni
lm
▁permanent
▁lie
▁Had
▁Io
zad
几个
▁AZ
家人
stra
moni
传统
售
▁Kru
gari
▁Charles
讀
我們
▁Australia
-25
js
ribu
▁Agar
▁;
制造
运动
▁hey
:26
▁gyn
▁matur
SKA
red
▁AF
▁dicta
品質
투
▁understand
▁Online
▁grill
复
駅
▁DR
ible
▁pane
▁Hey
光
PDF
效率
AF
tir
事故
▁auk
▁(13)
iyar
:28
leg
▁whole
quin
▁salt
uden
▁prima
▁create
bata
▁decide
sens
重
▁108
meld
結婚
▁Nama
A
▁part
▁scene
相當
合同
我是
ato
tione
施
kler
▁disk
▁cara
智能
▁obo
▁update
▁implant
限制
loop
▁Fach
▁PAR
曼
▁dis
▁Ima
▁subject
▁Foi
leh
:02
创业
▁Gil
▁Regional
40
▁교
▁biologi
umas
他们的
unga
field
▁Run
DP
▁var
nem
湯
数字
许多
▁print
电话
▁also
▁libri
bra
▁Kro
主席
整理
rop
英語
bai
長
▁topic
▁bunga
▁Polski
▁Lumpur
vida
▁tit
▁prev
bat
▁Lagu
沉
yana
torii
puk
EF
dium
▁complete
▁culpa
▁um
KT
▁1976
tap
ring
▁Frau
ashi
dik
pita
ambi
▁gran
▁Any
Tra
lac
▁them
inius
▁anar
▁track
當然
Va
tuse
:55
▁Nou
0000
▁(1
lif
ear
▁(20
hov
uten
▁7.
▁regard
▁25%
理念
eiras
▁perse
廠
lici
▁seminar
schap
jan
职业
Par
▁infantil
▁Update
ハ
kja
atio
前往
tato
▁mm
追求
▁Restaurant
chas
▁Amar
不得
▁Fun
小时
ajan
每个
gal
stic
mili
quis
▁ER
▁국
▁reli
▁seal
.3.
典
tad
电子
▁rural
ade
▁Normal
:03
mn
ativ
▁1930
▁anti
thai
fer
▁Science
英文
住宿
▁Flash
oš
指定
▁sli
▁fam
唐
▁parti
▁jut
▁lave
▁rac
▁scor
面
malt
gera
versa
責任
体育
▁1200
al
▁cadre
制定
▁European
KK
▁competi
NP
zien
leta
▁Polis
▁Lip
民眾
進入
amus
▁hyd
At
able
▁descri
仁
ama
▁Code
nada
▁Med
▁Pass
▁pretty
▁barna
tvi
sara
liti
ebi
tour
繼續
▁Visi
▁permit
▁che
room
▁reper
▁endur
Dr
atha
调整
nosti
TB
lke
▁Bab
fang
▁exterior
vra
▁alarm
eyn
▁sport
hul
▁jin
oria
▁follow
fod
programm
elis
▁redu
▁integral
duo
/08
▁1967
TR
ccio
▁imagine
▁Yer
回家
▁gest
▁Network
液
▁ma
uses
manna
▁Ga
cido
dono
▁Pl
最佳
gono
▁conce
拜
garri
▁Leo
▁tira
▁gens
▁child
▁Bergen
▁Doc
▁sul
宣传
▁manu
▁St
xt
OC
▁걸
竞争
市民
举
ref
tral
meter
状況
%,
▁locale
充
▁—
pack
批
▁offen
▁Add
▁arab
勤
自動
▁disciplina
▁Imp
RAS
ova
▁felt
仍然
购买
▁Adi
保证
rr
▁hic
▁Oli
▁1972
thy
是不是
這
本次
erii
▁115
nky
斯
▁relevant
▁ON
qar
tre
cili
▁gum
標準
5000
▁Holland
:29
▁MAR
属
▁motor
▁Blu
▁Studi
▁cover
▁cel
bada
好像
满足
▁Kala
iat
inten
対応
olta
oca
asca
製造
下去
SEN
rog
S
▁Jones
nse
▁motiva
unter
▁vene
考虑
▁peti
▁summa
▁Moment
mmin
这个
▁rosa
zak
Pi
TEL
▁tid
證
▁agenda
fet
▁musta
ized
▁yr
居民
umba
and
良好的
▁culture
▁fas
unni
▁station
▁az
▁Nie
▁provoca
hat
▁EX
riga
segu
▁Mae
veld
大部分
▁specific
▁mean
19
arii
▁Pedro
ief
▁condi
▁maro
感情
▁implement
慢
▁Ny
▁interpret
.4.
▁stel
▁wel
▁prom
Sam
wedd
梦
slav
stab
它的
pea
事业
?"
hom
▁girls
▁termina
元
▁Koh
hos
tro
Kon
做出
home
4)
▁zur
到底
HR
▁true
▁image
▁Tage
▁educa
日前
ika
▁SS
wane
ighed
czek
Is
ed
以及
掌握
▁kh
mine
我們的
▁Mind
xar
tora
▁26,
他们
xta
▁Jur
leb
清楚
Men
itta
▁best
▁Rosa
▁Boy
ALE
逃
双方
▁Trend
▁problem
▁gym
pik
vim
yna
jit
▁Maz
身
▁sports
▁court
▁stru
tige
▁Rela
▁aux
▁posi
▁College
做到
▁blo
蒙
▁oil
▁ko
kur
登録
身體
kio
doc
陽
▁narra
▁faire
▁sain
▁Lie
csi
▁1973
TK
兴
▁Ri
▁sue
搞
▁slav
▁mission
▁testi
iae
▁Ost
护
tien
▁spr
▁Finland
宁
clu
很好
▁Share
ice
waar
ny
▁View
▁solution
▁Ey
uca
▁prim
tem
trop
abh
▁Tad
file
▁address
lasi
oth
▁Inform
採用
▁28,
IF
rage
生活
▁kin
適合
ito
▁PRI
▁Sek
nali
hap
▁debate
▁trois
lino
▁medical
IB
▁vivi
資源
ndri
sive
▁rap
imme
▁Acc
▁ni
▁Ein
:32
销
hall
▁Linux
▁Bir
▁mor
▁Sommer
意味
▁Fla
▁Ter
lita
LAN
ivas
先
往往
▁step
府
obi
艾
企业
▁lep
▁attend
▁mate
▁GR
美元
混
tras
▁Van
▁Histori
,
o
ki
▁Ibrahim
▁Gai
來說
FE
tip
隨
▁Cu
就在
▁fix
▁info
▁bora
▁yo
▁inci
熟
▁eg
▁neces
ukka
▁deriva
llet
▁Zanzibar
即可
不斷
關係
維
▁Fol
nais
車
kana
gata
▁Brazil
center
▁Mas
”)
库
ERE
▁Nei
▁save
am
▁Dit
eran
ASA
bera
FF
庫
RL
▁Urdu
nant
faq
▁flash
▁rendez
▁Inte
來自
menu
trans
▁hei
▁gi
▁Geo
Fe
里面
▁bor
uke
理论
▁devi
▁hotel
RAN
mme
▁240
ids
itar
▁Sigur
dur
▁Meh
▁Manager
:34
nout
應用
▁etc
▁oral
▁gem
共有
▁esp
▁IL
:37
医疗
就像
国
欧洲
agit
tele
itsi
Mer
atlan
▁Sana
sip
▁poet
▁BN
延
▁Kang
▁vent
姿
▁solicita
没有
sional
▁27,
▁Dha
rbi
导
冬
2
issa
▁vital
▁everyone
▁pride
▁protected
明确
▁brak
▁Market
lling
vy
soo
▁Excel
办法
▁Ili
▁test
▁tran
▁Vene
▁besi
din
Det
ratu
▁Fa
▁socio
▁filtr
▁federal
▁simples
▁hep
的一个
hy
▁projecte
▁Jana
▁target
▁editor
till
▁devo
▁Kamp
来看
yp
▁6
dra
Har
lingen
2004
ksi
PER
rato
▁kya
欧
务
hong
▁Cab
▁DW
achta
ever
oru
▁Chan
ša
▁lap
▁750
mov
jera
▁imam
yta
此外
Web
核心
▁makes
cita
poru
TAL
▁Heb
▁PD
▁Jacob
lji
ration
我就
om
▁presse
SL
▁divi
Hu
▁Rob
termin
yah
olt
sina
结构
▁gratuit
▁230
vale
tter
rst
sider
▁Bene
real
meri
忙
OO
礼
▁oppi
露
▁kil
goo
▁Story
▁bare
太多
▁60%
互
实践
sque
▁some
ots
放在
▁va
▁mambo
ikki
▁Please
idea
tt
▁Kada
lant
div
etes
vant
▁wi
jang
xia
logi
泡
▁ζ
▁Pi
▁combat
▁return
upa
▁rank
lang
突破
▁adopt
▁102
ory
▁Kut
▁LU
裏
LD
▁learn
▁associa
▁alternative
▁ta
▁soy
▁calor
▁England
▁Milano
gaard
▁Travel
▁tipi
过
▁Gala
▁hod
parte
▁2006.
ymi
ise
▁KB
▁told
販売
▁Manchester
▁NA
宗
激
▁rug
一點
bez
lande
▁fora
▁genre
▁29,
▁arriva
▁voli
▁fear
一種
tini
▁hos
集中
▁assist
rody
tyn
un
ego
forum
魅力
▁stor
判断
刻
person
▁polit
▁sac
▁dame
敬
减
dine
▁German
▁cau
特殊
感謝
▁Kaya
core
编
当地
yat
luar
▁Winter
uq
cho
▁Mario
boy
▁Gali
▁Musa
ures
▁lav
▁V
凡
関係
经常
▁blond
农
▁org
叶
quo
▁preparat
spill
包含
著
▁moment
ICA
▁Light
▁enter
▁fad
gran
▁Comme
恶
ETA
▁len
▁RI
▁Wel
嘉
vak
▁parole
▁lub
TF
▁104
?
▁ke
鐵
dors
▁Party
▁1965
卷
aju
hani
vor
▁Ole
▁Dos
-22
his
▁Tout
二十
▁1969
▁Director
▁Disney
ities
REN
noma
▁cui
rvi
▁issue
▁paro
nost
vada
▁manager
▁1948
й
▁obli
ige
▁ince
獨
▁ru
然後
調整
▁15%
▁sol
▁Fire
scen
完善
▁month
ua
▁mutat
21
▁plena
浮
lder
lez
ismo
tier
挺
▁canto
:33
▁obe
xes
gga
▁C
zen
▁(14)
diri
▁dere
已
▁Mira
▁doz
pura
fu
▁ET
DM
▁sole
▁link
head
▁Nad
有關
▁export
另一
ONE
▁Even
窗
TES
▁Etter
最好
基礎
▁which
宜
▁Andhra
culo
erin
▁cu
sign
ves
lde
▁voca
▁Sveriges
▁letter
eve
▁Eco
tte
tuz
IG
▁source
Read
▁master
路
▁rid
lud
▁nit
▁UM
▁leave
bit
▁Core
黨
▁Rah
show
EI
▁Some
pte
▁Resort
varo
▁nu
lim
opa
不了
▁Segundo
);
▁sponsor
建築
我也
▁nature
巨
krit
▁COM
企
▁Ad
nale
汽車
手段
▁DC
▁factor
eye
▁Texas
▁tibi
manda
San
▁api
还
▁Index
▁Victoria
▁role
motiv
um
▁Extra
▁Disse
意見
些
▁Svi
cana
information
zis
mali
屆
ongo
▁patri
▁Kanak
▁mega
wag
kay
收到
muz
▁Ab
害
▁solu
aith
tische
pom
▁spring
▁trying
eto
Qu
刺
terna
▁Vita
▁(15)
词
▁Salah
nika
举行
ror
cet
kada
▁ele
zug
▁Judi
OM
▁All
▁Gia
▁reason
营
nou
mers
▁Bou
pas
▁Bah
mpel
iah
▁Franc
紧
tory
rios
ura
▁disputa
txa
mok
▁Emp
dau
同
▁Ray
rec
:53
▁Pasi
▁pies
bala
引起
ci
▁pela
nzi
batan
创造
至
時期
moc
OV
▁form
mobil
ICE
仅
bach
eten
都在
▁Chris
▁Leon
航空
时代
▁Angeles
很多人
好好
▁OF
reich
联合
fas
▁tes
▁adam
▁coi
pan
▁dugo
壁
bele
ku
qui
▁Frauen
bey
▁resulta
artha
内
▁UV
橋
▁daily
▁cou
媒體
▁Og
titi
tegi
击
▁stock
▁browser
tinen
My
hta
nud
▁URL
▁lev
区域
RK
▁Mere
▁grande
elm
if
希
▁probably
▁quality
▁compara
lar
▁Have
▁location
fis
▁fait
MER
Sp
▁Luft
▁Vien
二
▁Ee
▁identi
▁Gri
sey
sker
▁yourself
erne
▁Regi
▁Iar
holder
營
▁gin
公开
磨
资料
rt
lha
:41
本人
▁Kort
▁Qur
vola
gay
位於
▁styl
bong
脸
veg
綠
en
▁din
ront
广
Allah
▁Information
累
能源
vla
▁CCM
slo
▁laser
寒
script
Por
▁List
▁salva
祖
fia
nten
wan
stos
arre
yya
▁lim
osh
▁age
現代
▁mund
rava
free
杰
中文
2005
所以
hub
plus
ckt
dv
guard
儿童
avan
▁Zer
menta
mele
▁Moi
iu
▁Blick
lato
▁Audio
oya
did
▁Hava
▁Hej
▁XXI
▁focus
▁1971
写真
▁8.
技能
卫生
term
best
kk
arkan
▁Brun
▁Polo
▁Photo
▁Chrome
yz
一个人
hen
▁wonder
2019
raya
teh
世界
ボ
▁plastic
▁Beh
▁Vr
进行了
▁tank
也会
评
▁Cas
判
▁Este
▁quite
很大
▁Tho
prat
▁mica
▁KM
▁These
YO
▁pp
bula
▁spam
ajat
cord
KY
gericht
▁when
署
独立
▁720
真是
tw
及时
esto
hri
購入
▁mi
▁Cast
下来
wid
ifa
純
资产
sch
splan
gaz
▁exist
▁mom
hia
▁posts
▁corri
▁책
▁Nap
▁plen
arti
▁vul
UB
▁Ani
住宅
▁function
/7
澳门
▁glob
aggio
tha
歳
▁deci
▁wind
▁lung
咨询
ec
▁valo
都會
corre
ece
viet
RIA
树
lane
▁pika
▁pria
▁chat
▁sod
財
鎮
的話
▁amalga
的朋友
▁make
ymas
▁journalist
▁Stand
迅速
▁pem
rock
▁comes
zit
▁tas
gled
▁Happy
▁150
rice
▁Rang
▁Bar
結構
guer
▁Union
确定
mete
▁Pis
▁Angli
pont
▁Capital
▁River
比赛
▁segue
▁Ik
▁Solo
world
MC
▁hoop
lega
▁writing
簡單
GP
寺
▁Hoa
2017
蒂
▁habe
▁strand
▁wish
▁investiga
銀
▁moder
▁mendi
OU
个月
tet
vani
▁space
▁Ober
▁begge
▁Yes
kere
inin
ukai
rga
br
▁Job
紹介
▁fen
▁mobil
nski
wij
▁uno
:07
▁tee
作
▁history
所有的
yak
瓶
▁procura
搭
:44
misi
量
rud
▁proprie
最好的
nari
台
heng
▁Bien
iston
mies
bela
Kar
▁recens
藝
▁Lyrics
▁Lisa
dab
▁Great
sari
全体
tres
▁Vale
lege
効果
▁member
iona
重要的
ce
▁vesti
▁Foundation
LV
▁universal
同意
▁ont
car
serie
agrada
▁beg
▁demonstra
lc
zy
▁finder
舉辦
▁bran
schau
▁IR
zur
emia
几乎
▁Com
▁institut
▁Anu
▁bone
以外
▁VIII
▁Fund
va
▁Ji
:46
enzi
iff
▁This
都能
▁patron
zzi
个
途
ISI
▁2006
:36
▁Marka
在一起
iOS
nica
rzu
▁pizza
▁sme
▁Two
▁Peru
▁Mange
▁wal
▁XVI
big
▁soft
▁model
租
▁FI
拉
▁abandon
星期
=1
u
kan
燈
roga
kona
jut
正
弄
▁Thailand
但是
▁write
▁Messi
ICO
規定
▁ing
▁Ran
売
券
telli
▁japon
sam
buch
▁Castell
hing
▁Bandar
pora
沿
▁(“
▁->
▁́
ENA
▁Search
距離
laid
第四
▁Moto
▁man
▁By
▁Nh
xis
▁PL
顺
▁Hamburg
作出
▁Arm
▁network
▁Hab
qat
▁Ju
Italia
rych
▁cl
無料
esso
棒
iller
▁Wa
园
▁opinion
▁pata
nei
Pri
:06
▁OR
normal
Cu
▁segment
▁tha
Ber
▁YA
dno
让人
vide
▁Cla
▁bi
JI
插
mple
:43
如
▁Sv
deg
▁telo
▁Honda
▁Var
藍
gare
bali
tola
物
▁along
飯
▁creo
▁LCD
uz
下午
VER
进行
NU
▁Anton
shwa
▁Lees
▁Mest
▁hor
跨
▁Ron
▁regn
▁join
▁Glas
悲
:04
▁percent
v
nega
runt
▁However
trin
▁res
leid
zol
▁Anal
環
viv
her
lala
▁looks
▁Marg
▁Wir
▁Gay
teet
▁opere
ay
▁cargo
▁Spi
成了
kend
▁pau
▁Wild
▁presa
ongan
▁email
ilia
▁B
團隊
替
▁patent
▁popul
▁Jan
ranje
▁Platz
tale
▁Typ
▁1900
▁Beat
buka
▁inaugura
▁ping
发展
▁gust
争
▁Jis
▁relat
vka
▁Lund
UI
▁Or
▁fro
▁Mehr
▁Tribunal
▁Kurdistan
萨
cate
载
Nya
tief
▁Lu
▁facilita
▁KH
▁Bell
-24
都是
▁sku
考试
:42
属于
▁lands
▁Spre
意識
杨
甘
ex
采用
是一种
avad
emp
▁Faz
tett
pop
tering
▁personal
価格
▁LA
:47
上了
rep
傳統
:58
▁punct
▁Oscar
▁hell
▁bo
▁ovat
wet
izo
chter
▁Sam
ktion
采取
ife
▁Tren
有所
▁represent
▁Mot
▁col
誠
cine
▁Oct
rak
▁shopping
sert
服务
▁soon
的好
▁fir
▁Bull
MET
▁fili
hina
▁interview
amat
fah
▁Im
cri
▁Sele
yn
吹
协议
让我
教育
▁nothing
valla
urre
贵
刺激
antar
ager
才是
培养
▁Company
載
used
▁Rep
▁delega
▁Minister
III
antis
▁precio
▁Kina
ush
nding
ian
rida
同样
一条
pje
geni
烟
腿
mester
▁militar
andin
▁L
店
shan
決
主
予
▁road
dienst
weis
保险
案件
▁gau
它们
iers
▁reco
是什么
kake
folk
▁ponto
▁Tah
ies
▁Jin
▁90-
legen
▁Total
final
cup
老人
▁Joseph
eho
▁VIP
dia
依然
课程
▁»
教學
▁statu
▁planeta
:52
发展的
driv
备
▁search
▁people
▁interest
▁terminal
材
▁tug
nz
▁Sale
▁pista
bec
▁ann
▁building
▁fli
▁bald
mila
jos
lings
nod
ANT
▁Mie
▁K
▁ses
hag
junk
▁season
AE
jar
uhu
▁ev
dava
yy
▁Kama
▁4000
具体
nila
phy
月份
xer
alkan
ure
幫
▁alde
schutz
德国
协会
豪
gah
▁22-
▁Roh
▁pla
▁Liebe
Dan
▁01
▁inf
365
kunde
针对
Em
bd
vah
▁words
▁Cras
慢慢
GS
stone
▁pure
▁Argentina
▁OM
nade
:38
▁Ben
菌
公告
▁clip
design
▁chy
ek
▁President
dies
lda
▁Wars
bor
▁belli
▁Buna
▁18:00
▁Kar
temp
▁bal
▁Taifa
ppo
▁Games
lova
▁slim
▁tro
vine
OST
cera
下降
▁VR
▁Wahl
terra
▁God
▁value
llan
ombo
ak
鬼
▁scri
nko
gy
发挥
污染
嘴
▁tracta
fle
▁aeg
丽
如果
▁dim
▁wiki
ケ
頃
pila
rys
可能性
▁Werk
技
▁kids
▁debut
▁brat
腰
並
各位
UND
RY
▁reduce
▁friend
出版
▁U
▁kata
▁Pun
就會
▁sembla
▁Petro
ip
禮
日常
hane
arios
:54
▁Journal
cer
基地
endra
PD
京
▁want
厅
kau
kak
賞
hrad
▁poole
PN
▁person
lando
意识
鱼
▁id
RES
legg
ORA
▁Urban
ando
▁given
主义
001
尚
▁histori
porta
▁Abdullah
▁Hav
2003
atti
時間
観
老
▁2.1
▁rate
流行
▁Va
▁Original
vila
pro
tawa
:39
:56
▁Food
▁percep
高度
演出
▁1939
▁milit
via
严重
reje
▁m
scribe
地域
:48
申
▁23-
dens
chem
▁lug
▁sne
冲
洞
▁Markt
▁atom
area
▁1.2
优势
our
deli
附近
就要
▁instant
nice
leti
▁카
▁held
har
▁essay
abe
深圳
▁Nobel
lean
cell
走
▁OD
dja
kto
down
▁trad
▁feeling
▁ure
▁ang
▁Sche
▁activa
▁bak
▁Selangor
wend
loos
▁parto
ket
▁Saudi
仕事
▁sto
minu
▁Cra
▁clear
絲
▁took
polis
歷史
▁Conta
▁Fond
▁Rok
▁development
戶
inho
iler
pam
sia
autre
▁pill
您
理想
▁arrest
haj
▁lu
▁Museo
▁Moldova
▁Report
cere
▁handle
bid
iol
OZ
stas
/2010
▁Sr
▁difficult
▁hon
cati
▁Hong
fung
▁pelo
▁hind
簡
ikal
▁Beli
▁bol
ši
vili
▁Ew
▁Marc
加
▁日本
estre
創新
▁sele
▁Nunc
ke
ngga
RAT
▁And
▁beautiful
roni
MG
raad
cl
▁teste
繁
stov
vado
万円
▁apart
gian
顿
表演
▁duo
▁kola
tingu
▁2011,
嫌
唱
▁MAS
▁Fair
▁o
▁non
▁than
▁scar
▁Petr
▁val
▁white
▁Class
meg
▁plante
髮
爸爸
提醒
▁Liv
ringen
绝
101
出來
警察
tud
宇
乾
asse
意见
▁consiste
▁Sloven
女子
▁below
enge
ents
德
背景
beh
规范
猫
set
김
▁Zagreb
Facebook
mite
heen
istan
▁em
▁discussion
▁fini
稳定
免费
經過
▁mana
fly
▁jar
文明
▁gre
rong
▁Tere
购
白
▁deal
erit
▁Ton
安心
lug
▁answer
:49
哦
▁Nya
▁Ces
▁Iz
查看
▁study
prim
報導
▁50-
tli
论
用的
▁Na
cio
研发
▁police
ob
▁Sei
TION
▁Male
tano
hali
口
至今
▁new
vec
▁Prie
vald
pele
etin
fta
▁ak
▁Nagar
meta
laan
▁Kosova
▁bio
位于
兩個
rico
▁shall
是
▁Salam
计
game
:57
▁Dua
▁esse
一部
▁bred
举办
▁Sid
▁hand
▁emot
研
cinta
▁gradi
lil
▁Barat
珠
镇
主任
leni
遇
▁Hello
▁Ord
bita
▁impli
▁103
▁cap
mentos
mama
▁jos
zing
kje
undan
tamine
▁were
hes
watch
ojn
haha
▁reti
SAN
▁condition
▁Zum
riti
電視
▁impo
zini
▁Ob
maha
▁Vu
▁zi
guru
结合
▁Vers
town
▁domina
▁hate
▁Deutsche
▁Sabi
討論
cens
Ter
minister
反映
uta
▁omnibus
esha
回到
▁land
fum
▁bela
施工
▁based
▁Ann
agan
liai
▁hoi
▁Bud
ITI
▁Fir
有一个
▁100%
▁Dies
tende
変更
會議
▁如果
saka
样
mac
100
▁Anders
mpre
▁noi
here
薬
▁En
▁Pu
▁Wert
IST
▁valid
▁wil
bris
now
腳
amy
想到
▁rai
vica
▁end
▁Bach
oza
tke
atul
▁respond
版本
▁bomba
▁cert
▁2005.
biri
工作的
print
visa
trum
▁fum
▁dr
加工
▁anyone
高校
有点
▁9.
▁serial
一段
▁walk
bal
麵
▁appro
wart
biti
nicu
퍼
旧
▁Mit
angka
zno
▁item
lagen
▁attention
▁pago
ATE
4-
esen
▁2000
istus
幸
▁Kry
▁Oer
音乐
▁personnel
▁libra
攻
▁critic
nung
▁barre
▁fail
iselle
▁Tras
的一
歐
och
ymo
有着
▁Menge
titude
RAM
xin
成长
餐廳
song
haf
▁135
▁option
fo
▁talle
rink
▁called
▁Pola
▁relative
▁HI
安
▁청
▁Tul
▁hur
▁handler
從
▁poly
▁hug
认真
日本
▁Review
▁vesi
mio
上市
erie
sav
dato
▁In
▁simul
▁ministr
▁pm
▁6)
aṃ
▁Castro
▁Seit
醒
▁Barn
tuan
VR
▁momento
nato
iPhone
▁Bul
集團
tura
iros
gub
▁Mai
kid
▁Ultra
▁confe
ela
gama
▁demand
nti
▁taking
博士
ular
▁myself
AGA
▁eru
胸
hald
▁OB
▁fans
▁7
ime
bane
hend
▁nou
▁Mode
广告
権
▁Malaysia
▁Yr
▁production
110
▁Vladimir
▁drop
rimin
7)
cident
nut
規劃
▁190
▁mart
▁Twitter
▁passion
▁viva
▁os
end
▁1963
kret
cki
▁trou
CN
Wi
wo
enter
ustus
麗
▁semi
感
glie
便宜
▁anh
▁Night
▁feu
▁Flu
▁Metro
▁Franco
ados
▁festiv
tiya
▁Aby
vet
▁Gha
mpia
rine
▁ora
購物
TAS
3
▁Sex
▁ravi
▁volum
▁total
▁175
雞
▁Victor
▁Santo
dza
▁107
皇
thar
▁TRA
区
▁taxa
▁1966
開
臉
Via
一旦
cini
NC
▁Vall
ISA
应当
▁tom
▁dedica
▁success
▁machine
sie
ocht
的需求
prop
one
▁Law
dej
▁eye
韩国
▁ה
ilor
▁wet
最低
NES
▁tac
▁Hasan
减少
▁1956
quet
细
探索
▁Sum
uci
益
BY
▁break
▁Bosh
計畫
fli
▁Esse
▁normal
▁dispar
tella
FS
▁sled
posto
▁lamp
▁2019
▁Selle
▁communication
opo
lo
▁2010,
唯一
▁how
男子
▁OL
villa
▁stem
▁jam
▁trag
▁Hadi
义
slov
cata
▁route
▁aid
▁Frei
urg
water
▁Poker
vira
▁admit
▁active
▁118
▁base
▁tack
rank
圓
SB
杜
灯
的人
菲
那麼
ulis
▁Baz
▁$
癌
▁WiFi
▁Lle
IDE
CM
就有
▁par
原本
▁bella
▁express
cant
现实
riu
▁stage
在线
行業
▁series
ew
鲁
伦
amma
▁ere
当前
족
在此
▁Mal
▁Kaa
▁egal
ibili
▁CU
shu
▁Ahmed
經營
首次
HP
宣
▁・
▁fia
3000
▁Mano
madan
lsen
mpo
开放
▁Tech
总统
Vo
ORD
uwe
ros
mpf
▁Dub
gging
▁truc
det
vast
▁wanted
后来
▁sten
lag
봉
▁Cruz
▁mans
▁111
▁Logo
sdag
▁ideologi
▁gar
监管
lette
struct
▁FB
▁pc
▁rete
惊
ted
现代
ppel
▁26-
til
icu
ety
abu
▁object
lki
etan
ovi
归
餘
▁whether
▁former
unk
isma
▁Instituto
ris
ccia
▁adapta
job
sant
▁hear
tiques
▁MT
剛
变得
竟然
eren
stof
▁Use
議
rey
mbol
▁select
▁wilt
▁Aki
羊
遺
▁Folk
▁place
動物
tron
▁humano
▁here
▁evident
▁across
狂
燒
挑战
▁dry
▁tu
aron
mind
ilah
▁Kon
▁above
▁revela
▁oud
御
¬
原
▁Meta
▁vill
▁Africa
▁Event
▁Nasional
角色
▁Stefan
ピ
otu
rave
▁Cad
▁Fi
azio
建設
赤
▁Dato
▁visite
▁unique
damas
!
‘
rar
raba
▁Strategi
▁sitter
▁sentiment
満
▁Kin
itin
pole
shay
▁Uit
虎
▁Cela
▁Frankfurt
empi
UE
▁connect
▁sopra
過
▁else
TRA
犬
简单
蘇
说明
▁Oto
be
zona
▁lead
出席
▁mobili
▁argi
▁Pus
搭配
▁know
▁loi
mem
车
TAR
▁gaur
pote
LM
mes
状態
▁neu
metro
▁asked
旗
ieri
lam
▁peaks
▁matin
▁six
▁Popular
▁bu
▁seems
▁fasci
aris
利率
▁pol
inum
rand
上面
ukas
stell
负
lv
++
▁Nan
縮
▁san
▁probabil
▁Islam
▁legend
▁savo
▁alter
ṣ
kni
机会
▁Raha
광
wd
▁sibi
▁Mix
eil
MT
品
iten
都要
▁Los
▁newsletter
roka
▁Puntland
▁Did
▁Raya
GT
sua
▁travers
感覺
▁porno
160
访
▁Album
▁issues
rebbe
▁bry
LP
lett
▁Skal
臺
mbak
:51
▁consul
dent
▁comme
機構
base
▁2018:
▁plate
▁Vitamin
最終
▁Legg
植物
▁compar
trag
▁com
▁Louis
▁Gut
23
ander
民主
edo
▁mimi
法院
费用
etus
国家
JU
tici
▁BAR
mea
呢
▁ergo
美容
▁Temp
竹
▁aura
▁separa
每次
St
▁Spar
▁range
球队
饭
▁EU
弹
▁decidi
▁mare
CL
▁levi
sters
▁Ch
▁referendum
都可以
0.00
機
▁aero
▁strong
▁seconda
▁Fru
齐
▁odo
ced
▁lip
▁jur
cun
家长
▁Teg
▁diploma
无
十二
医生
vit
房屋
▁fent
rno
▁ca
悪
vum
▁Mehmet
▁Morbi
-23
诺
pili
disk
▁celebr
▁Helsinki
▁remember
quel
▁123
▁Hill
wek
▁Mora
tul
维护
祝
孔
shi
▁fitness
kate
27
▁FIFA
ACH
verse
▁100-
逆
▁Sistema
移动
农业
▁Smith
▁[
tti
▁cast
RR
▁Cookie
alin
visi
▁mende
食物
▁1942
essen
▁Windows
整合
lico
Gi
schrift
▁Non
人間
▁seri
elin
聞
用品
庭
▁groupe
▁2009,
▁force
▁flot
定
割
eda
ucht
il
▁28-
▁WC
▁Ari
▁Toto
▁neuro
▁Superior
▁Colo
kvi
vol
▁vision
▁Mill
tely
And
▁tried
uba
异
▁federa
犯罪
▁Ze
▁pey
azi
▁Ion
hak
▁franc
性能
▁rev
▁polo
body
▁Nike
▁tenta
Gra
rve
高中
▁other
乎
哭
▁gula
▁theo
也能
▁patient
▁Pai
▁relativ
nesi
▁Ela
rce
▁oblig
isu
image
曾经
get
▁Asi
▁amen
摸
韓
▁carro
▁Tev
相比
mon
fana
就业
获
▁Kate
▁Pou
汉
cta
▁pages
▁Dob
xa
贡献
Book
▁Indonesia
根據
地球
階
設施
它
女孩
▁Micro
iens
m
▁das
ssing
隆
▁HIV
▁institution
▁SV
位
bana
▁devas
▁crise
▁Spring
記者
edel
▁enorm
▁Pas
▁living
情況
语言
▁Huawei
法国
产生
▁immer
oku
荷
多个
▁awak
不安
▁pina
▁8
BR
lare
產生
▁rights
▁concentra
idad
測
Auto
emu
▁Cultural
far
HS
▁maximum
▁wide
▁Tir
dom
fak
▁Lanka
lein
▁Privat
之中
▁투
▁Edward
▁coming
dw
zig
av
leva
oil
undi
沟通
shirt
▁drift
▁fe
使得
优
UF
▁Scr
徐
▁Ida
▁1917
tym
orden
360
點
onder
机制
脑
▁geni
ciones
gru
▁Kiel
▁1.1
▁haven
▁gondol
satz
tori
dis
▁106
▁bau
ganda
BL
不僅
▁pros
rons
染
OB
▁T
kuma
xir
▁separat
不管
heter
baran
ius
.9.
▁Gott
▁public
cado
▁avion
▁Toyota
領域
臺灣
▁speed
▁iam
yra
ixi
▁cate
imos
ott
raha
总是
umus
wei
播
▁mach
elta
▁kam
突
▁Premi
▁denuncia
▁Today
±
SF
LED
▁financ
vii
▁application
rete
enka
▁Arti
▁08
▁1964
困难
皮膚
自信
▁Hollywood
告诉
▁articles
chung
我在
radio
不想
长
▁envie
aram
chia
▁Film
▁Seg
▁pano
愿
ild
▁pied
▁intern
娘
▁Room
▁MC
hav
▁Station
局
point
似
usan
dog
▁thoughts
saf
▁potential
長期
▁even
bly
eign
彈
ying
維持
▁solar
可能
▁fragment
▁Esto
endur
tzi
感染
▁1962
▁Marco
▁pac
▁sinu
▁20
▁Muh
表现
這裡
过来
改變
▁vin
俗
▁ch
IH
▁plans
▁$1
▁pos
▁Kore
nker
▁Rem
bour
kava
qq
omat
全國
▁Wind
uki
▁Bonus
▁Garden
飾
brug
AKA
▁Check
▁mult
doo
oren
▁elit
▁Thor
▁quest
▁organi
▁Flo
▁los
▁need
jeva
▁3.5
津
sila
留下
困
▁verte
迫
眼睛
▁Ves
vete
▁AI
rde
▁Quan
▁merci
▁products
▁cell
▁ana
▁rerum
头
▁IX
zela
▁(30
03.
▁fier
uman
▁constru
▁ling
▁Hr
▁Sok
▁70-
nok
▁Besar
ipu
RP
▁Messenger
▁Haber
28
nare
lian
TN
uno
2001
▁Kil
▁put
采
ensi
▁centros
"?
▁sana
▁Nic
▁reto
王
glo
契約
Kom
▁caption
▁soc
是我
!"
SR
形象
inc
▁lop
kota
▁Jau
▁by
西
AO
感受
stry
▁gros
▁dub
lele
美国
cente
▁scho
▁Rights
執行
▁09
card
▁yar
▁user
cano
▁esca
万
的故事
産
gile
firm
heid
problem
的方法
自己的
voc
WI
ader
跟
▁Marina
▁blanc
▁cab
patr
▁Federa
pk
▁trans
DF
▁se
▁D
hlo
▁Secret
緊
▁kilogram
END
▁Hoo
GEN
kati
▁rex
Op
忠
bhi
ILA
▁Hy
▁exclu
쪽
▁Pani
▁Ash
合理
ener
▁kilometer
电视
利
▁XI
▁uri
▁Wood
通
▁Dem
▁Salon
▁Dani
▁dose
ido
NL
▁electric
▁aff
▁33
kne
-2016
read
vene
▁hinter
onis
▁concurs
ceni
心里
ham
▁koa
消費者
的东西
略
广泛
陣
▁way
▁Matt
liya
▁Rau
的原因
▁Sports
脱
▁Alter
App
tual
ismus
主題
▁bril
▁Cine
▁Malayalam
辛
▁XII
稳
dna
nju
仕
妹
sian
▁common
ano
▁Cons
▁permis
gas
▁posterior
明
▁sali
▁Vietnam
ori
▁27-
▁categorie
send
▁Ling
▁Palm
miz
▁Maga
cm
LG
awi
让
▁actor
imen
▁into
▁ministri
richt
tat
profit
宫
漢
讓人
ellen
duc
adi
▁luke
▁rink
self
▁Euro
明显
▁Hard
▁early
ya
gini
▁Hir
ljub
擊
林
▁magnet
ondo
内部
▁Wiki
▁Dj
180
不再
owski
針對
lara
▁Asa
mpar
Ac
码
ML
▁successo
DB
▁bon
apan
fast
▁vehicula
%
▁Cuba
乘
▁nudi
▁4-5
mato
讓
▁situat
▁Android
開催
▁Help
glu
发
▁rever
代理
▁watch
舊
nce
▁almost
pf
The
▁confirm
Ak
出去
php
▁Dios
▁gl
提供了
▁pick
论坛
仙
art
▁Bush
▁kera
D
▁PSD
hua
rah
亡
瓜
映画
症状
▁politici
直到
gr
server
▁Rand
▁jazz
損
stes
dex
▁migra
▁Rin
ndro
ior
▁viti
顶
轻
▁Kor
▁(25
bati
▁SAM
▁you
▁(4)
▁Lov
KB
▁technolog
▁HS
scar
▁Liverpool
▁Europa
ranta
▁据
▁treatment
▁https
購
▁resist
▁Print
▁cai
▁Kum
▁kir
zom
訓練
協助
▁maxim
数量
▁Car
sec
liter
versi
▁Kok
ia
eros
▁1080
iva
▁KR
▁soi
特朗普
合
▁stabili
▁parametr
lige
▁berse
▁taxi
克
▁locali
zwe
▁introduc
▁Jose
liber
04.
訊
cce
material
已经
▁California
▁vole
shte
▁li
俄
▁adapt
▁Gir
▁Asta
▁Ut
▁operator
▁Waar
▁mulle
▁sund
tri
▁80-
▁taken
▁Christi
▁fana
ONA
▁titular
risti
一场
▁Sind
▁leuke
uge
qin
trac
▁local
刷
他人
liza
.
▁que
價值
▁12:00
▁Web
操
▁Arena
▁modell
▁vie
▁Kab
▁Koko
▁Ung
gruppen
rare
保存
明白
看了
▁section
mit
3/
▁Trin
▁Lady
allah
trof
▁NASA
▁tanta
organisation
mble
ba
吃
▁either
▁omnis
▁Christmas
hesh
▁Cristo
iar
▁profession
▁rais
▁Ola
▁Computer
▁speci
22
怀
休息
/2009
政府
▁Parc
▁grip
endo
malar
▁Ave
范围
碼
same
-35
做了
▁Batu
农村
▁Janeiro
▁1%
見
▁1947
▁balance
ong
▁Joe
▁Hag
▁Brown
不可能
▁colori
▁forward
▁simula
确保
dong
▁Fara
莱
죠
保険
▁tradition
elim
igne
▁app
▁Access
dd
▁Abend
▁PKK
boli
▁SIM
loh
▁ante
汗
host
baz
▁zu
▁favorite
bbe
use
輕鬆
▁Gaz
▁Chor
▁Dev
position
調查
▁start
▁Oni
天然
jna
rott
策
各
ero
tych
▁ova
▁Kuch
▁Planet
gung
▁several
▁deposit
池
▁36
ify
▁Gem
▁Zin
并没有
▁ce
▁4.0
face
▁satisf
媽媽
出生
▁Pela
▁1961
兒童
ino
lede
也要
下載
ポ
26
CIA
lera
把握
meti
▁Sap
察
lado
▁1943
画面
▁college
▁Who
▁Miguel
▁foli
▁Williams
▁him
▁Schi
▁plein
▁wait
tone
▁except
▁Zam
▁Kak
▁medal
银
rija
加拿大
训练
ison
▁Wan
搜尋
▁mich
▁positiv
敏
▁mafi
▁Lands
▁sty
結合
絕
▁Mall
莉
勉強
▁Svet
▁320
▁nationale
学
▁Cinema
▁sales
bida
尽管
▁Services
isesta
▁Mati
▁Pra
ゴ
▁Agri
mita
▁farm
bel
sberg
vija
另
MAS
▁Dou
tegn
惡
▁Version
Ci
▁pris
ugi
▁10.
scher
立即
APP
▁pha
▁pola
里的
压力
ca
▁delta
itia
▁Ting
▁Cari
VN
ION
▁less
TRO
的情况
▁Compostela
各地
▁Fas
▁Rag
衛
ezh
▁BB
holt
pela
ソ
RD
▁Mera
開放
成分
▁memor
gom
娜
▁2005
bring
sole
▁Ary
▁stabilit
vas
▁lunch
▁Bitte
▁Font
勇
hada
Sha
yli
vidi
▁mai
指导
横
▁400
鮮
▁hero
▁pr
▁investor
ix
▁surf
lis
skr
軟體
▁Xbox
▁Try
▁weeks
vern
onto
drift
▁classifica
以为
▁fuck
rito
▁excellent
zos
ardi
Sh
▁mint
▁Ligi
▁(16)
▁intensiv
api
code
▁negative
▁poster
kva
▁free
▁facial
▁Cin
▁alder
周年
pendi
▁Gin
▁Viktor
pto
kwe
多年
▁jel
style
▁teles
▁loop
▁Dad
hr
▁renova
(2)
▁lut
EV
▁XVIII
强调
ulat
▁spri
▁dress
英语
sar
▁demi
r
audi
▁19:00
通信
相談
▁17:00
▁operation
ADI
▁jej
▁People
pera
▁Kauf
enca
习惯
欠
▁infla
ctu
wig
DVD
物流
徒
haya
▁voyage
strategi
arin
从而
DT
▁Place
rias
vise
▁temps
下的
dud
▁Tol
警方
lema
微信
▁Point
▁Mina
▁Musta
▁varie
ick
EJ
▁Shan
RET
▁Cul
rona
wil
gust
▁Dog
中心
▁ABS
▁Ideal
▁stap
▁Fro
club
Bir
岁的
▁Dh
ability
▁amount
期
特别是
anta
▁109
sept
▁reuni
▁2.2
▁Laura
VP
▁coma
▁Lugo
四
tips
tzer
▁wag
sels
▁spiritual
▁expect
▁rare
▁brin
▁mid
予定
▁nun
▁Rid
▁Oro
pore
▁bons
朱
宽
ved
▁20:00
▁magazine
▁good
▁circula
PF
▁Belgi
▁operativ
▁Bart
ification
pana
▁Apple
固定
相互
ngar
2016
方面的
▁1914
station
▁redo
UU
泉
cking
▁Reuters
大力
bre
inos
ikh
▁indul
用戶
fred
▁cookies
▁Fab
▁reclama
▁Maecenas
▁practice
銷售
頭
▁independent
认识
graph
ADO
▁barn
▁mention
錯
說明
asis
運用
verti
▁Rie
▁Ur
▁cross
▁cere
科學
ingin
忍
raja
ndal
分别
entia
▁posse
▁koi
TL
▁Rim
▁Gur
▁Met
熊
▁Rap
在这里
醫
太
▁1.3
▁Vet
革命
▁retra
ri
quot
irin
▁Bey
补
▁2018.
▁2%
▁下一篇
REA
In
cek
rman
novi
▁inta
rash
rick
▁ger
rige
赞
▁Steve
▁Hitler
▁cele
llow
aide
nici
对方
▁Mike
mper
each
廣告
orum
▁assume
papa
(1
▁monet
还要
▁Grupo
靜
terne
▁got
▁Friday
amas
kt
2002
昨天
tics
▁mater
▁2019.
▁website
▁MM
▁Cru
isti
▁details
vri
▁Hold
▁science
▁Siri
▁Filip
近
drom
▁Can
premi
▁winter
liga
▁meeting
▁cart
▁extra
▁Refer
▁1959
▁blu
ferm
Que
-40
整体
tensi
raka
pun
▁Phone
alia
▁#1
▁divers
自主
▁Forma
masa
是个
亿美元
错
czyn
創作
▁handi
▁Cr
▁gim
▁applica
sci
神
帮
开
足球
球员
一致
▁Tea
阅读
▁Akan
▁especially
▁DS
ges
\
zky
▁salam
GH
▁Copyright
▁stuff
ntang
舉
楽
▁fruit
f
▁vas
▁pretende
化的
▁1946
hej
▁relation
召开
kaya
▁Junior
▁Java
▁prior
▁double
▁liquid
▁1938
▁CP
bom
haal
▁Dream
ernes
ede
tryk
三个
▁Turn
線上
▁worth
친
▁Drag
yama
dalen
呀
數據
消費
hal
gong
▁Jim
的
BAN
▁flam
dung
▁Mut
̃
▁pel
厂
glav
ett
关键
▁Premium
war
▁Luc
▁Aziz
▁Apr
経
eri
▁2030
▁altera
china
不知
▁lapse
gard
▁Edit
▁Antoni
ering
uddin
anam
统一
▁--
▁Surat
讨论
▁Min
USA
bler
frei
gate
▁vet
▁SL
意义
▁morning
rd
▁Centrum
▁circ
▁sorg
的要求
新加坡
▁insurance
▁Pau
▁Bata
▁imagina
▁author
幅
sons
區
這樣的
▁15
▁Fe
想像
终于
▁testimoni
bus
-50
▁Lou
oper
▁anne
▁gra
invest
▁Strand
▁reproduc
▁Kart
Os
脫
計劃
jer
▁Way
涉及
世纪
▁Una
達到
Val
▁exam
灵
azo
▁Stop
thro
更好的
tibus
內
rasa
amin
Se
堡
小孩
單位
owy
rait
▁Want
29
▁Yi
IRA
amour
▁gua
tium
▁cale
Sta
ince
OG
▁(24
ef
x
eta
适合
刊
並且
▁Sound
mysl
made
toka
▁bac
经历
osa
베
朗
評
atay
▁Vam
群众
▁Mb
▁Sed
plin
lls
▁suggest
dila
于是
▁Merkel
▁rad
▁Plu
▁modus
▁CAR
▁Research
jet
▁끝
rano
identifi
▁collection
ujo
prem
移民
gave
上述
▁Demo
tinis
刑
▁Tur
lleen
▁correspond
▁Haut
araha
stant
減少
时期
raga
▁depende
▁honest
▁Year
给我
▁mum
▁Fram
網友
ington
▁merge
▁confirma
问题
imis
zah
像是
震
他在
當時
▁linea
▁suc
▁Bluetooth
避
▁12
:“
ENS
▁dues
nemu
閱讀
▁1958
▁sun
知名
▁religion
▁DIN
▁Jou
▁If
▁petrol
dub
也是
网上
▁pace
腦
▁Super
策略
inu
一系列
▁progress
▁beat
▁Pen
▁Direct
KL
▁kama
Tur
▁Oxford
的心
sher
▁60-
三年
di
▁fast
▁Zimmer
agar
specta
规
▁nec
▁german
ITO
▁Map
也很
▁File
成就
▁tendo
nist
▁mother
▁Tempo
记录
eru
▁monument
▁Schu
父亲
文化
culos
概念
linn
tuna
oki
当
▁verb
paz
OLA
ge
▁fabrica
▁entry
緩
▁Alexander
pero
▁workshop
▁Anwar
500
fold
▁Klo
同学
▁650
ibus
▁Plaza
▁books
robi
wers
▁Latin
▁latest
域
▁simply
图片
ikas
int
▁Bursa
▁Luna
▁pump
1.5
▁Indian
▁iPhone
▁GI
使
記憶
▁Activ
▁Bron
reis
XX
▁Petra
ley
▁Seminar
▁Rud
bhar
做的
▁participat
"...
rs
pula
</
▁Hra
rca
機場
▁lia
鳥
pad
幼
▁Tack
eni
tives
▁Raum
隨著
▁terrorist
▁"
社区
▁lei
▁prob
证明
tany
▁migrant
쿠
铁
▁members
YT
ovat
▁Johannes
oks
▁Space
seri
▁Agora
▁tr
▁Swa
眾
▁millions
▁images
▁VM
▁Sabah
巡
▁5-6
DY
mo
▁Sen
▁Document
rima
hev
▁sensor
▁Golden
hdi
stu
jara
▁155
syk
ners
▁Hell
▁Education
▁tall
▁Lake
▁1-
▁cafe
heti
▁wit
詞
sa
一些
ventur
▁wo
过程
▁miles
恐
是一個
▁Abi
LK
▁works
一個
170
rust
mir
cela
ndang
▁rather
工業
mone
nta
▁Vide
brand
onia
▁Nett
▁Najib
▁Lib
▁bilin
tris
ordina
w
▁design
▁2008,
GAR
Re
tional
5)
baya
▁DAR
gii
▁parking
HAT
▁tube
▁dark
ベ
▁Ronaldo
Windows
▁WA
ISS
▁1937
ensis
osto
▁customer
▁vote
CT
来的
baki
ool
▁territori
▁met
ora
▁habitual
▁Festa
ena
億
▁store
organ
▁Alle
計算
▁Organiz
創造
▁GT
some
靈
▁Hang
▁maju
▁May
▁Kari
rono
這麼
jon
▁Ath
▁Hit
meno
SV
Sport
▁P
▁Bangladesh
All
▁stories
dania
lit
udio
▁XL
▁Pang
也在
▁베
▁ready
▁barri
matik
▁Professor
geb
▁Turki
运行
▁Firefox
▁help
▁loco
▁near
sud
sses
GU
▁current
▁toll
▁aspect
大人
环
atore
▁gap
▁est
希望
▁Pont
▁pedi
▁five
成绩
▁Single
市场
mei
▁strip
stit
融合
cante
▁Front
収
舞台
.6.
▁copy
100%
▁steg
▁Hai
▁melodi
bito
mach
▁Feb
▁chor
$
▁Informati
毎日
oni
▁sincer
▁No
iv
▁context
▁Scha
▁Mada
▁Silva
▁abs
Tech
▁Living
鍋
▁Case
▁Mittel
usten
▁conforme
OD
▁toe
▁tsa
成员
▁Nederlandse
雄
▁pene
sag
稿
▁immun
▁Pan
回来
머
▁coin
色
WO
面對
停止
▁Ard
▁Prop
▁collect
tyr
ull
▁tort
▁1000
投资者
▁PEN
▁Ep
zer
▁pack
▁Vara
stan
xen
▁acid
▁itin
金額
肝
▁Quo
▁recu
ester
風格
STE
reti
時尚
大家
▁pelle
▁rival
▁6000
▁archiv
▁Alma
sand
xxx
rino
仔
of
▁Sper
▁fis
動画
htu
140
ija
胎
▁population
▁Mila
▁full
▁opt
▁Ante
廣
ardo
beg
▁Optim
才
ody
▁Auto
▁Pere
▁Senat
▁Qi
130
festival
odu
▁Body
https
▁minor
can
▁Institute
正是
参考
▁210
▁11:00
iru
塊
好了
佩
rene
▁grade
▁di
C
lagi
roda
愛
▁sive
▁diabetes
陰
skip
▁sung
▁troj
中国的
▁Kale
跌
臨
▁oc
kiel
▁Nota
▁Biblioteca
▁Taj
▁Teen
Star
▁fair
欢迎
▁Why
IVA
的作用
▁it
個
▁Queen
juk
채
▁display
▁choice
始
懂
▁presu
发表
107
itto
荒
itel
cto
▁Ez
▁Lata
▁Citi
▁inferior
▁上一篇
▁VS
遭
/16
研究
▁phi
▁enga
▁starter
实力
▁moi
▁posted
▁recon
gula
▁back
展開
▁audit
▁ist
▁Ax
▁Desa
▁radu
▁Jak
▁2004.
掛
▁blank
wiz
服務
adura
▁<
▁estu
▁homem
▁Training
grade
mping
flex
習
inus
▁Mok
抢
▁am
ande
ms
▁Klaus
台中
▁1957
▁취
▁ples
iste
▁raison
▁Saj
dici
▁storie
ast
cs
▁Mang
taire
▁Young
▁tram
▁Kom
▁lec
公
▁Integer
▁problems
平成
▁34
ryn
aigua
team
fik
▁jarri
icht
don
▁ED
▁sma
據
vizi
Dis
▁field
hood
▁Kris
tr
▁xe
協
危
thi
▁Alta
家里
頁
▁Myanmar
pida
▁1936
gang
marin
▁Prim
纸
资本
▁gr
▁Chelsea
▁Natal
pat
prima
▁financier
可能会
▁Jordan
evo
▁hands
忘
▁flug
▁beau
tile
▁homes
提到
怒
商
貓
nan
fed
▁Alan
▁oy
▁Essen
▁Sarah
▁Guide
▁XXX
illas
cat
▁Jong
OA
▁(21
yur
▁carbon
环保
▁amazing
ury
▁valida
asa
▁listen
▁acce
次
MD
haft
▁quay
生活中
viti
ipi
▁aspira
受
▁Bun
▁places
▁scop
▁camping
unge
spi
▁wrong
taki
▁Gent
変
action
▁HER
监督
Biz
rudi
良好
wick
冠
cios
不太
顔
▁lux
▁viol
▁EK
▁title
quant
▁Michel
lak
▁mori
cir
檔
▁4,5
▁Kraj
▁prostitu
詩
reise
ng
shik
▁calcul
▁Camera
你可以
▁Head
▁colo
▁anni
▁sauna
▁Cluj
▁passen
拖
▁statut
▁definitiv
▁needed
▁stron
jil
▁interne
临
▁bod
Inter
▁invit
Kur
▁aroma
skat
/15
▁work
桥
cena
▁ade
cione
▁Introdu
相当
▁that
社会
mpu
-2015
▁114
zani
cino
柔
▁policy
▁CM
fare
▁FO
vera
▁blind
▁politic
▁scan
舉行
▁reflect
daya
及其
▁Edition
tapa
扬
▁vis
plex
▁Base
inq
llos
▁pede
▁–
tiva
國內
▁XP
吧
lost
ペ
sson
ative
▁Gara
AND
▁disse
▁Osa
▁tempore
ndis
hin
的主要
▁GE
gani
▁handling
▁gesta
cium
RON
edit
▁dili
▁Hau
严格
简
tune
▁pas
通过
▁nomine
oby
公布
▁Dia
onin
▁Kung
ibo
▁Lars
修改
搬
mor
issima
▁latin
亂
洪
ui
palli
▁service
▁3.1
▁Ott
▁defin
真正的
rovna
350
ep
大変
ofer
▁regres
▁Ru
▁transmis
EMA
RB
▁Lim
▁Muz
miss
blik
▁38
广大
▁Arma
▁men
▁ful
徵
mile
▁mall
▁ata
sman
hva
KG
status
andu
ella
pid
▁GmbH
ore
▁Henry
▁zero
icky
書
患
▁Dim
tia
▁discuss
印刷
▁incendi
▁manipula
▁use
/18
東西
配置
非常
fera
▁ort
▁Canon
▁Beth
去了
mare
▁blot
_
斗
kong
tje
▁lod
▁Rolle
▁Kli
▁Girl
lci
jes
▁550
▁ion
otti
▁Nadal
agra
▁SAN
▁cep
shish
承担
依法
▁general
▁cup
▁build
arna
▁ovu
▁Serie
▁Contra
▁dom
萬元
▁Sua
soci
▁zona
bba
jima
▁Ż
▁11.
▁Ezek
▁abu
▁Hala
oce
isa
katan
lacht
▁Syd
统计
lko
atto
▁Expo
生态
dem
▁board
▁thanks
和平
DK
gruppe
▁Led
▁Hou
Av
nett
lion
嚴
确实
▁alba
▁Wolf
▁re
▁Tara
▁very
zane
▁Kem
▁occupa
多次
deling
众
▁Pit
整個
耗
▁Roo
海洋
大概
▁pige
▁commune
▁incident
▁Bere
▁Tid
hadi
loven
聊
▁sala
lendi
nique
▁1949
▁residen
▁Waxa
loge
pse
czy
lno
移動
tla
dui
鏡
credit
▁Ei
▁Hip
▁structure
mant
▁radi
▁last
地址
eter
▁sexa
njak
選手
Ph
▁一
tu
▁hu
fro
IJA
▁Mou
cea
▁48
燃
▁race
zania
▁sound
ente
▁CEO
come
▁responde
ucci
▁respira
dova
面前
▁Hata
kene
▁dif
onym
▁Merc
▁cant
因
▁116
不是
▁Aja
▁anime
▁schw
lama
2/
lwa
導致
▁lo
mek
ilin
store
▁departe
▁orde
日起
体験
illi
祭
▁kaka
▁Vei
▁shows
fico
erde
▁flor
DEN
eca
ifu
扩大
age
离开
製品
olle
▁Jed
▁bid
▁pret
-100
sap
sats
▁suspend
afa
動作
kolo
▁tapi
Ben
kini
高雄
▁1919
post
ampi
营销
从事
相对
jani
▁Mia
▁Ș
.5.
RIS
▁femme
议
ator
UTC
cient
bic
旁
60
电脑
値
▁ban
▁Soci
说道
attu
weise
▁to
ju
zwi
▁safe
▁USA
▁navig
▁UNESCO
mico
▁Rot
zung
▁Maja
都市
術
ssy
英國
nun
▁Christ
ndi
▁Temple
nav
▁Baca
bron
▁XV
lann
加快
ctum
hami
▁cas
▁psych
感谢
▁Star
rimi
Ma
▁Quran
韩
▁inside
color
eu
ilio
platz
▁apie
南
▁Osman
▁ima
▁Glo
spir
diti
bine
▁bank
▁Dro
▁tranquil
▁Ahmet
▁hoe
arne
运营
流程
型
linna
信用
敢
▁eyes
卡
▁Stad
▁LV
laden
owa
年轻
▁這
bet
落实
novo
rando
地位
stelle
練習
typ
▁Primer
▁29-
FR
▁Gang
dist
帶來
▁MW
im
▁filter
▁coba
妳
bilis
45
▁CL
fter
▁Copa
▁amp
inform
▁manga
資金
第
[...]
▁Condi
▁Corre
wagen
version
pali
肩
增强
keen
▁Narod
▁block
▁agro
zuk
完整
▁Gesellschaft
有
ttle
▁Drama
尖
▁gang
韓國
検索
訪問
UMA
▁Germania
ater
icas
蓝
Na
▁allergi
quia
▁kale
赵
之间的
许
▁02
Ob
▁Technology
▁Split
exe
lete
▁2500
gano
ym
URI
▁dram
▁tak
衣服
▁occasion
ych
▁colon
以來
▁mandi
▁inspiration
▁conduc
▁beach
有限
ught
掌
▁milieu
▁Maxim
▁pli
dale
▁STR
▁arc
De
styr
New
ried
▁termini
ndam
HM
lopp
▁Sku
LIN
rip
送
▁clean
lako
▁caro
紫
設置
inf
▁Aba
reo
▁Rey
▁Haar
▁Unit
uma
pani
不敢
▁//
▁Wah
tub
105
▁woman
▁Take
Mon
▁Francia
▁37
▁compre
▁States
dring
bern
lerin
▁passage
缺乏
触
▁fou
▁#
意
adora
LAS
近日
個月
MN
因为
▁2003.
▁fidel
▁Lev
enc
tail
10%
GG
▁Inf
報名
▁information
IJ
걸
ober
▁nova
▁Borg
块
tua
▁crema
por
▁Hita
sore
year
jp
cole
▁crime
gent
可能是
rings
▁bois
▁IM
buri
▁Hul
▁lime
▁RU
▁mula
vall
▁She
劳动
路上
resti
erna
cele
▁language
技巧
▁pomp
狀況
lum
werp
▁mass
▁Seu
ruga
尊重
centr
年
▁profi
roman
saya
pre
▁Qar
▁lire
描述
▁Adrian
giu
流
▁kron
目前
ttes
▁Kas
▁1,3
▁Kep
ORI
晓
阻
▁equip
▁Gene
▁Tri
tame
地震
▁Tit
▁(2
▁Stro
dut
ache
▁ming
▁protesta
▁da
▁Stone
▁Sup
▁Bunge
▁Then
▁meme
act
▁rota
劳
sif
肯
転
kla
▁Aman
▁likely
weit
▁Sport
▁NH
會員
mana
孙
▁County
办公室
ucu
ilis
sende
pito
有什么
lisa
diagnos
▁k
index
pec
▁desen
▁1955
定期
khu
▁Olimp
▁Art
每個
scrip
volta
mans
平衡
▁rele
▁Ret
ART
LES
活動
anni
▁remain
matic
是非
uwa
pur
kent
▁Aqua
AMI
▁07
彼
▁Buy
▁2-
▁Fred
▁Mand
▁ecclesia
▁este
VS
▁Lar
bete
條件
acqua
vle
▁Mua
▁death
数
指導
▁Pier
在中国
ʼ
▁Ley
▁Yap
rio
how
▁Fernando
▁Mac
▁waka
aga
gry
veli
enten
ur
▁PHP
▁omen
CB
▁HD
zhi
girl
ified
▁Noord
▁122
▁Ale
ruf
▁Ses
master
cultura
▁only
▁Metal
mane
迎
距离
▁events
汇
▁forum
桃
吴
▁Sada
PK
▁Wol
}}
加盟
▁ei
城
lhe
体
▁Alp
word
agh
▁due
漏
梁
▁Zur
xos
▁他
▁ignor
책
ish
▁Lord
▁spend
sburg
让你
▁ABC
大陸
也就是
▁ISBN
week
開発
▁gal
亚洲
rub
blu
▁neod
透露
50%
▁最近
▁comfort
LOG
▁zen
MAT
issimo
▁trin
chel
▁riba
▁Noor
▁Toe
比賽
▁Moja
▁partner
手術
llon
▁Tablet
▁Loo
一日
ruz
▁Vod
酷
▁Eb
拼
lon
▁Haupt
并不是
▁donna
▁glass
广州
▁Timur
▁stick
VM
saker
spr
▁batteri
▁Mela
▁drum
无论
充滿
煙
▁Read
iker
▁thinking
给
▁SPA
cito
商業
loo
▁ideo
Ap
▁Val
確保
AVA
ization
ie
快
stadt
▁Hal
▁noma
▁Ova
Der
經典
▁fixa
FU
▁Oru
▁commande
chu
enses
gili
▁05
▁Tio
▁score
▁1954
慶
▁Sot
ys
▁Ljubljana
推广
也會
▁pre
▁Nick
状态
▁Republic
▁Jazz
執
▁quae
berri
▁Herz
▁fantastic
▁Ond
AWA
▁Cross
▁bit
▁먹
lott
KM
▁kai
▁SAD
站在
fyn
MK
▁pare
ppar
安全
響
机关
▁plane
▁Regula
KEN
▁Turk
▁tera
来了
ival
相
你們
▁Top
cru
▁Ito
漫
deb
cot
▁Boga
▁Media
▁Yar
貌
邦
婚姻
cite
alom
▁145
▁Liste
PRO
予約
▁icon
還
撞
ir
的产品
▁gratuito
▁propos
tomi
▁clima
dig
腹
▁Price
AIN
▁Tre
▁security
Ich
盒
▁Jeho
▁Fen
顯
yh
常常
med
▁cores
voir
lul
prost
▁Sila
db
▁Gram
▁primer
每一
▁genial
LB
11)
▁Kraft
▁MED
▁Motiv
烈
▁Gl
低
也许
raum
▁voluntari
▁mill
▁Vul
llit
▁Son
ded
豐
▁Anno
TOS
spur
▁historia
▁absurd
▁GU
的問題
▁tie
alto
schi
▁Alb
▁yoga
doras
▁Andrea
bene
▁185
▁Vice
大幅
▁9
▁2004
▁Mess
maid
種類
将会
nelle
▁quin
膜
▁Rec
▁direction
dice
▁gir
lava
klet
贴
istic
顾
本来
▁evangeli
儿子
▁Politi
▁42
▁Stil
宿
▁mun
genera
alter
▁III
matta
alma
▁Plo
randa
▁Moj
▁sem
▁BBC
▁SEM
▁energy
積極
小编
nac
房子
fini
▁Cloud
jy
Ze
RED
▁ways
liu
▁Element
chen
宏
▁pretend
note
80
▁lira
lised
早上
▁strat
▁Sob
▁longe
▁Tag
hro
废
▁Vit
▁Teo
oly
题
言葉
barn
pped
1.2
▁ini
▁Cha
▁compris
十年
時候
kna
▁red
用于
2.5
▁Sy
forme
▁protection
▁Nii
pression
▁LAN
在这
▁Viz
graphic
▁1600
▁raf
enberg
any
▁aposta
▁ut
▁spec
meen
▁Jane
陪
▁Vaa
▁UEFA
▁Maro
ev
坐在
▁Ame
plant
▁Vor
jul
lb
isho
▁Quel
▁Download
鼻
▁recipe
▁beh
stem
▁vom
英雄
▁Kann
防止
▁55
hei
▁beneficia
-28
▁Din
很快
HL
人
sy
▁consenti
▁Bord
cah
▁Roll
宗教
主动
thair
挑
来到
潤
utin
123
쉬
▁What
alda
▁mou
curs
▁Hassan
一大
log
▁sop
́
ipe
▁violent
CU
lgi
排名
▁Nem
▁drug
垃圾
女
的那
少女
解释
stum
▁multiple
▁Salut
巧
vaka
▁prie
▁1.4
school
▁Guerra
umbu
Ur
chos
▁Security
▁Sever
DV
uria
▁Dana
▁AND
xe
▁Quart
▁1)
ANS
伴
▁06
sein
▁impe
▁street
RG
▁Norte
讓我
▁junior
▁consta
上升
muse
參考
▁Sign
扣
者的
utilisation
stern
▁agra
dry
▁NRK
CHE
▁Wie
▁Roger
▁dream
▁prost
历
▁31,
▁fare
▁Beauty
醫院
當地
▁mae
▁Corte
nagar
oid
▁seem
▁math
▁Iso
▁Questa
▁Fy
▁Airport
oz
▁Beta
▁amo
▁guy
este
ERO
urat
kone
▁Title
AST
▁KL
BD
▁porta
膠
siz
voll
▁mit
▁Russia
geld
regi
飲
ff
录
#
strup
uce
▁Phi
▁interesting
tros
陆
bik
▁Fox
部署
AIS
samt
▁Category
hist
ABA
▁Av
贷款
人数
▁Bond
▁nes
▁Deo
▁Hund
▁Pac
ctic
▁Premio
▁mne
male
▁thu
▁Abbas
凯
icus
측
▁material
▁screen
了很多
测试
▁impression
▁parent
设
▁Deci
orient
▁resa
▁comarca
▁remo
102
nego
很多
考慮
弗
森林
▁rose
▁Spr
▁Vegas
▁Jay
▁ver
ieren
Ce
bulo
sky
fot
部屋
▁Arsenal
imin
丰
▁Nev
▁skep
記事
ambo
kowa
▁Disk
nggu
▁art
zare
falls
带着
是一
▁Licht
▁pri
何
▁faca
日在
▁Hart
▁Kino
▁Bank
kung
NB
安裝
axe
籍
tive
hets
▁semester
▁eco
▁Santos
▁Tra
主题
bac
▁degli
▁Mani
▁aflat
ips
▁John
問題
staat
该
2020
Post
gde
▁7)
▁XVII
猛
烤
▁XIII
▁contempla
iris
▁Menu
大学
ARD
rasi
陸
▁cash
vies
▁Vista
▁75
笔
▁Down
▁trailer
▁Modell
▁plaza
▁impacto
▁entro
▁ingen
▁Rede
▁smile
▁postul
▁bas
gati
社區
▁salute
结束
▁30
▁119
UC
▁incorpora
▁Flor
▁113
▁cree
▁Lud
▁Organ
▁taller
日期
▁rig
▁vers
員工
煮
▁Yang
uts
▁Iza
▁124
vao
發
888
univers
▁Luk
food
▁Monitor
▁2)
kert
ritu
劉
▁rob
rda
▁Cho
ho
▁Som
▁criminal
▁Phil
他说
ulle
▁Sci
赶
科
▁Vic
▁raw
▁Esp
▁But
▁Landes
erto
▁Jesu
▁idioma
meer
gha
機會
berg
登場
▁280
▁Dig
sor
桌
▁vita
moto
▁mole
kele
▁Cyn
▁Kod
tott
大家都
▁Dark
会有
iling
▁picture
敗
推荐
wari
GR
▁brig
modern
的研究
▁Rest
sou
diya
konda
▁heard
ggen
審
普遍
兄弟
▁hiss
調査
▁1953
昔
▁dua
▁added
▁Shin
dhur
终
▁Champions
踏
auti
bier
▁magic
ische
戲
ROS
▁flat
▁long
让我们
斷
母亲
題
▁organisation
aki
麥
岩
▁sinne
▁however
Europa
不但
defini
pis
▁Jaya
▁boot
▁flag
▁Kemal
▁tink
rii
▁Senior
▁Major
Bra
▁Next
▁apps
basa
▁ol
▁activ
▁126
▁Address
▁Kuna
股份有限公司
▁
▁un
▁c
这些
▁Eur
▁acc
眼
▁gue
upe
▁brutal
▁Nina
▁BH
▁muz
胃
jir
chwa
pal
▁ec
▁pull
vrat
工作人员
▁conveni
▁reality
angal
▁Kristo
anu
▁Oma
▁episode
▁Kapa
赢
▁pro
tau
巨大
inde
▁Nikola
▁elk
▁beag
wy
vl
完美
就算
是因为
埋
▁EST
31
▁behind
sab
▁impuls
▁Drive
醫療
interes
kr
▁260
▁Hz
SER
▁kab
▁ecc
學
otra
▁Gj
覺
▁Se
No
▁bull
nier
▁cases
▁31-
▁Che
ヶ月
▁Hindi
alai
Kan
▁Peri
orra
rain
人民币
10)
▁Tap
▁Deel
ryk
处于
▁opus
▁Vy
能量
枚
埃
▁Tes
器
▁Essa
奶
焦
缩
匯
izen
chow
▁request
▁results
▁12.
▁Continua
Pra
▁now
绝对
fina
form
▁Koo
stvo
EGA
▁nomen
ady
动力
90
▁Ish
tapi
有可能
amini
ektor
全新
▁2017
lazi
STO
1/
听到
sela
▁emer
lja
企业的
合格
▁ped
大小
▁tv
▁samu
▁much
/13
▁Uno
99
kee
RN
▁Koma
▁Lot
揚
▁Step
▁Analytics
stica
▁Voices
人気
8)
▁procedure
高速
ה
線
▁concern
技术
恐怖
工
▁TM
▁saga
▁Yol
▁ville
▁strategie
表达
▁Pom
rie
침
▁Dus
提前
炸
邀請
伝
ungi
▁professionals
▁armi
▁Logi
▁Lok
▁Mog
▁Blog
▁Still
rsat
like
▁fortuna
▁spal
▁Til
直播
hiri
▁idem
Nor
pie
▁heli
堅
股票
Mul
负责人
連絡
dhar
▁psa
arrak
jou
▁blogs
▁corps
▁clave
lahan
信
tist
▁Scott
ai
isme
▁Aleksandr
sim
tran
▁Ned
▁options
dec
ean
oire
▁Kao
▁Lima
客人
hale
▁Kalo
▁disposition
zel
▁Generalitat
roh
stret
hman
alue
▁loo
lend
7-
▁Ville
wind
β
▁outside
▁fei
▁duke
▁Sali
壓力
▁lumin
★
▁was
是由
状况
▁nave
逼
教師
进步
主要是
▁Sera
tim
▁Hoy
thon
som
▁volle
zip
mano
roma
知
奈
驻
機械
xy
▁Pasa
Cor
▁aqua
ten
neu
force
▁sch
lel
▁SER
▁Nacht
▁Cos
▁1952
jam
▁matri
▁Bella
atis
▁third
▁construction
ires
▁03
不起
▁pigment
的時間
kw
type
尔
-27
反而
▁green
▁“
▁mens
FP
等方面
資格
如下
▁mend
▁potenc
▁Tee
").
CHA
▁bases
▁running
▁Paz
ibe
▁dama
kav
▁Clo
很难
▁Classic
重视
▁summer
hah
墨
狀態
▁muni
▁Sag
vende
loma
的影响
gner
▁jer
kera
▁energetic
▁maybe
vil
有點
習慣
▁fed
▁first
puri
▁광
▁Digi
▁Sina
▁Luci
评价
▁10.00
▁Timo
▁Real
▁Color
jo
▁Apo
▁Arc
▁hin
▁Russ
▁tech
tena
▁Fem
취
bb
寝
約
▁Govern
▁Hain
▁Σ
▁propaganda
pin
20%
治理
▁1,6
▁fri
宅
榜
▁finger
閉
ワ
mur
▁Cen
▁vaccin
wijk
▁Leh
中
▁persona
▁increase
率
▁nia
xi
▁144
ikku
jau
▁perform
▁solutions
jl
赫
▁knowledge
五
画像
災
▁Agro
▁Lap
▁consolida
-26
▁1800
Chi
動
▁IND
▁verse
▁Wi
loni
▁pend
▁mud
ov
意大利
▁While
zle
irano
片
)(
▁analyse
kalo
kn
illes
▁Wu
角度
能力
▁deputat
▁complica
ange
qqa
出的
情
▁aile
也就
ouse
▁guys
▁electoral
▁lum
▁165
霸
ro
sid
怎样
捕
担心
▁interval
▁approach
▁designer
▁Free
▁official
▁magistr
▁auta
的孩子
▁known
▁say
▁Pari
▁brun
issement
▁day
▁thank
尤其
liet
▁Nye
▁DES
交換
tso
修正
▁doc
group
▁seen
▁Prac
▁care
▁love
biya
沈
preci
uomo
moz
奧
同學
▁Select
歯
rial
▁Emma
arri
正確
dat
▁dys
▁insist
很有
stand
ungu
▁unsur
▁Rome
Tak
表面
頻
▁Rein
▁Volkswagen
DN
设施
EH
还是
lone
▁reeds
ces
▁beta
haz
ivan
mpion
▁Syria
▁longer
horn
kela
▁Automat
▁(19
BRE
Qa
料金
format
▁Mili
▁Gi
vela
model
reza
始终
oder
喊
▁1.6
isto
圖片
▁Eu
▁noci
psy
▁takes
構
▁EF
pica
koni
paus
ings
andro
性格
go
范
lusi
国务院
阴
lief
▁Legal
提示
▁Eric
fam
▁Tay
zeug
vero
visor
▁Bratislava
▁Vier
▁Farm
▁Mba
贈
▁shot
▁suis
▁kb
toe
▁ride
fei
▁ser
▁Llan
▁}
▁savi
alat
孩子的
餅
勞
VU
版
▁Dead
而不是
▁decision
ico
描
下载
家具
一生
▁Duke
espera
FO
営業
bral
y
▁main
OUT
MR
UNA
少年
ised
▁crisis
cht
ahu
plas
藤
AHA
onal
要求
▁Taman
▁FAQ
使用者
人類
▁diagnostic
▁Ioan
▁learning
luc
anima
ILE
▁eta
▁(5)
▁spirit
▁Neem
hung
▁swe
▁mentor
▁sp
ident
▁veteran
meister
▁MAT
WS
▁Notre
grav
明星
ites
laza
▁mang
▁anonym
▁Saa
▁sax
eso
▁bere
▁Keh
▁sympa
.8.
registra
女生
創意
kke
植
CZ
游客
xx
What
▁Jackson
▁Aut
▁denomina
▁pus
▁Gure
▁Sav
取
wald
▁Park
▁MK
hv
▁UT
Eu
▁communi
妻
超
▁improve
▁Tao
▁Sunday
itas
messe
禁止
sini
▁(22
▁Wit
▁songs
▁Court
automat
flo
▁trade
dha
tsin
1998
▁kinder
▁Kya
uld
personal
▁Hair
添加
▁firma
poko
質問
▁Tarif
est
造型
▁Teatro
steen
檢
吳
投稿
▁ker
tach
ons
▁Fore
▁ceremoni
lje
子供
▁Many
発表
ages
▁rost
ntia
更有
精彩
部門
-10-
▁Bari
▁2000.
▁affect
现在
▁Riz
gid
stiti
hed
▁Vend
▁mood
LOR
HK
shta
cci
sura
▁sperma
粒
tions
溪
▁Justin
road
khi
▁Rahman
rike
lay
官网
般
代
▁Genom
▁3%
▁G
▁gou
脂肪
共享
▁rado
▁ami
como
▁Doctor
studio
nym
▁shir
icum
▁Legend
珍
▁rust
▁Town
▁bronz
ICI
Le
▁Pare
▁Pena
▁jab
ailleurs
BT
收集
▁Lite
▁Baha
▁Dich
▁NS
ha
▁trek
llin
lange
対策
raz
plica
▁14:00
BN
母親
▁lien
其它
▁2017.
schein
高的
▁reven
▁Medio
▁rin
stina
▁temperature
▁fila
▁Rich
cali
Sal
▁kg
▁Num
話題
▁marche
mental
sed
▁Was
▁Pina
▁Wala
榮
andra
izer
anche
▁revol
ntes
xel
lium
場
▁Fahr
bond
PG
▁attack
▁solidari
szczy
▁lac
▁bem
▁Chama
▁Vec
▁Florida
▁Need
lind
▁types
省
œ
不能
学会
▁Fam
之下
pri
▁Hack
▁Rit
消防
留学
教
▁Dai
vaj
▁Skype
chef
▁Bayern
衛生
而且
NER
呈現
大阪
▁(2017)
rost
▁Kje
▁well
offer
的能力
uzu
妻子
▁Mile
usia
▁do
▁au
▁Saf
▁Bry
UG
ubah
▁cancel
taba
▁education
▁list
同志
▁Div
全世界
党的
ceri
nio
veti
leben
Mas
▁marque
意思
llum
▁但
▁pho
尊
比例
▁polic
▁techniques
uring
pel
▁Disc
扎
▁companies
▁industry
id
机
▁garage
entra
▁burde
不需要
riet
▁250
pite
aggi
南京
BRA
ovan
▁Gab
▁moments
▁Xin
zia
▁Eo
▁Mom
ipa
▁dicho
▁como
▁tree
▁꼭
께
nium
▁emit
▁bus
▁Jordi
Up
metr
參
▁Engels
▁motive
▁ia
EY
▁Sher
mayan
▁pedagog
▁Lek
▁Prema
押
oci
ola
▁administrator
▁Ref
▁nep
dita
▁receive
▁11
bud
erland
▁FE
ulin
nr
LAND
▁sz
▁morali
万人
ilte
▁further
equip
的情况下
薪
永远
ape
etas
/14
▁Inter
的高
spot
▁sharing
▁117
▁recupera
ntana
▁Episode
▁molt
▁happen
一句
俊
▁demo
积
▁User
▁Lor
organiz
▁pig
vik
rette
▁cannot
TV
▁Sing
rova
只
▁Ross
igan
公平
▁Air
▁DN
▁Vo
舒適
zij
▁gaze
銷
▁Hub
rini
mentar
▁129
yba
▁financial
pras
Ang
拍攝
.7.
▁gast
▁infer
xas
▁think
diel
環保
▁Wow
▁Gui
▁agree
因此
▁Fog
▁setting
▁radical
2015
郭
ebe
▁Situation
ulia
▁Bana
▁Bert
▁ay
▁special
▁provo
▁mei
berry
真
▁Skr
▁dire
keli
▁Adobe
审
▁XIV
▁sing
▁muta
▁Sort
▁Brug
▁Kia
▁home
▁acho
▁sweet
ranga
▁ves
▁years
須
▁Stelle
站
MIS
▁Toki
▁constant
OJ
ly
▁organization
▁materiali
vart
cher
vut
訴
美好
▁Gw
dyr
签
▁(23
▁territorial
▁Kur
宴
▁Montag
等待
▁SA
公益
▁Cafe
Ol
序
▁Maria
候
岸
oi
▁solen
▁TS
nu
▁pala
后的
▁40-
landet
的时候
▁Cream
▁PIN
ogi
包括
▁Sinu
gt
符
▁1.0
xo
:0
▁coach
ecta
▁Hier
kool
▁Univers
▁120
▁deep
▁Torre
▁Universal
▁El
将在
式
WAN
▁pion
you
▁Alu
usta
玻璃
▁Evangel
rantz
xim
▁guerre
”;
▁ETA
家的
多了
▁piti
sset
▁Chef
▁Pow
▁Got
誤
体制
诚
▁je
▁N
ORE
▁Kurt
▁dir
当社
▁Lyn
ombe
▁isola
▁Mapa
▁Hallo
使用的
▁Vak
▁Prince
科研
脂
TX
▁Ser
▁surgery
dust
XI
pet
trem
SET
Mag
lge
利用
▁Bina
可以在
aban
106
▁von
经济
炒
信息
▁Rund
▁Tyr
rl
▁grub
▁MY
ponent
heli
▁ide
amaz
kuk
pon
▁Suche
劑
▁melan
評価
▁enig
▁films
▁DI
mura
我要
▁18
▁Pod
也没有
▁ces
mint
確定
svet
▁Merk
▁set
西班牙
▁Henrik
▁Blo
看来
ins
▁infinit
▁system
PH
ffel
接近
粗
蓋
-2
wr
fahrt
▁tribunal
glob
▁Chiar
▁snu
sof
lyst
▁Burg
▁Neo
zada
元素
▁sold
anc
▁bomb
▁Bare
night
elor
近期
▁eel
lieb
▁Assist
原来
exist
mla
noc
協會
title
矿
▁wrote
▁arrive
2.
▁medicine
▁Ex
將會
给你
友人
▁village
成人
國
Ag
▁saying
laug
趣
rang
oris
▁fantasi
▁release
rali
-2012
eks
zimi
▁vaca
▁voice
▁Qara
boo
IU
▁Polska
Den
OTA
▁intelligent
cym
▁loin
tren
▁pul
▁Ea
tsen
mise
▁shar
▁android
▁count
▁Awards
▁Tr
inge
asha
▁More
▁fashion
nchi
spira
▁tres
▁大
yol
乡
▁18.00
jal
坦
▁1929
▁viola
alde
▁Ban
plet
搜
▁opportunity
▁Labor
姐
Reg
▁POS
▁Agent
ssu
▁bug
bile
▁Yeh
RF
ivit
面积
讓你
發表
Sa
▁prince
▁Klar
elio
▁acqua
over
▁Lea
▁taun
ddu
roi
+2
▁patria
▁Amor
會有
ndre
▁Cand
archi
▁contact
Can
pou
▁270
shing
dh
▁classic
▁GP
schluss
米
▁今
yst
▁bill
▁novo
vici
不如
ilan
http
更好
▁numeri
onne
▁apostol
(2
▁bilir
marca
时间
ESA
▁Chile
预计
塗
滿足
總統
▁upon
dan
stad
goda
▁nut
▁looked
habi
vac
像
▁windows
▁fara
▁cole
睡眠
lich
某些
rella
評價
▁1-3
▁puc
inski
很好的
▁Record
▁Aus
funk
handling
▁中国
tures
qu
puta
▁br
圍
▁Wy
▁Serra
missions
满意
▁‘’
new
▁among
tela
▁Xan
mela
▁Hea
霍
fug
沒有
right
qa
OW
album
warte
er
▁tele
一步
ischer
読
▁Zeit
▁2002.
▁spre
orta
dito
火
▁brut
loc
郵
本公司
▁3.2
▁Aero
kki
▁choose
日电
▁conduct
佐
答案
ost
Quran
呼吸
▁co
平
tham
12)
▁VO
iones
gels
▁alias
▁Phong
▁ky
▁puls
▁Gh
laim
▁Linh
▁Bosni
▁Kristian
▁inclusive
腸
kka
tina
1999
的精神
▁Zie
vid
▁pent
▁psycholog
男女
請
쇼
▁2001.
法人
将来
▁gross
人們
prie
eille
▁quant
sland
集
present
▁important
响
=2
▁tim
ava
▁NBA
西方
走了
tian
rados
▁angle
Para
▁plin
▁method
▁Ten
打开
▁Vida
▁Und
ixa
▁Simp
fram
▁Josep
▁ry
amine
▁Self
▁roi
▁fille
sible
▁fud
物品
▁Nadu
▁Newsletter
Home
hind
▁Aqui
▁Yoga
▁Pru
ensa
chie
一片
▁urin
den
ULA
▁Figur
▁16:00
▁Krishna
▁Latina
帝
5-
lash
大大
填
mai
▁Development
▁Organisation
▁IF
Mac
dico
▁Pour
tona
定位
▁Mitt
poz
ich
maker
---
▁1999.
▁EA
愈
Tr
▁War
亞洲
▁Isabel
我不
▁pen
accord
▁커
▁tool
gale
推動
▁specie
ruan
▁fris
▁medic
onda
nton
two
搶
zie
▁technology
else
▁tarta
50,000
▁Him
專家
国际
▁Moon
医学
insa
1997
▁1933
▁Emil
ndo
ovna
▁Ocean
秦
market
▁surprise
tio
乗
▁placa
dani
covi
给予
-01
Mus
▁vegeta
▁mam
耶
′
▁confu
arsa
▁standard
算是
trau
ysa
loha
在于
embe
lol
Ali
▁TAR
▁Vilnius
▁criteri
▁aga
cast
rupa
iras
kush
▁WI
▁items
KP
▁KY
拔
资格
▁franco
紋
▁Des
优秀
chal
▁article
多的
▁expedi
抵
美的
食事
kani
all
kassa
▁Dinge
逐
▁sene
▁Chi
居住
▁Plan
▁Shir
▁SY
quina
usse
刚刚
财
technic
▁Cod
rad
▁BP
▁Bom
linge
▁Delhi
make
裁
宋
▁Trip
脱毛
fix
▁valu
5°
所在
▁sou
▁premium
▁Oi
▁Cami
¡
▁knew
▁India
Pan
tlen
测
▁Wort
cid
▁Channel
▁discrimina
▁Las
▁boss
tivo
▁VAL
plic
▁grow
loka
▁sa
mu
uan
▁session
Mal
▁Heim
▁cour
住房
ITU
▁plas
心中
▁programmi
▁profes
terior
▁Muda
▁guard
▁39
ELL
▁flas
kua
病院
▁required
tionis
▁should
fes
▁side
坏
跡
其他
▁pueblo
bras
不
▁British
▁usually
lib
▁isn
限定
star
▁egg
";
▁maj
giri
▁naviga
立
▁Dru
同事
▁Bernard
parta
▁fie
▁Stephen
或许
毕业
niu
piste
▁Association
安装
▁oven
▁Prime
▁barra
辦理
▁F
doma
▁date
rry
lux
▁spa
▁Francis
▁configura
每一个
▁Nepal
occasion
晶
ERT
hulu
OI
▁Epi
访问
▁prevent
fice
▁sai
▁Cor
▁elabora
schlag
▁tune
NAS
nden
▁cd
女儿
▁Syed
信心
▁colore
emme
VC
day
▁Boh
误
pret
▁leis
▁Sputnik
zera
CG
▁Too
craft
▁obi
▁fu
▁compensa
▁Gua
enz
▁exemplar
avana
▁wild
表明
▁2007,
▁tolle
对此
穩定
▁take
變化
▁core
pier
dating
▁clinic
▁1,8
Alba
▁participants
逛
vt
▁Clinton
▁Explorer
sisi
▁im
▁Status
看到
▁WE
▁Sco
美味
▁Au
错误
近年来
▁AA
TRE
▁depend
汽
快乐
▁3-5
▁null
▁Fashion
della
▁App
▁而
OH
▁Delta
過程
GER
▁Z
▁tua
有效的
bred
▁Pack
涼
▁kt
lek
rici
▁pole
主義
▁mine
18)
rest
▁Chal
▁imper
▁invalid
harra
▁Desi
▁Husk
adh
▁talking
▁ratione
thal
fari
dio
redo
▁1921
阵
I
VIN
▁Rou
▁Mine
”(
▁Pool
设置
隱
oli
▁Nin
▁th
リ
TZ
vard
▁lock
▁Crea
▁Educa
▁exerci
lier
Ah
死
histoire
▁qui
▁Touch
elas
▁hour
biga
▁Lag
Report
▁65
munt
分別
▁Esta
...[
生存
艺
tai
sure
nami
▁Tera
arm
BP
KR
▁episcop
▁elast
distan
Oh
▁About
▁Hero
▁Levi
▁PVC
透明
▁till
▁3-
▁Ske
qal
sier
節目
会員
nosi
riez
合作
弟
传播
▁Antalya
▁Mag
robe
▁Solar
GM
iko
職業
實際
licht
教室
一套
世紀
fran
▁Cao
▁Unu
-29
▁popular
▁tama
帕
"
B
▁same
▁침
luse
jina
包
opi
不得不
vr
準
▁Silver
国外
▁Andri
終於
▁tau
▁Tube
▁taifa
节目
▁proces
撮影
zem
▁absolv
Porn
帰
▁Ana
pc
▁H
我觉得
特定
▁Lug
oan
▁slap
▁Balkan
/17
▁collabora
▁Zara
ill
Wir
蔡
▁Laman
不同
▁bund
▁privacy
▁tutorial
突出
▁maso
▁+1
▁ART
▁Yahoo
难以
觉
lopen
▁Saar
變成
昌
bir
EVA
大
▁sava
▁Aller
araka
▁pec
建设
▁KK
▁Passa
屬於
▁fren
▁skirt
OVA
DAR
▁rib
灰
vention
中共
-2014
▁Psi
拆
▁2002
挑戰
▁breast
▁Andreas
▁property
tiny
▁Bug
▁Bj
▁Materi
有多
▁soul
号
▁1/4
akin
▁Persi
▁spo
pira
桑
/2007
如何
▁metropol
born
的第一
▁repeti
gst
sager
▁sans
▁Afg
ingas
▁frustra
fell
▁pois
contra
组成
▁bello
▁Haz
gra
▁Mundo
dk
pugna
上
▁Ako
Institut
▁Pata
▁cuisine
▁04
▁tumor
dden
▁Quin
itate
▁uki
恋
▁modern
▁/>
cure
加大
cions
▁scientific
▁buz
fant
fie
▁coopera
▁Alfa
隻
的位置
▁AU
▁spy
▁bureau
那样
▁las
aal
▁Kevin
日本人
▁verba
▁York
顧客
▁subsidi
▁Barcelona
▁Ava
▁Beg
▁Smo
不良
▁response
70
bini
▁blue
reak
绿
▁fus
這一
-1
▁Tut
photo
▁Jas
mann
polo
让他
已有
▁foot
enburg
daw
▁absorb
1,5
飽
sem
▁medium
▁1-0
evole
來到
leven
▁gut
▁Tallinn
▁Jakob
nina
IKE
▁eventual
hita
渠道
毕竟
▁Reporter
▁pour
dim
sist
kawa
anti
▁Maya
年龄
▁off
▁leader
▁burger
▁fo
最多
▁Scho
legging
rime
mora
▁Lun
ivo
▁BY
▁guess
逐渐
risk
▁mezzo
▁EV
▁Kho
▁Det
social
▁ironi
▁Bayan
lus
▁Ethiopia
mbur
azh
仲
▁我们
▁verbo
▁escala
▁Magazine
idio
PB
付出
▁Style
▁PAN
连续
▁eleva
▁mari
健身
lation
▁Ap
▁dec
旅客
▁kW
product
ovski
▁Bhi
lani
▁weight
▁Links
ios
blon
▁Basa
相手
▁ESP
▁256
▁laps
丰富
▁too
ILL
▁alcohol
公民
今回
▁litt
人都
Android
▁cul
▁sil
linda
▁Reis
▁Action
▁225
方法
fti
▁小
public
cale
施設
▁coa
▁DB
Pod
▁Porta
幻
wych
播放
▁matern
▁habita
▁Josef
語言
行程
а
▁The
研究所
▁propone
还在
授
▁1934
▁127
▁omni
▁Uy
庄
櫃
hop
▁consist
▁Integr
▁Vand
▁organiz
koma
进口
▁Buenos
▁could
750
▁generation
mpang
zaro
▁Vi
ʻ
pens
gona
mee
軟
▁Que
臭
▁unele
dro
ppet
▁planning
女士
hanga
年間
loq
▁1:1
▁139
▁tipp
▁prepar
ometri
▁Patri
pung
素质
敵
階段
el
▁piccolo
aya
fiz
itatis
annu
▁SAL
Part
ISO
isen
司法
dach
uwen
▁Ade
為主
Wo
rell
ienne
dona
▁pup
▁feedback
ningen
為什麼
顏色
ub
生日
▁(2018)
▁Nisan
ono
▁Wid
▁Ina
▁expo
広
感受到
▁Zwei
歷
寬
取消
决
▁Jerusalem
analyse
dant
nota
▁reach
▁주
sali
接
▁Funk
▁Women
▁Spin
obo
▁wife
orem
profil
适应
空
小朋友
▁panorama
▁1924
▁Week
35
▁Baile
ive
▁pav
▁palet
case
hamba
▁profund
▁loft
bhu
戒
primi
▁13.
乙
大多数
콘
▁tras
产品的
▁Homo
▁Abraham
升级
askan
kami
rû
融
▁reca
放
strand
▁kang
促進
cris
战争
LF
▁areas
viden
▁hid
Ai
▁Zor
jale
alit
▁justifica
此
rodo
▁disp
▁stil
▁player
skov
十八
▁Ai
arium
▁Luka
▁Pig
▁Brad
Del
co
ard
貸
鹿
給
▁centro
▁definitely
SON
▁hij
tista
YN
luk
▁plag
揭
▁exige
▁temporal
▁riski
rbe
plan
▁2-1
▁Morgen
skil
▁Sebastian
zon
▁huge
▁Vac
▁fra
bh
▁cald
關於
▁dug
▁Ira
▁Sach
表
讓您
rifi
eva
cies
▁specifi
▁Gear
▁legitim
唔
▁Honor
|
dol
▁illustra
pol
▁Garten
▁Trump
▁Zo
izza
OTO
▁Boot
▁IN
ingo
▁Nature
▁Pierre
▁halt
▁Entertainment
▁Muha
▁Kerk
▁Chicago
▁Support
▁Quer
▁ALL
mming
▁fine
mig
別人
▁Thiru
Sen
▁chut
▁121
▁wonderful
▁intui
byr
ffin
comp
吐
产品
頓
▁Singapore
武器
就不
sta
central
意義
▁Manu
偷
▁Linda
tesi
干部
商店
xhi
tolo
▁week
rise
▁44
▁wasn
民
fyl
▁autonom
acte
ugh
▁2000-
iki
▁wall
▁cult
▁Spill
▁Kun
ection
攝影
APA
▁og
责
gida
runa
bido
STRA
sler
而已
▁Rent
hey
机场
▁Netflix
▁purchase
dels
▁Hugo
▁Sant
▁museum
▁hyper
是不
風
▁Aff
▁Kenn
ses
Min
但在
▁1,4
bawa
▁sorry
▁Lah
ning
ement
▁grab
super
逐步
posito
筋
▁written
tatis
rod
▁Bridge
licher
▁Presidenti
改造
▁billet
▁baro
▁lot
▁Tale
▁sender
▁Hoc
▁(26
▁procedura
▁Cara
bas
▁Samuel
▁Mor
芬
日至
athu
ching
pano
nima
hor
▁SF
▁corte
信任
▁Gore
台北市
▁cut
nula
▁Oui
▁Demir
▁gond
▁Wang
monia
▁proti
upi
區域
tom
▁CSS
tram
北
▁Nim
診
▁Inga
自行
態
总结
M
gou
▁Galicia
▁Laut
▁Ini
▁Tule
丸
▁brief
rats
▁Jud
▁District
zan
而在
dern
pov
yse
▁deporte
MAR
FM
▁今年
tova
▁skills
ELA
特性
▁Lam
病
子的
▁many
▁1400
▁inclus
▁cher
▁Energia
▁mez
▁Ponte
▁chip
▁Pembe
▁pens
shir
unde
arch
▁massage
Centr
▁town
lose
重點
oran
▁VI
▁customers
herr
串
scription
▁Ig
▁Tell
創業
▁according
kuri
za
uh
karta
▁Kana
alla
▁新
▁castell
▁Johnson
▁Tata
档
▁132
▁1990-
moon
INT
200
ordre
▁pengu
嚴重
chov
▁Koi
身份
▁Potter
很少
kui
马
丝
▁IT
▁Sedan
▁Force
五年
lik
▁Mond
▁hit
▁rup
▁lecture
trip
▁Roberto
osta
open
因為
▁Tier
▁95%
飞机
监
stre
lona
▁origin
koha
枪
▁seven
两人
buh
▁Tony
6)
▁INTER
▁Tha
生意
ENE
▁blood
▁installation
合法
tinu
dding
pil
损失
17)
▁Family
▁Vol
▁Wald
eline
▁radio
▁Baj
保留
IMO
▁Viet
▁strom
▁1951
▁Little
dop
uni
▁Cooper
▁Kati
▁ein
lines
▁tabu
▁Karin
vd
▁Quem
▁Usta
BAR
▁2.3
盖
实际上
fin
▁tragedi
▁Diego
具备
toire
▁Pink
▁Song
▁Als
cach
STI
beta
▁Rib
dho
crit
▁principali
遍
濃
羽
Non
批准
▁trem
▁ny
uyu
adon
stock
冒
bur
▁apply
dorf
copi
国民
▁NOR
▁propi
▁EC
▁目前
▁protect
een
▁Jugend
▁Mohammad
第一
▁gastronomi
▁Lille
▁outfit
▁Kurz
mman
fra
hya
figur
s
▁W
giver
Port
norm
▁syn
▁commun
▁Th
牢
输
hee
結束
誘
▁purpose
Air
▁spro
解
学术
▁lab
工资
bby
▁4.5
學院
扶
1996
▁Exp
▁tribu
entzia
city
▁commercial
▁Nada
DEM
eling
▁king
▁Si
essa
▁Ota
妈
困難
緣
eck
市场的
▁dossier
bike
▁ramme
UH
▁Schutz
tsy
▁Mach
tva
▁UR
▁Alap
imas
▁(28
早餐
専門
▁cata
▁Jab
ler
▁Elena
gud
cionado
▁difference
▁feature
VV
石油
sade
sis
▁rue
▁analog
愛情
njang
▁sofa
▁multi
麦
sula
▁Girona
cato
isc
▁patients
▁effective
munk
▁sleep
import
球
▁Esti
都很
岡
냐
ules
▁her
RJ
time
色彩
▁Bible
▁notice
▁grader
▁mala
▁Mona
▁zir
mart
▁Angela
▁Mer
▁unico
Zi
TET
协调
冊
檢查
既然
▁patro
tals
uum
yung
atos
▁donat
clam
K
lager
▁DM
食
二人
▁impro
▁Khmer
京都
source
▁such
PAR
ften
▁proven
450
estro
▁Gujarati
两年
▁Type
▁dispose
▁ident
纪
king
▁leg
ZER
asto
▁Haa
▁1925
-60
▁((
▁Kost
▁ad
▁gian
腐
ances
▁coordina
▁2003
▁lift
▁valor
愿意
彼此
▁Valentin
▁documents
▁Tran
auteur
out
Zo
▁Simple
一款
▁Player
▁star
▁DIY
▁Cau
伟
imba
▁Julia
뉴
▁dat
言
DIN
识
天津
杭州
dag
零售
大事
stabil
tane
▁robust
porn
cko
ncing
房地产
azione
▁profile
▁Academia
Yo
emel
反应
nava
▁american
▁tip
如果您
▁Oil
kra
amb
▁Lid
直
▁Andrew
讚
▁equi
▁particip
rren
強調
Don
▁Qe
▁lives
cious
面临
ecto
▁coincid
rimo
▁Bale
▁Dhi
ux
▁slit
対
nette
olin
挂
软
▁1932
▁ghe
▁sang
Hel
上網
rane
网友
鸡
ndas
ת
▁Weise
▁Md
保
▁suit
▁Enter
▁Look
▁natural
▁analys
整體
sit
向上
▁PK
年底
倫
▁Renault
▁Heart
kuha
ggan
pedi
▁September
时候
WAR
▁path
ives
ouvre
▁Dragon
geh
▁descend
▁interested
pap
▁Dic
▁goes
澤
ologic
licit
優質
ETI
▁Red
ṇ
▁Ghi
▁these
▁Tai
▁rhe
▁Format
▁Especial
Hy
16)
YK
▁lava
爽
矛盾
清潔
▁Award
▁A
▁16
▁Technologie
dge
sak
ACE
rande
Das
检
byte
院
總是
▁accord
siti
ambia
▁Gast
ADE
▁PC
Ein
geno
▁Dubai
居然
▁Haj
tifica
住
洲
220
追加
▁classes
▁admira
shon
pah
實現
ope
lab
▁mash
划
危险
練
ayey
▁Moh
990
▁thi
▁今天
mode
▁Carol
▁sancti
bam
▁AJ
daba
▁Low
歸
ṭ
iline
▁sur
▁Af
▁Patrick
▁realist
浴
bole
▁Cymru
浪
▁Mensch
▁Girls
▁1923
fut
▁Seo
gon
孤
meny
網頁
▁themselves
zab
阿
聊天
▁Jah
Sc
▁Savi
笑
dome
▁쓰
fiq
ane
RV
▁alb
asta
ramai
soft
▁repro
採
▁bibli
▁我們
bn
mist
▁pier
reb
neri
draug
簽
state
▁technique
各自
妙
▁Salvador
心配
▁illi
▁sedan
bani
▁st
▁rasp
mede
▁insu
esz
原來
変化
kou
▁4.1
▁군
vro
▁1.
▁circuit
▁Afghanistan
▁Account
采购
amo
▁sept
ropa
過程中
福利
NIA
▁restitu
啊
▁escu
▁Dobro
▁initial
arg
添
赴
执
默
lod
▁14
itat
分子
▁Volvo
▁uniform
spite
lem
▁sacra
▁Egypt
SN
▁1935
設計
▁bag
▁Hali
▁smil
Fi
▁ground
▁134
▁feed
▁SW
4
▁lup
ROM
zio
MOS
nty
▁Bra
▁Spel
▁Wein
vata
avit
▁diplomat
Im
辣
▁wan
eko
dido
▁CN
▁Gren
少
保證
dict
eli
▁API
▁accu
FOR
hela
T
不在
民宿
▁Magic
▁Chr
milla
対象
嘛
▁Temperatur
maa
▁Brexit
▁Deg
▁1.1.
MUS
eseen
▁Ukrain
▁Tang
▁colli
▁dah
rese
▁Bland
▁1928
當
在我
▁babi
▁arbitra
▁&
▁transport
奔
▁Author
▁really
scribi
inhos
mira
metri
sabi
▁Taka
fio
▁toma
HAR
▁Stato
XO
污
▁tablo
▁Bhu
inte
▁schema
▁angel
jia
半
MV
bju
▁define
▁Professional
都没有
▁Mund
的不
tiq
oxid
企業
儀
涉
新北市
▁palm
▁DO
拿到
▁actions
lida
最重要的
▁Iru
小姐
▁dividi
zale
”
▁are
anna
▁continuo
▁Alg
mix
serv
laf
磁
▁origina
tii
▁Dis
Dar
IGA
lase
One
的世界
▁Kaza
Al
ises
▁Moo
▁Die
fen
▁abba
▁habit
▁Rh
▁tempos
laman
白色
▁Frans
15)
ider
▁sor
▁Aires
▁gets
▁Rab
宇宙
ebla
评估
▁ple
uris
▁mau
道德
▁Feder
alen
mie
fos
tric
▁Schule
kowi
剂
▁control
pac
▁neutral
dam
▁legislativ
anos
▁voor
人在
dib
cala
aria
失去
simi
共
▁Paper
imid
Nov
▁regis
各类
illon
tler
map
IMI
nal
sort
牧
TRI
▁Wien
▁1/3
eman
ding
colli
ゲ
IOS
huma
szter
dei
對方
三十
hnu
ア
seda
▁practica
▁Ong
bum
SY
▁pis
sain
巴黎
提供的
▁Mais
▁Connect
▁intel
▁commission
▁Odisha
▁Marta
Cha
▁Oz
装修
ply
▁distance
vente
▁seda
作家
unti
▁Governo
▁escr
▁Dina
▁TT
tention
建
▁vigor
程式
DEL
孕
▁handicap
促
深刻
size
▁Usu
▁related
▁Board
▁Recep
▁DIS
aff
▁Industrie
lende
led
▁75%
peng
▁Invest
▁43
etter
入力
的作品
季度
tree
▁R
gue
▁beauty
kun
▁Holm
▁Lem
▁geno
▁Gum
▁transit
Trans
solu
▁opera
51)
240
PV
▁ray
生活的
鼓
芳
▁legenda
碳
网
▁Domino
▁tape
▁Tant
▁Turismo
▁Nazar
▁ou
周
▁Illa
▁Boston
▁deutsche
▁ven
▁Ori
▁Deep
Tre
的同时
▁point
舒
컨
legri
para
▁apri
grin
▁contest
▁Ngo
velli
element
▁Ferrari
▁Juri
健康
▁Such
▁Chin
▁logic
iyah
週間
▁leo
办理
power
▁15.
▁Mint
bian
sette
▁Pale
▁character
達
plu
▁basic
重庆
▁bombe
▁Holiday
▁Amir
▁Hof
amar
aus
▁Ferenc
媒
regul
物理
▁Joo
丈夫
眠
越南
醫師
月
▁Academy
▁Flori
midi
図
▁Gdy
hni
景點
pit
▁normativ
30)
RAL
iski
▁provided
chant
▁tyr
▁colle
ogen
▁1912
此前
▁Tank
▁Mitte
兴趣
賓
쟁
淨
▁Bet
/
我
3,000
▁Modul
gine
▁Andra
Tar
load
行銷
太陽
▁tips
▁claim
▁casual
letter
dier
▁Pavel
▁alta
peti
幾乎
青少年
摇
発売
恒
進一步
▁Cost
▁2018)
夫妻
電
青春
stis
cover
Mad
▁trouble
老板
▁Rend
▁roman
/09
昨日
▁Cea
真實
ERS
▁malo
▁Oder
▁economi
闻
”,
▁trust
frem
zna
实在
▁anta
巨大的
aniya
fuz
机械
娛樂
莊
lap
sions
▁Kiss
▁Ark
henti
ikos
▁legi
13)
▁index
pt
▁reputa
yri
▁optimist
▁ensure
▁Sev
oten
ssin
wa
▁600
▁ensemble
▁Poly
mbi
▁bah
cin
▁prohibi
▁Kron
▁fresh
未
fag
▁Johor
Mari
応
toma
▁Speed
haru
uvi
▁digital
召
zali
一同
案例
音楽
▁database
日
首
於是
▁19.00
真的是
wie
▁Span
▁Revi
墙
▁1922
澳
lee
搜索
▁Sic
格
enes
phu
准确
Bas
dwa
▁Herbal
门
ssent
reto
clo
▁Bandung
▁Le
病人
izia
体现
▁Abd
▁religio
▁Yet
▁ordin
0,0
UDI
Ny
▁Cool
敏感
▁Department
▁Marko
▁necessary
▁Taylor
esti
▁abo
OX
DAL
▁Arch
▁2016.
adigan
asu
yos
ete
lamp
ates
▁Zij
103
▁stra
▁bout
homme
▁Oso
総
▁Emer
Bal
▁hobby
▁regime
pp
125
▁Naz
车辆
kling
▁archi
▁Stru
▁bait
▁tension
▁FL
onge
▁Pli
他們的
bro
apparat
魯
▁14.
▁Gustav
▁fuga
围
isset
IT
▁4.2
Esp
dhan
的是
▁Fitness
arda
yes
木
dula
roon
▁Sao
usto
▁在
月底
hull
歩
▁allow
hus
Ser
▁quarto
▁quick
pian
Cre
啟
奉
▁statement
iden
▁NB
▁ayah
▁trap
zar
▁Kristin
edad
几年
▁stats
listen
▁piece
军事
JK
▁Vra
lie
狀
屏
▁Commission
了一下
擔心
▁Gar
bino
▁Sten
▁herbal
dida
dagi
▁149
▁480
观众
▁disa
kab
▁Organis
▁parts
process
最初
▁sket
ception
▁Rafael
▁meteor
严
品质
投票
主人
放弃
瘦
貿易
痛苦
▁ideal
下了
roid
完了
在这个
▁这
规则
wara
▁gale
▁Sent
epe
km
▁gravi
▁promis
kron
done
▁Donc
sual
nic
▁的相簿
raq
eb
ssant
kasa
▁Euch
启动
眉
▁loca
▁DA
苹果
▁Masjid
▁City
umu
STER
▁INS
fara
lof
▁Sint
▁we
prox
▁1916
tear
▁Baie
eket
▁CAN
thing
▁corpora
依頼
億元
▁excel
alus
▁Udal
chana
UNT
▁Trade
各个
▁STA
mono
▁Hati
钟
▁Wei
▁torn
下來
哪些
▁Sza
▁entire
以為
贝
tiones
▁Haji
▁require
▁Previous
▁hoo
关心
谋
采访
ps
▁explora
▁Wednesday
SIA
curr
▁marina
▁Pois
arca
▁keel
▁trest
▁DK
▁Mula
uis
Link
anger
荣
爬
▁auf
non
▁resol
負責
Ne
▁websites
ground
▁gel
▁vagina
▁ones
▁Made
▁Lad
▁alu
▁Radio
imp
▁133
abend
ists
▁Sz
▁2021
▁Diana
▁UD
▁cinn
ũ
ESS
▁over
isant
▁advers
两
増
myn
以上
接触
▁pest
適用
▁nich
诗
▁instead
cion
tok
▁Cava
angat
zlar
▁Ganz
工商
▁timp
石
▁prep
団
▁chocolate
▁Other
带来的
guide
之間
bis
angi
reta
▁construct
▁pl
fine
▁Wetter
▁completely
▁sensi
nh
▁satisfac
sugu
心情
▁Osta
房間
趋势
▁136
來的
32
豐富
▁considerat
▁offers
E
▁Dre
slim
09
wili
▁Arts
▁intro
▁stato
ateur
每日
▁ND
人家
bahn
ryd
ds
▁Julie
▁Wen
▁occasione
▁wid
allo
sani
▁Martin
鋼
pra
▁Isla
▁hydro
▁hake
oner
▁conquista
sori
▁cheap
▁repos
一路
▁179
PAN
▁Slov
▁Topp
ingen
終了
▁Palma
look
▁2017-2018
客
▁LT
招聘
測試
▁41
汁
▁License
一件
▁pub
pete
只是
機会
zed
▁Leave
▁AS
網絡
▁rice
orat
玩
KV
▁dedicat
▁toilet
▁abort
▁nation
綜合
angel
Mae
mpan
▁Geb
财政
▁Cuma
wer
▁Series
事務所
▁desert
sat
▁premis
▁Earth
▁Bh
地下
夕
▁꿈
▁Logg
在這
mb
▁1915
鼓励
▁Caesar
湿
堅持
嘅
尿
py
▁Istanbul
▁CIA
▁bad
大陆
Ha
▁sensu
▁Save
▁#2
ving
関
▁Moz
ctis
amento
jik
cuti
nome
kala
▁1910
当中
boru
JS
剩
▁Bre
▁Arri
adis
恢复
证券
▁Dela
肥
an
▁holiday
minis
▁Sop
快樂
office
dron
pino
gor
▁8)
預訂
bc
999
▁Tan
▁extend
▁137
▁!!
▁Four
▁Ice
veden
事实
小的
▁Vera
끼
deva
启
▁DIA
▁cal
hain
lom
▁Auk
▁Sta
▁Beni
upo
▁electronic
PAT
是要
niya
nov
rth
▁ore
是有
畫面
方式
fano
▁jung
▁decora
沃
Sy
▁moderni
깨
▁pin
情绪
▁Muka
▁n
▁Cai
音
▁Skol
▁capit
那种
▁Conven
▁Gra
认
madi
台灣
季節
▁138
ificat
▁Mohamed
一张
▁idea
▁west
lingu
▁19.
14)
▁Navig
▁Pablo
▁Testament
▁streaming
AVE
diq
▁ich
stia
Univers
保健
YM
▁Maar
0%
一方
▁(27
fh
▁APA
▁ras
Vis
監
▁lean
联盟
财务
爲
▁horren
後來
▁Prat
vost
DA
yog
rev
institut
▁Eye
retur
▁dos
XA
▁dus
space
anum
懷
▁shi
▁Dessa
flug
主要
PEN
RIN
▁split
▁131
▁Duo
▁Napoli
是很
sun
▁Aste
idin
职工
▁responder
▁mell
空气
▁habitu
梦想
▁introduce
▁Rik
以上的
imiento
▁resources
legum
▁encourage
▁Juventus
▁Hein
▁Scan
▁fame
▁(2015)
開心
▁香港
▁Land
nacht
▁changes
▁Suk
▁当
SES
打算
▁One
▁gira
▁pastor
▁styre
名前
list
收益
Pas
穴
rus
▁Sal
▁HAR
anten
▁apsi
turas
▁webb
bold
▁reme
skap
▁diesel
▁sanc
finn
目
MF
▁Alat
kunst
各大
gier
ji
郎
shen
SAT
chet
▁Hayat
名字
裂
著名
serva
kah
UNI
一项
tempo
▁successful
▁NT
▁colla
▁Norway
▁Nec
satu
▁History
▁Rub
▁Kamar
isk
▁Evo
▁Robin
交
▁bade
▁Zar
外国
▁spu
▁patriot
alli
ithre
▁Wat
hyl
arde
rsi
泊
澳大利亚
的支持
尋
nt
▁presi
user
▁defend
▁Western
▁Lys
ien
enean
▁plau
▁2006,
▁Suka
▁dome
宝宝
NV
▁1300
它是
▁Barang
mput
zb
Nie
▁volta
bres
本地
gica
▁environment
333
te
▁*
關注
▁1905
kies
▁year
▁Since
手术
histori
▁gaf
▁rating
drar
▁addition
撤
▁Gian
制
▁Community
seen
Vi
▁Alice
▁Pho
融资
▁Sin
▁chora
的信息
▁ale
weer
▁Nang
▁ecce
▁Crist
ilo
化学
▁Marx
eke
▁features
▁conta
▁BT
hanan
lad
▁diabet
corrupt
joh
▁MV
▁exactly
Han
▁belo
labas
直接
成績
▁Of
▁lettere
prove
▁urbe
ence
ettel
▁Tok
esprit
▁Po
▁2.4
▁Ó
▁task
擺
missa
lca
登记
haja
apa
▁Boss
▁manda
▁animo
olio
▁two
担当
这位
▁massa
▁lips
其中
▁1-1
▁vile
计算
gesi
Sun
QQ
▁Kuwa
病毒
研發
▁aan
▁Ay
▁Kaz
▁Jonas
:00
▁Brian
mud
▁minori
收
上午
▁Chia
使命
▁sine
enco
▁observ
ary
▁Interes
▁Robot
▁Rating
▁rif
▁because
▁죽
上下
舰
蜜
stro
▁rode
aging
▁emigr
▁cer
几天
30%
▁vegan
▁Somalia
▁1931
▁Bibli
ture
ppy
▁filial
ALL
pul
Tag
▁Como
美女
hund
gunt
TED
▁mail
▁regio
▁(0)
ixen
tsch
▁delu
▁ago
affaire
offre
▁Lago
ord
▁Bunga
teilung
▁Segui
▁Verde
oc
▁DAP
互相
berto
ombre
▁Tor
▁Jai
pix
人工
▁environ
guin
介
落
脈
▁143
▁himself
▁Paulus
eze
提案
您可以
standard
lere
▁Lond
ssum
地點
▁Bu
▁World
▁stab
▁Nha
favor
dod
dika
▁irre
chin
ium
▁spie
▁Gaur
▁152
規模
香港
laq
業界
▁SEK
lwyd
達成
▁Steven
udah
drin
食材
物件
esia
▁capo
ike
▁Rua
2018)
▁agar
cles
▁grad
▁Musi
包裝
孩子们
第五
▁Austria
▁三
成熟
▁artificial
迈
社交
▁quote
田
▁hoof
对象
▁pneu
wall
▁Sol
中華
却
▁certi
▁norme
man
▁challenge
FER
▁Castel
-00
▁从
IME
pak
▁Universiti
柱
phil
舍
Fr
tadi
tesse
我的
▁Marin
▁climat
ark
▁Banco
商品
HF
▁determinat
检测
▁Sami
聘
呆
織
O
NA
紀錄
▁Grie
▁Leit
▁Kazi
优化
▁spent
▁Pik
▁Vision
原则
arme
104
Me
190
ISTA
▁alien
lick
EDI
▁flori
期限
lop
讯
骗
sins
▁die
的就是
▁Energy
▁Asian
▁indo
SA
▁Dance
他是
elt
活用
ES
▁Beginn
▁캐
很容易
corr
▁Society
强
NIC
什么
ciens
▁game
大量的
新鮮
eggia
hwe
▁look
nick
規
haven
▁llama
immat
物質
要素
▁Boris
▁Deutschen
▁kill
▁fish
兄
clusi
世
shed
OMA
ovia
ggy
▁ra
▁kis
▁slep
▁Ecclesia
▁Kou
Ζ
ario
▁finish
▁glan
▁17.00
▁Proto
觸
▁Susan
▁Toda
▁edib
滋
失敗
raman
深
ZN
自动
ment
blas
▁merito
▁Pav
▁Geh
haka
▁Publi
黑色
▁recommend
是最
▁turp
貝
Au
▁rower
lique
▁Isi
▁father
▁Dame
조
minut
觀光
▁Match
vane
▁rolle
class
▁Herri
ute
/24
虚
諸
棉
房间
▁Ego
epi
01
▁Fine
cf
▁Dick
爭
▁Sari
ulus
▁HTC
▁permane
▁Militar
▁synd
tzak
所有
微博
tempe
aty
▁Johann
▁SE
預計
▁Outlook
mals
早期
supp
fisk
▁UNI
taka
▁mortal
當中
▁Tar
▁Tala
agne
▁Bosch
LIS
SHA
ann
专门
zou
▁David
fydd
Be
leis
▁advice
中國
alaman
真的很
aller
fili
疲
便
▁arena
kus
▁gha
round
telia
原則
UST
▁with
chol
ciel
vey
肌膚
nit
▁gigant
hla
的历史
inkin
短期
sv
▁soda
▁did
IRE
场
tons
▁textil
vini
commerce
▁paci
▁stea
shni
▁~
▁Bent
oso
危害
營養
▁postal
▁great
▁medita
▁singular
态
提交
▁gle
▁tyre
全身
▁Flug
oval
▁various
數位
kep
布
riam
▁Mert
▁ode
▁Molt
▁2001
Jan
share
posi
▁ear
▁(6)
流量
擦
▁AH
▁330
ota
▁humb
level
▁Brother
评论
gur
▁Hind
▁ath
▁Odd
▁Voice
ell
▁metr
▁label
▁aut
▁prog
graaf
zny
ikon
ovy
arts
LIA
otan
ndr
壞
▁cho
Est
谢
清晰
寧
appel
Les
▁sometimes
QUI
taa
▁Credit
▁itself
▁parties
4000
▁slogan
项目
eff
▁swa
lami
▁register
社
▁benefit
weyn
aldus
-2020
▁nem
▁vain
▁168
2.1
基于
▁147
haram
hez
▁tutela
yuk
domin
夏天
ier
▁Ordin
voy
▁fall
▁Shak
▁ms
▁BL
▁bur
▁Yen
▁thug
▁Question
▁accepte
▁Yaz
gin
援
楊
P
mba
apu
▁Collection
享
每
▁custo
▁capita
▁Olymp
▁Aiz
▁[1
▁metall
cal
熟悉
yar
不错
队伍
孩子
ares
DAG
一
▁Square
同樣
▁Workshop
▁Machine
▁Monday
▁Desc
ony
neo
▁Bett
▁Gunnar
▁zip
thri
venue
hoo
▁reg
SEL
▁digi
▁Sham
kind
▁Cei
shem
imit
▁nail
wki
rek
hail
hele
Hotel
khon
庆
活力
▁178
多元
店舗
泽
ok
IRI
▁okay
医療
zono
範圍
▁legate
深度
▁RH
▁5.1
NIS
desse
▁NC
hol
▁advent
laska
▁Jaz
単
▁Kelantan
▁16.
留言
kker
vi
culum
57)
▁quas
▁Cred
▁lind
▁fem
Ż
的手
mino
JR
▁rive
bitur
▁Servi
常
Ste
▁bind
▁imperi
莎
lustra
▁Venezuela
油
成都
▁Reh
▁PDF
團體
▁quadra
▁wah
mika
erei
dus
▁Beri
▁its
zum
▁resum
▁vera
▁ape
▁rehabilita
cim
hel
stede
▁idiot
▁live
▁ambient
TIM
▁Gaza
性和
▁editorial
▁comment
▁Stories
▁Dali
▁muss
cidas
...).
nita
▁See
▁Tower
75
greg
quote
▁dyna
uda
不出
裡面
phan
▁Regen
▁wouldn
▁所以
mutat
PUR
▁Skin
▁tribut
adat
▁(2016)
走向
▁giving
tiri
▁certainly
▁Kedah
SIL
▁Sre
ieties
完成
dva
▁Stock
▁round
得到了
人群
ops
uille
▁ICT
rail
▁Campo
▁journal
▁concret
puram
逢
▁apo
条例
▁Ctrl
前的
多数
▁maca
▁Warto
▁ritual
▁decided
▁Nat
suit
sion
▁Pati
▁political
lijn
lix
Apa
isten
attend
badi
▁Hansen
浩
半年
旺
会上
訊息
▁-1
对于
▁lyrics
▁(3
▁life
NGO
歌曲
▁Omni
straat
房
centi
▁Spur
▁Prem
▁Zu
have
▁coco
盟
Real
beda
前面
▁the
jat
veda
▁IC
剪
暨
鹽
▁Edge
puls
Share
roso
▁Jum
的基本
▁MIN
你的
新型
▁Lamp
▁gluten
▁Wali
mall
▁trump
21)
rion
Ye
地上
天下
ences
▁compare
==
风格
▁Diamond
▁Slav
familie
nema
▁Zap
jj
108
guri
▁tags
posa
NOS
碎
▁Track
先进
▁对于
▁grands
gir
DES
du
▁Ir
▁impossible
milia
委員會
kul
映
晴
seng
▁ramen
▁goal
content
CES
感動
是非常
▁Arra
▁poni
▁vibra
gebouw
lank
▁1,1
▁balla
▁Lue
econ
IND
▁DOM
计算机
崎
▁Medical
칠
nin
kol
zaka
▁achieve
bite
▁Klas
▁tub
立刻
秘
▁Editor
▁turned
tag
▁sente
musik
DH
▁Lige
jol
hik
Life
▁quickly
▁terms
▁Umar
nji
至于
koop
▁couldn
▁MR
cian
indica
▁elegan
▁Ismail
▁Paro
寻找
mmer
▁spare
FL
钢
關鍵
囉
nove
▁Yo
▁laisse
Ed
▁repe
▁Iraq
://
組合
▁centri
sing
SIS
nell
test
你就
▁Gu
▁artes
灣
▁Madi
说的
▁Kunde
▁big
▁Miami
可愛
帳
igh
▁centr
▁Nici
代表
記載
1995
基本上
Son
随后
52)
▁Slot
esc
osti
▁codi
bbel
retan
开始
廳
Ng
GC
gun
kopi
責
▁personas
charge
dosta
否
▁tennis
▁phr
▁Cath
▁Zim
摆
wich
▁Herman
▁Gael
飲食
profe
泥
▁guld
know
▁Lama
▁Atom
▁Sinh
GDP
明年
▁권
妮
▁Sarawak
MDB
nings
今年
tnik
▁Malik
Ja
human
▁pluri
姓
gget
fani
holi
port
odh
▁Nog
dded
▁Mez
▁contrast
Et
(3)
▁Sarajevo
▁Maribor
理
▁Sau
▁forbi
心的
stick
酒店
▁snack
▁MTV
luv
unda
▁Artist
▁ge
ase
竟
Af
壮
▁Georgia
▁activities
相同
選
▁union
▁Falls
Kita
▁Norma
▁Poi
的内容
anj
▁ador
▁psycho
lago
winning
▁Trop
ferenc
Ban
pola
▁plugin
▁Fad
vori
▁de
d
nie
▁loc
▁Laser
▁concedi
▁qual
好吃
▁ibi
▁glaz
▁teen
廉
灭
writer
活动
▁Teri
件
遗
origine
Time
▁plat
▁tanker
sp
▁Eve
俺
的机会
alt
齊
▁13
歐洲
▁Chro
▁marti
vali
▁08:00
曾經
times
nies
▁khan
2.2
passen
gita
▁combine
▁Usa
AME
domi
堆
▁prepo
▁Oliver
▁Lub
▁Halk
▁mask
UTA
顺利
琳
▁Halloween
tomat
▁Valley
▁sno
▁1,7
主管
▁download
ifs
dista
很大的
55)
▁transparent
▁odd
peta
taran
taq
▁Ace
悟
messen
und
檔案
▁ter
▁award
獨立
Bank
▁Krista
那是
▁tone
▁Kno
買取
▁1913
▁Orient
kram
rades
锋
幹
ee
雜
戏
zano
蒸
适
uj
▁?
管
▁energi
IES
▁speak
▁poor
▁erro
limo
reach
▁ratio
rozen
▁Precis
城市
NM
00
nggi
tube
▁reserved
suka
▁hosting
▁Katha
▁g
总
▁Jens
▁Kira
一带一路
▁Expert
互動
輸入
fors
▁Cher
学校
▁contain
conf
顧
▁COR
istische
立法
▁persist
hle
Live
▁Bude
▁Iron
▁or
SUS
▁Kirk
桶
澳門
▁acer
▁Council
▁Nintendo
▁upload
rwa
prov
兩人
没
▁resort
sep
▁184
▁Description
World
▁Pok
显
bov
▁Tesla
▁MIL
ovina
▁terrain
adhi
▁negro
▁then
世界上
TOP
zari
謝
你是
zza
Gal
高級
sano
zi
▁April
hake
虫
kii
蓄
EO
enda
▁claus
jada
▁Cole
▁sandal
▁17.
break
▁Hoved
▁Zoo
tical
put
律
dder
▁arrangement
▁Afrika
rilla
icis
▁1926
1990
fr
▁Amer
一边
▁Tava
还会
mella
▁internal
了解
▁quart
▁Ms
good
▁US
mize
意味着
▁Lut
scope
的力量
▁ampli
▁Know
▁organiser
▁gate
cules
▁20.
▁mind
nent
▁Rico
▁Content
shme
天气
ASS
▁centres
洁
▁8.1
plati
maran
▁eva
dre
▁2-0
▁Roulette
">
绿色
▁bras
ray
hole
▁jeans
poro
bell
▁lur
▁Mimo
▁Vent
有一
wegen
lyse
▁Jorge
spin
物质
▁Dispo
▁Bashk
ndan
▁Bek
arias
condi
▁Platform
▁1927
XT
思维
李
又是
▁disease
ambu
▁er
▁!
ech
▁Sweden
sur
▁Handel
count
▁menstrua
▁after
370
wach
▁Haag
▁Fon
rind
mata
264
▁Otto
▁bond
ayeen
效益
鲜
▁expand
▁commence
▁right
稀
bem
盗
重視
▁paste
ad
총
urta
▁delicat
slag
Od
▁burg
vara
众多
▁Paar
▁cron
iyang
▁Alo
▁ml
▁Drog
耀
廢
查詢
水果
▁Mountain
bla
▁reflex
Energ
▁(2010)
jong
▁breath
▁copie
bli
53)
的效果
gant
▁news
active
activ
▁850
vedi
kowski
▁Ident
ofa
軽
▁Guy
▁Perak
polski
澳洲
▁Amal
模型
▁누
雰囲気
uti
▁Vah
▁occidental
▁25
▁Charlie
今後
的企业
▁zoo
▁marker
gre
icul
gura
▁diff
▁Bern
Max
ult
▁Anima
两国
▁lots
dys
rky
現象
的服务
wahi
▁husband
▁Cum
▁redde
幾個
▁Ner
▁fixe
▁astu
ically
▁Social
istica
uit
▁catalog
iad
▁tere
▁Pred
狼
▁formular
ID
resa
▁helm
▁Stati
▁Fag
lhas
stige
风
▁pertinent
能够
▁Geni
ministeri
▁definit
▁marr
fri
enko
lied
天的
全球
ance
諾
▁bro
kumar
経済
▁Trondheim
▁album
tari
▁ski
cd
▁surface
rua
rale
adore
▁spra
▁To
UX
告訴
ques
▁Natura
OLE
griff
稍
為您
tay
▁Asha
恨
方面
▁NR
乌
▁moderat
醬
cem
引导
▁SUV
▁Tokyo
点击
wikipedia
▁Jal
▁specifica
▁Marti
德國
▁Sue
gambar
▁12.00
危机
加速
▁trading
Str
58)
▁Marian
Med
qual
▁142
賀
註
动物
▁team
senter
tuma
▁Cit
news
潜
▁Zon
行业的
▁Hj
rski
纯
tego
usha
ddar
bili
▁Slu
▁1700
antha
lov
全力
▁nano
û
险
sby
▁effort
侧
sump
殿
消失
▁Doma
...”
▁avoid
luci
grat
▁ting
▁Hori
▁transmit
tike
hty
▁Barne
▁CT
rk
kovo
ter
▁Valle
▁現在
▁Vie
lew
vora
Po
▁Rabbi
▁sporo
▁execut
2,5
▁Kids
另一方面
驾驶
War
onga
XL
只有
▁Ruf
▁PM
▁Easy
爱情
▁mem
party
▁flexibil
自然
mast
in
▁meg
▁ambas
ians
▁mesos
小型
▁sake
很高
argent
vir
▁Instru
將於
本文
岗位
奪
接下来
칭
oty
eti
wur
任
TOK
▁nude
kerne
▁Morgan
ough
▁paid
▁users
Alt
rijk
▁defect
▁Police
sial
▁Seda
▁fines
▁vaga
▁Deli
▁starting
▁Village
保險
verdi
▁(2013)
世代
漫画
▁Reform
来源
▁Fili
▁Teng
▁Sze
▁49
nian
▁suspens
▁cogn
szt
想起
▁Sinne
▁Tod
▁Sec
▁52
▁tende
opis
▁tantra
48)
ssimo
ising
邀请
風險
▁Sha
▁Participa
▁case
▁Nell
stans
▁nuclear
▁Giang
roy
浙江
▁00
vaz
變得
▁made
▁yes
away
▁Simba
教育部
▁ding
不久
催
isha
坊
Box
G
foni
▁movies
Yan
aha
浦
plast
嫁
不够
字
Bu
▁measure
°
ml
▁load
suh
報道
途中
法國
▁benefits
公安
▁2022
▁gear
▁late
xil
ulation
▁irrita
百
-31
▁Verk
畢業
佔
frica
▁Microsoft
▁PayPal
▁21.
跟我
▁DP
▁Heil
▁Nissan
schule
▁boas
变成
viser
▁Vos
igra
▁Hid
握
ind
Media
aru
An
在北京
pem
但我
学生
▁astro
3.5
antan
yasa
普及
傻
朝鲜
accia
▁Elizabeth
收藏
▁easily
斯特
byl
cham
▁facto
EPA
shire
▁morda
itum
話
▁Luo
Kor
学科
▁Galeri
fan
日上午
▁Belg
▁Sie
vajo
barca
▁Bole
▁Bird
▁folk
结婚
▁Nigeria
ral
▁Coca
▁Meet
rador
一次
货币
▁amino
巷
古
encia
stico
▁Petersburg
▁blad
▁Soy
iani
▁Paris
▁limon
▁Rup
▁determin
shot
▁ministeri
▁taille
▁bun
学习
▁luma
▁toy
▁hop
▁prostat
▁146
rne
TW
▁Rao
仅仅
▁KP
▁Vis
▁Quint
▁protagonist
观察
漲
▁Rotterdam
▁physical
▁Pria
80%
▁causa
▁stop
经济发展
1-2
bjerg
▁Formula
▁Eri
▁17
▁slow
▁GRA
入住
▁Meter
▁Cour
▁Than
婦
astus
Dia
OS
的服務
▁solicit
AX
▁continent
男孩
▁lost
klon
She
鼓勵
▁Saturday
razil
▁Conseil
hama
pla
QA
▁Kat
transport
▁musique
▁Saul
lovi
社会主义
視頻
必然
zv
明天
▁cali
▁Age
ppan
wab
bol
情感
Um
▁Disa
▁servo
复杂
决策
借款
▁iTunes
主持
▁tools
zin
▁Familia
运输
chor
estima
llus
;
ze
2.0
▁您
▁Valencia
▁Petri
客房
▁Pep
Ana
▁Sinn
▁mos
ruit
妇
ubo
絵
▁notes
▁4-
▁Stavanger
▁CAP
▁177
eaux
waz
tner
▁logge
再度
lman
▁original
認
▁incur
stave
▁Product
▁Soft
状
▁Clean
▁Constantin
xico
tario
▁Salva
斑
▁Barbara
▁uku
bble
▁Ciudad
▁Aarhus
▁Esper
sena
清
▁Perfect
▁156
info
一直在
黑
케
▁modifi
▁eat
rao
Pol
▁Paula
▁FN
質量
▁Bruno
-90
▁Far
This
-2011
注重
紧张
HC
rem
▁admir
时刻
▁Stol
▁Balti
▁183
▁arro
興味
▁Virtual
pus
▁impar
ctura
fett
▁Dyna
▁liv
▁Ministri
▁impre
他的
▁explain
Des
三大
琴
▁Equip
▁Jensen
iza
▁EN
▁Visual
▁gentil
▁czar
ppe
asso
verne
▁Nice
gi
air
▁Jobs
▁Brez
▁Barri
▁Palace
20)
高级
▁Stri
类似
cava
ld
▁opening
patia
SIM
▁Dhu
▁Holding
細胞
▁Bal
▁Agama
Qur
公寓
会员
▁decor
▁Nemo
▁jen
▁austral
Mark
身边
NF
▁Dire
inta
尋找
Kr
▁Transfer
hud
hod
邮
浸
▁Ker
▁Kapoor
科技
MY
▁Mans
wp
▁mah
-2010
▁Veli
本站
▁sortie
▁Giu
▁ruin
錄
issimi
▁cre
▁2005,
2014
饰
▁als
買
yad
況
▁gemi
▁Bur
坚
芝
或者
濕
▁Challenge
▁Carmen
gia
reform
▁login
▁happened
星
日益
mning
Vol
任何
utama
▁你
込
DAS
▁Nord
新增
▁go
fire
▁Rayon
Benz
ischen
tkin
提出了
bric
esi
礦
vuo
▁Sar
反應
▁Instrument
▁Bing
▁CF
保罗
各项
layo
▁Boo
ayat
venir
▁Inge
▁ho
euro
这种
▁Politic
环节
▁Savo
▁cam
▁Zir
駐
▁Esa
拓展
usios
Ok
▁(2014)
help
▁Nema
▁destin
▁Utili
▁Cash
▁aval
▁startup
聯合
chatting
▁jud
▁Bada
▁orgasm
掲載
fers
".
Super
▁proteg
▁Canal
▁Antes
mania
butan
▁205
▁dominant
▁bombard
▁Oslo
▁newspaper
▁Roy
▁pur
▁tref
XC
東
▁theme
▁Krieg
越來越
十五
▁此外
▁u
▁jo
▁water
pallo
不要
生的
▁installer
pka
mad
abel
tland
reste
><
▁Sache
"),
▁Member
▁Afrikaans
ezen
urra
不動産
lex
作为
連結
hatra
部分
▁practic
機器
捷
▁Fiat
rece
▁Debat
▁Pauli
▁find
▁cala
▁mano
polit
▁beneficiar
bril
diet
▁Hud
messa
▁Susi
▁SOS
rann
▁Jahr
迁
俱乐部
▁Ime
▁pseudo
波
▁Republika
期望
▁raga
广东
▁Bor
▁CAS
▁emerge
API
▁Mass
KH
▁Ec
guen
▁pop
Tri
handler
▁feet
▁Must
mys
▁tui
▁Alberto
▁Reich
▁Colombia
血液
▁24
▁Secretaria
▁notebook
ness
kao
即将
募集
porte
經常
SG
農業
Esta
47)
fier
出来的
▁reserv
▁(18
間
▁Cornel
▁Tali
pene
▁GS
rle
bes
上班
paper
insta
▁Cym
▁where
▁dem
▁Wis
▁Swe
▁canon
nize
modo
动
▁jobs
取引
▁calcula
記得
▁ZA
一半
ysk
黒
称
▁Spirit
覚
▁Sonder
trol
▁Nid
gna
fus
照顧
▁haf
不然
ayn
▁Sey
▁AE
ey
▁alle
今天
▁SRI
ungen
潔
戸
無理
vell
▁still
letes
温度
▁Mon
▁Kanal
▁Method
子女
▁Rex
evan
▁Nove
▁Suma
hini
–19
進
guda
▁NAV
ched
daran
or
▁sell
己
明顯
▁Benjamin
▁Prev
▁Bei
idhe
hirap
▁consistent
▁Amen
▁Boa
▁Alfred
toxic
溝通
56)
8/
▁fun
还没有
emon
modell
▁credo
verge
-2013
went
ZP
▁nicht
▁marketing
▁Divers
▁restaurants
▁Lucas
展开
▁organ
▁Country
款
▁mechan
alba
说话
农民
ups
▁root
▁plato
▁Nata
平台
mille
ssos
张
rabia
ZS
▁Orange
▁Pero
年輕
▁Suite
現金
▁reduc
▁grosse
pain
▁Terre
▁floor
▁occur
sidi
鎖
▁Tark
統
ppa
▁costum
Σ
▁gone
/20
▁tren
那個
BM
支持
psis
▁nauti
四个
na
▁EG
yang
▁creati
▁SEC
▁FR
▁compa
pne
▁NAM
VB
▁Gees
即時
昂
alem
▁PlayStation
満足
▁lance
▁deliver
EUR
taler
halen
▁pictures
▁labo
▁penetra
将于
rique
fel
多种
文学
gau
▁Azad
▁command
▁Partido
的感觉
那么
▁Talk
▁Neue
▁Cui
way
拳
的想法
訳
処理
在美国
▁cat
▁mora
ject
GV
▁playing
▁Meu
小学
你要
▁device
phon
ppi
概
▁Protest
巴
▁received
截至
kub
现象
▁SAT
pos
▁Primo
▁posting
起了
热情
中国人
venta
経営
放送
凱
▁dun
촌
▁Tarragona
▁Sh
ahir
加強
▁뜻
引发
kommun
▁hundred
rose
▁defa
穩
成員
CY
注目
lli
▁rene
的公司
ragon
tepe
Apple
tore
赚
碗
▁Quant
▁Lat
▁Airlines
▁pistol
By
▁Hope
olo
▁Petit
Zu
Online
wb
▁(*
▁involved
▁inner
▁dove
▁biblio
▁Fac
▁Lern
一般
的感覺
▁alone
cule
工人
cycle
至於
▁sh
遵守
▁consult
分類
assurance
ruth
▁Sun
▁all
rente
▁16.00
hair
▁Bee
友達
▁Helen
onas
▁recog
▁CNN
▁1,000
▁IE
▁concerto
私人
▁Kv
▁garn
uck
arb
BET
悠
▁raun
鄭
爱
▁Distribu
hip
一本
▁(2012)
事務
WC
sche
hawa
▁pude
▁0
▁sera
講座
LJ
quest
iswa
prog
▁gor
▁infect
▁Lec
吸收
▁Plant
之旅
dit
▁banner
font
家長
itten
▁down
是一家
▁Wax
▁Rez
這個
想象
mbo
▁propo
bin
▁Bangkok
▁lex
▁growth
一方面
dr
▁Saba
▁merit
▁hypo
nk
▁visible
chou
belt
欢
STAN
5
想法
hic
拍摄
▁circum
▁Kid
ṃ
impa
▁humanitar
領導
▁Espa
▁incl
▁Titan
▁zones
▁Beck
ivel
anana
▁vintage
▁my
Tele
▁November
iglia
国家的
▁sei
一批
▁Bili
面向
▁indem
▁reply
报名
和其他
droom
則是
▁kim
诊
itu
▁compliment
廠商
sulta
▁Lep
觀眾
僕
▁kwa
vania
▁peal
▁Skor
AGE
▁fest
▁created
▁alternat
暑
▁Innova
▁stream
-300
tags
▁rigor
BAT
atia
ban
▁Auf
vur
capaci
▁Boc
▁Marcel
▁Iga
▁roa
▁Parque
mel
她们
boa
▁feminin
看到了
mia
年轻人
反
lesi
▁800
mbr
=3
naire
甚至
疼
gulo
欣
▁IV
▁1100
sib
▁maintain
▁innovation
cre
Pen
▁Theater
▁159
专业的
▁Coin
伤害
USB
Ar
enos
▁extraordinar
▁Barack
jec
▁Prag
▁(29
scul
suse
1]
FX
隐
戀
扭
▁fog
ffy
▁gives
pa
▁46
▁Austri
記錄
▁prec
▁Erd
▁hom
告知
El
力度
ddin
2°
pump
with
kow
OUR
▁Grill
▁importe
pane
预期
kale
▁Mauri
onde
▁Wam
zama
▁148
▁Divi
早
▁Gio
bygd
▁Lao
小说
dino
▁he
律师
gora
zep
▁materials
▁decis
▁Aw
010
oke
▁plug
▁Basis
放心
▁Zona
tica
flor
ZZ
▁marin
lania
▁miser
▁Cala
udin
歌手
▁show
订
▁Palestin
▁Kristen
欄
尺寸
外交
顆
类型
▁have
▁hardware
父親
创建
▁Cover
▁logo
▁153
含有
▁Qui
▁leit
冠军
▁Chinese
▁dela
处
elve
tuo
BK
▁fet
熱
初期
tzu
梯
buz
hallen
▁Don
mr
鍵
年齢
nga
▁ramp
▁systems
▁koto
还能
320
老公
stri
▁cir
1993
1991
▁Mat
▁Daug
▁Once
Ez
▁47
bilitat
絕對
▁Alpha
gato
大学生
bent
sug
fjord
力的
公众
衝
腕
▁nostalgi
▁background
▁Program
▁201
cked
設立
设立
oxy
▁Scar
▁mini
▁naturali
▁Wonder
▁selle
但他
KIA
chy
▁Deput
melt
那就
▁snap
tagen
氣
碰
▁pila
ssen
豬
▁Chance
▁Druck
寶寶
칼
..."
▁countries
▁Rita
▁Hu
▁Jie
▁fins
▁cloud
0°
rna
▁relationship
▁menar
Cat
▁ADA
AVI
ASE
▁Fu
的使用
▁description
stopp
▁Centra
醉
傑
郡
▁Naam
dores
▁daughter
指示
▁Club
非
reve
▁reserve
zet
▁window
確
▁ber
wazi
virus
GRE
▁augu
▁Volks
html
▁2025
▁Italia
▁Snow
非洲
nat
以往
tare
推廣
▁pause
Mak
▁Consum
▁CB
nci
pedia
▁si
po
hem
vasti
hihi
based
▁ING
千
▁Sit
▁investment
▁stylu
▁str
informati
也不是
▁Dib
▁mye
▁abil
▁respons
▁invite
cias
prav
▁danger
▁Fateh
▁storm
04
▁ulterior
posit
wn
▁hetero
▁conversation
007
▁Khan
▁Anna
▁Brod
▁rebel
▁Dat
▁Litt
▁Fax
擔任
▁Zuid
ese
▁Follow
▁Nil
蘋果
▁Strom
duct
蛋糕
▁une
▁possible
4/
球迷
ovka
▁Kush
这就是
▁boom
yari
非法
▁pink
houd
akku
開始
▁annual
▁Tama
▁Kent
威胁
mitta
▁Vat
▁BC
兩
torial
▁going
▁Idea
xana
olas
minen
atum
的老
▁2/3
▁Lewis
▁variable
开心
2013
126
▁Prov
zier
wati
第一个
luku
tif
tunt
缘
300
duction
BV
▁7,5
▁son
即
gesetz
1992
ggia
reid
▁nap
不上
wasser
▁18.
全省
▁10000
▁Emo
agoa
eur
▁wilde
▁proved
heni
otus
▁Bald
是個
▁Moda
▁xer
以後
▁Fins
邀
滅
▁tw
燕
atin
祈
牆
公园
了我
0)
ben
lecti
esta
sung
amor
▁fue
▁higher
▁Leng
百度
▁electro
▁dramat
室內
eaza
keh
▁Revolu
▁Boj
▁Matti
離開
▁Conce
產品
▁MH
sulat
滴
利润
▁han
rom
▁Tahir
▁Belle
To
666
▁enti
▁projects
▁Source
▁memori
▁Second
imize
▁Details
grip
▁Perse
▁GM
En
28)
▁button
▁finally
kull
声
株
▁Congress
yish
vien
▁Regierung
▁Dik
▁fell
▁baile
▁Saya
suf
rista
erant
▁domain
請求
alo
▁terse
高效
▁11.00
▁demon
▁Universit
条
▁bless
49)
▁9)
闪
繪
TA
陶
抹
漆
ん
sola
fry
▁programmer
yle
▁420
NI
▁appella
▁KAL
遭遇
支出
▁Give
▁Mono
▁Santa
Top
▁folklor
▁trauma
▁2016
stani
▁ocean
▁Mission
暴力
▁plec
▁ranking
▁rus
pastu
▁kern
▁Innovation
崩
▁appreciate
▁evidence
werk
▁Tep
ultima
▁Mari
▁Vala
appar
CON
▁bili
ytt
形势
▁Uber
州
▁ja
的一些
▁Pizza
gyn
▁sank
god
▁hue
▁SPR
▁Marija
pot
▁ulama
競
▁ATM
snes
▁Krim
muni
考察
退休
▁fac
▁Photoshop
▁canta
yla
▁intent
▁Piet
▁requi
▁motion
▁stemme
诉
Tha
die
▁campus
▁Sven
生態
以降
she
rez
咬
往
▁Jude
nish
▁Kamer
謝謝
體
mish
▁Ellen
hlen
ik
▁deux
▁Ryan
patu
▁consente
走到
▁lor
▁Biblio
take
气
▁Farma
ntino
现在的
59)
帅
6000
▁materie
的所有
stare
▁mur
hill
▁Vind
HH
▁Alm
check
▁Apart
1500
ets
▁additional
▁loved
▁folder
▁Stra
素材
▁pirat
▁Horn
▁krypt
anie
解放
▁Devi
fat
haba
味
▁Penge
▁tant
miga
▁162
▁158
▁Libro
▁chun
pose
究
taro
cos
▁cand
AL
▁Salt
▁Tramp
▁Item
▁Loch
ful
▁fight
dham
USE
住了
heer
ikud
vais
Col
ably
▁Tito
切
kosi
▁Schw
opter
沖
▁Antal
統計
優秀
▁Du
nus
▁password
▁rum
▁09:00
一般的
名稱
▁Quang
▁leath
▁accent
▁trus
到的
一定的
黄金
Shi
Met
▁brain
▁stok
Ji
▁dedicato
▁Archi
▁157
▁2.
amos
minum
vers
实验
MOR
外部
▁expon
▁5,5
▁Ever
▁wax
▁Where
▁Fra
Tan
▁shan
Plan
▁pita
▁recently
fart
▁experts
▁(=
ils
RW
xio
儲
▁uma
skom
linger
▁Diploma
GL
▁Dah
影像
boll
rase
▁Muse
▁prosper
▁Sandra
坪
oze
▁Conserva
▁integrat
MES
▁Solu
▁$2
▁Mark
数学
伸
050
到
馬
▁Jav
▁Math
看见
眼前
ligi
▁Andersen
▁Gross
▁MAC
▁pry
lia
riana
▁pater
ATO
verte
覆盖
▁destination
gp
▁ferro
▁Prae
▁2015.
▁Nicola
museum
▁Koz
▁principal
▁Grab
▁piz
Ant
PJ
ksin
▁kara
▁Wenn
jian
Shop
winkel
▁cair
1994
▁interact
▁verbal
jie
panga
OTE
▁MIT
日下午
▁za
有一些
▁weld
煤
习近平
撒
▁tad
▁Els
flan
GF
▁Economic
▁Malo
針
HN
▁Stalin
▁soldi
的名字
习
▁trik
welt
▁tag
的安全
runk
▁64
類型
rzy
一是
▁schoon
血
prob
oppi
▁Pilot
浓
grand
▁CD
拒绝
我知道
▁individuals
▁presidenti
技術
ovic
活躍
是指
华
▁dur
▁Berna
▁temper
▁Area
▁wat
sus
持有
▁pad
的中
職場
個性
▁impedi
▁tester
▁Frem
▁Folke
ania
體育
shka
圆
凌
bunt
▁Chennai
▁vertical
▁Interview
torius
bri
▁Punjab
▁tattoo
▁Arthur
▁rasa
▁Universidad
是我们
bling
老婆
š
▁string
▁380
▁chu
▁Sund
tema
ont
学者
moi
▁Ges
nous
▁2,3
▁Suites
▁141
▁pana
▁ambula
▁degree
▁presiden
▁PS
著作
▁hard
▁buss
bait
▁dispo
huizen
▁hel
家中
▁Summer
nder
部长
atu
▁draw
gener
▁deniz
究竟
的水
▁MEM
marked
casa
▁Peter
muna
▁Cook
巴西
分析
孫
不多
▁Mis
閃
▁coffee
ou
▁influence
inis
▁Circ
多家
▁rendere
▁NAS
Mat
punan
hell
▁fluid
rogen
储
estas
▁Jord
號
Kal
同一
▁Yak
壹
棄
ckar
的技术
柯
わ
Vir
——
▁Charlotte
一只
rel
▁conflict
▁Much
▁Michal
handle
▁global
▁QR
▁Photos
▁Linn
cand
rer
nasta
sidor
▁anal
2,000
▁Princip
▁Meli
▁從
▁(1)
▁Ramon
▁Rado
▁李
▁Hor
▁recol
▁edition
avis
▁Ninh
▁mush
上的
▁Malam
report
awa
▁amateur
人的
▁Gat
▁worked
瑪
GET
벽
▁Ne
修
▁Iglesia
▁Medicina
新疆
融入
▁efforts
神秘
spring
▁Eugen
具有
瞬間
▁Duration
ously
▁text
liner
▁immobili
VG
agens
Out
▁1.8
▁Kato
简单的
▁romantic
▁IG
▁langue
▁raid
ISH
面積
isht
▁Unde
不懂
侵
缓
▁Saha
▁awesome
Kat
哪里
▁Magnus
▁Banda
赛季
pension
▁Rhy
影响力
▁proud
arat
kos
▁curios
味道
htm
wic
▁rule
▁EE
無論
的設計
prote
-
▁v
sata
▁Lock
回去
leges
Bro
▁Fer
术
▁176
▁(*)
▁Oda
▁xen
▁RP
▁Belo
metre
迹
▁Policy
基準
hout
▁Pret
▁dico
一座
CAR
▁Sac
▁hot
TIS
▁heat
分配
的日子
▁literat
▁pence
▁mus
xus
NE
査定
Fu
▁Sur
Bel
▁tonn
漂亮
▁Sp
▁kava
強化
ttu
▁HK
▁4.3
▁Di
▁IP
竞争力
euros
▁tunnel
▁judicial
▁Ger
▁Australi
Ba
ghan
▁Block
▁useful
▁vendet
页
▁terra
▁discipline
▁menu
▁contamina
-200
覆
▁arran
▁humanit
枝
尝试
女性
torie
gori
▁perspective
▁Shopping
▁publish
BA
客服
▁Ticket
▁Jedi
▁3.3
▁Philips
▁gris
rasti
附近的
年来
▁215
▁being
▁innovative
230
doni
▁Liza
▁sham
進行
amon
▁Jama
▁20.00
即將
▁Size
▁Dak
▁Serbia
pion
install
4,5
▁Cancel
徑
解决方案
▁campaign
▁100
无论是
▁Yusuf
licita
若
shma
▁changer
lds
▁Limited
trekker
午
▁Georg
▁212
▁Meld
▁14.00
distrikt
▁Bona
▁根据
SAR
▁Pengu
▁Glu
▁Walter
应对
▁honey
▁Muk
oane
▁oo
enza
当天
▁regal
zero
式的
▁luci
▁Pada
夾
▁ignora
薩
anda
为主
▁August
kang
他們
監督
▁straight
▁hed
▁mille
▁Coco
▁evin
biec
▁Kal
direct
▁garden
▁KS
urri
▁UL
▁support
order
-70
▁dans
▁Bod
miti
佈
▁business
▁Fern
▁Ty
DZ
▁AFP
▁Dzi
▁Henri
▁Gest
AMU
NG
▁2,4
fallen
pine
剑
繼
▁Rhe
봐
▁Mohammed
▁indispensable
▁1911
!)
▁provok
ptu
▁Tanzania
过了
基因
▁t
vante
▁lateral
▁twee
作成
▁前
▁began
▁Automobil
bridge
▁grant
▁aca
環境
▁Cell
▁Nech
▁Sofia
demo
今
▁hung
予以
boot
休閒
宣傳
pper
▁Brussel
▁exhibi
resc
ls
風景
身心
▁plasma
▁Fed
▁fi
▁Tin
充满
▁stre
▁Fabi
书记
▁Vald
▁statistic
▁pair
▁balcon
▁Lust
▁TC
27)
Red
▁elements
潛
▁SQL
▁bando
▁gy
肺
柏
▁schedule
lta
▁Rev
彼女
▁jag
vos
Far
▁pet
▁cola
▁chair
faz
▁definition
region
▁vehicle
▁Rol
▁q
▁pivo
졌
iac
夜
brit
ential
▁Morav
本書
▁career
▁Kram
▁et
喜愛
▁bam
kim
周期
▁gol
内容
1.3
更多
▁Jor
▁Igor
好友
▁before
达成
▁must
运用
meh
▁Diya
▁Feld
▁pil
失
▁9:00
▁strict
▁HC
普段
▁Esperant
▁RC
▁1908
uqa
▁Ved
▁wedding
▁pressure
▁bear
▁mob
torum
▁Esperanto
▁Finance
越
informa
mbala
近年
▁presente
▁Porsche
▁Order
▁Industrial
▁Mult
▁meli
▁뿐
AMP
▁Carrer
的功能
▁2017)
価
▁Trav
現在
▁falla
也可
▁Commons
▁Norden
▁ability
Next
▁Festival
▁VG
对我
soma
ver
▁tel
▁iPod
▁safari
▁mia
▁Boden
expert
隨時
中美
iri
stag
hwy
一群
logia
miste
束
邪
輝
▁mali
▁Cent
▁Oku
品牌
▁台灣
小說
veren
Ka
▁154
研究生
▁Cet
▁aluminium
步行
block
books
▁Julian
tery
trici
成功的
▁Hausa
Free
▁Viva
GRA
iau
取得了
▁provider
raw
vitamin
verb
palo
Kau
nera
認證
負担
人工智能
▁pile
接觸
}
▁saber
▁accessible
klud
容量
aketa
▁Sca
▁Toma
nging
olon
▁Aku
imat
▁15.00
kapa
endre
▁Rac
▁Guardian
ust
用心
▁Zone
▁discret
闭
乔
▁Durant
▁Wikipedia
谢谢
粉絲
運営
▁pH
bben
展現
▁Ege
招生
要是
▁dra
▁Money
▁PER
▁mandato
▁Soc
即便
不管是
▁arts
IFA
ot
指
tase
▁Tiger
中的
▁Recept
▁0.5
▁casino
▁quota
▁wrinkles
TEC
▁(2011)
▁quiz
▁oblast
128
明日
一直
▁Sme
YU
See
計画
▁Kui
▁inform
LN
riq
OSS
好多
▁engage
▁intermedi
bica
▁Plus
▁8000
▁gore
How
Var
▁photograph
▁1,0
▁Denk
Pal
▁election
▁Reng
的核心
这样
信仰
lgan
可惜
▁attempt
▁safety
der
台南
▁welcome
了他
cando
▁32.
tika
manns
▁Sof
05
▁Pastor
irat
Ó
chon
mult
贫困
fres
oida
▁Mio
▁oddi
▁另外
▁exercise
control
▁cle
▁payment
▁is
▁J
▁Nit
wal
陌生
▁Saga
▁Spot
旗下
政策
63)
行业
Commerce
▁Eski
ove
▁Atlant
circ
▁Consulta
▁Quid
impression
▁LP
▁Constru
▁sensible
▁Camping
bib
arski
lu
一篇
culi
排
▁contesta
▁corresponde
担任
不明
vena
ave
裝置
浪漫
Gar
▁Mexico
我们在
MA
Bil
我和
他也
▁Nek
gast
▁Ja
▁Lion
But
▁Pole
arto
▁exit
▁Nieder
▁ach
ird
Euro
▁Apostol
▁Rog
憑
烧
猪
罰
連續
圧
▁cei
超越
▁tun
2.8
▁ludi
ste
▁cor
UDA
實在
▁Pak
▁Brasil
领域的
▁Maji
aldean
▁dri
chop
OF
0-1
▁Slim
BF
由此
▁김
Iz
▁Bukit
▁cache
▁Cle
人氣
▁divin
lup
▁PV
cius
兆
▁dance
▁Za
TE
经理
elo
▁163
▁Presse
May
dz
▁Sean
▁currently
▁obvi
▁CO
乃
hata
3,4
ural
三個
hea
▁finance
ozo
总体
▁Marine
▁1998.
IWA
公路
天氣
▁Voor
heb
toris
▁Rain
▁Monta
IPA
leo
▁Bomb
geme
净
識
▁GAL
锁
▁Portu
▁Milo
▁Israel
深化
欺
纽约
ams
▁kva
rosa
主体
▁disposa
▁literar
suku
ladi
▁Nation
hava
▁Wales
▁Jet
(?)
发现
战斗
band
SSA
hine
▁Vater
▁Batman
▁Ada
动作
mmat
▁promotion
四川
▁damage
hl
尺
▁Gon
肖
▁Kim
人文
5.00
▁argent
▁edi
MON
▁1999
▁Sub
▁Kral
▁UN
▁Dell
▁Ukraine
skog
同时也
市委
找
▁component
former
telo
▁designed
▁imparti
雖
▁ascend
▁fod
tv
▁Animal
1:
5,00
24)
meng
mbara
▁5.5
rai
-45
反对
▁Oba
umi
▁Uten
起到
",
▁PET
▁Oj
契
moli
障
的行为
攻击
▁Shi
debat
吊
▁incomp
▁ibn
▁brother
连接
▁Campus
enfant
▁Ruh
▁Gaya
▁hau
平时
▁Short
▁can
▁Ulu
▁Hindu
▁SSD
▁Tro
▁rude
説
▁Cosa
UV
▁through
▁Keep
▁never
▁Guest
abbat
÷
▁epidemi
boga
▁average
IAS
▁FBI
yaz
领先
▁della
▁hen
▁Lager
▁6,5
电
alach
▁Stud
发行
▁Lleida
/100
▁pares
▁dio
或許
▁0%
尤
成为
▁99%
quita
-3
褲
08
hany
▁launch
作品
秘密
▁Roma
▁Kami
rovi
▁locales
VII
▁Ero
▁Quad
▁Chemi
▁pedig
▁Slo
▁Avan
feder
bility
連
▁Tato
▁Books
▁SAP
发出
魂
依据
modul
自宅
願意
▁jest
Do
▁Anti
▁Staats
▁Telekom
▁fax
么
▁Siva
▁determine
issant
geli
是以
Pa
▁166
▁bata
▁Singer
▁give
▁Wet
▁rendi
▁clair
▁Dollar
▁Haram
▁Ayu
爸
▁Pag
ticos
▁Rosen
LAD
構成
▁Maybe
▁Nors
▁jog
zun
ETS
bon
親子
▁ark
tya
▁Bide
今后
妝
▁review
▁Konst
siri
umine
▁Generation
认可
▁2020.
▁50
caso
在地
▁Tom
教练
▁Sut
^
CIO
antara
aca
量的
記念
LA
▁Carlo
呈现
ûl
▁Mig
▁International
醫生
▁Nazi
▁Sah
▁empre
GB
回收
▁Infra
▁cea
chir
bo
exp
kaka
-19
ipari
▁traffic
ose
第三方
bakken
▁gastro
柳
▁Language
▁Cop
07
fig
当日
▁Mum
29)
▁juri
▁involve
正确
范围内
▁insan
kir
平安
▁cr
canta
verein
六
▁andro
NR
-400
另一个
▁Puerto
部份
.1.1
iye
的主
cile
N
▁those
ogram
▁minima
affi
▁Tabi
萬
▁Ev
▁Powered
那就是
▁3/4
REM
马上
lce
家庭
胖
▁(50
▁Movies
mos
76)
▁Vive
工程
▁ea
▁stadium
戻
▁festival
drau
长的
pini
▁Zero
MAX
adas
agent
保養
DE
▁Luz
▁Certifica
dzin
▁Tuna
da
H
声明
igen
▁Joy
▁OT
▁POP
▁Orde
lasti
llen
Sur
▁limited
▁fals
gitt
▁Phen
gro
▁Nasi
Char
had
的中国
▁dynamic
ssimi
▁Church
▁Moni
urd
▁Mek
▁mu
演奏
pasi
osis
▁Mr
▁Level
国際
▁BS
dek
试验
▁Communi
ACT
▁artistic
出现了
▁geometri
▁Vig
estate
wel
事项
bow
讓我們
▁7-8
首都
緊張
cic
vella
friend
▁Six
▁Sonnen
▁Ravi
▁Iba
linga
fried
十一
▁Panel
System
ssez
等
66)
▁2014.
丰富的
nza
發揮
DG
旋
▁Saw
歲的
▁PAS
可能會
▁legal
▁Avo
第二次
▁erotic
▁regret
▁3)
izing
gami
▁monster
▁Lav
high
▁Je
的目标
精神
▁Ghe
▁Kend
▁Semi
▁10,000
fish
▁luck
▁clique
▁Ram
镜
768
▁costs
rance
记忆
col
觀察
▁Jehovah
相关的
▁capta
udun
io
qir
了一些
semi
igi
Finan
▁escort
▁barrio
▁Veliko
▁Dialog
▁Kare
▁Mos
履行
▁curat
还可以
cert
▁Vari
閱
ancien
楚
tid
▁Surabaya
▁Tud
▁Proc
pensa
▁forces
▁HDMI
有著
-80
門
▁Naka
evento
▁Script
篇文章
OSI
▁costume
hang
▁Lega
intu
CF
▁Diri
kens
▁curta
380
差距
失败
▁Muhammed
博物館
▁Gallery
▁dum
有機會
aba
▁Voj
robo
▁Spain
▁lag
▁expected
▁Styr
▁Duy
▁Mich
bolt
▁mile
langen
▁radar
▁poli
▁1991.
69)
▁provincial
▁떠
▁Holz
▁Tres
rada
▁separate
室
isola
在家
▁Corporation
natural
▁Systems
▁Hoch
能在
cone
ṛ
塑
系统
heil
▁Baku
▁21:00
在他
天天
▁nepo
diyo
▁164
▁luminos
▁Cze
一百
▁Dot
▁Dema
▁tria
osz
毅
猜
価値
彭
疑問
▁340
世界的
kam
明確
▁herba
▁Giovanni
ne
除了
NZ
ounce
▁Opel
的声音
▁truth
hug
▁Dost
AW
業
YR
▁169
ace
▁Said
▁juridic
超級
jh
他
uras
▁neste
不停
▁Bravo
ssar
实行
这是
友好
▁Season
UNE
那里
bul
▁Laika
▁Schau
kg
平等
▁earn
▁eigen
aint
街道
▁morale
▁Cart
▁Roland
dele
▁Re
▁Vivi
▁Klin
quil
▁Stress
投资
拿出
gee
▁fatal
▁Sela
▁trim
▁Budi
▁第二
▁但是
涨
▁Ema
紀念
venuto
▁Shk
▁McC
当年
▁vind
▁dit
▁Astro
▁imposto
▁TG
hran
LAP
▁illegal
▁Hawa
▁straf
▁1980-
stron
▁carry
夢想
大多
▁Engel
背后
▁MAX
精
von
▁Folge
+3
650
▁pod
jn
▁creative
havn
▁Danes
panda
26)
iet
CAD
▁Romana
avant
375
▁lake
ST
聯盟
老闆
蛇
▁Dort
▁splendid
▁Mihai
用途
群体
DOS
kawan
▁abre
CEL
生产
▁develop
化工
没想到
V
film
並不
訂房
▁turno
Ven
cento
23)
男
▁Anderson
▁hack
historia
▁itali
gat
哈哈
▁Peli
▁Tani
▁Def
valent
▁ANC
BG
▁Malta
.000
▁Lux
迟
盆
聴
披露
検査
imiz
▁serious
▁unna
▁essential
tera
Uni
▁actual
联赛
▁oriental
islav
▁kind
▁Jason
▁Rapport
会计
▁garde
▁Torino
▁testament
而不
▁pir
再生
▁prolong
▁BAL
▁flux
有名
▁avia
strum
▁treat
▁mast
cute
聯絡
▁sau
▁physique
有力
lupa
INS
▁domestic
apport
▁PO
▁随着
▁ROM
▁Rail
NO
ONS
▁poem
▁Lingua
call
▁Taiwan
▁(60
安定
bug
pone
▁mandar
pici
ifier
▁aromat
在這裡
一段时间
假期
▁Barbie
▁Gora
每月
围绕
练
▁animals
▁2017:
諮詢
▁genom
提高
印刷膠帶
▁Chap
tung
▁Karlov
功能
▁Curs
▁hoc
▁2050
NAT
给了
密切
完全
mando
▁TEM
布局
▁Karta
▁Casa
轻松
hoek
▁Aber
numero
pewa
sports
的角度
▁Lia
ACA
乘客
▁ord
nine
▁Bazar
▁Ama
辛苦
毁
salt
mell
▁I
cero
总理
航班
▁Lice
▁Telegram
较大
▁CPU
▁Karen
依照
magn
▁Xa
▁administration
maq
arba
ravi
▁310
beth
▁bao
▁휴
Mere
▁34.
lula
▁Alte
▁Vergi
▁2004,
▁Manda
imus
▁punts
社会的
▁Private
▁Gav
▁Clear
yl
Ev
pathi
▁pecca
cja
rack
▁propra
村
heri
妥
敷
컵
▁wants
▁Hussain
▁Kwa
▁Bac
▁sols
▁There
▁franca
tenant
▁placer
heed
brio
用了
▁MINI
seo
]]
▁Besi
search
▁repres
▁dollars
tun
▁flet
也没
▁Nikol
▁privat
的关系
Date
q
畅
▁Gesch
烏
▁shu
人民政府
▁halb
rone
▁busy
▁halal
valle
FK
Kami
▁Bax
▁Ore
story
多種
iral
onnan
nisse
▁Sch
▁Hora
stream
致力于
玛
▁vigila
允许
▁Mallorca
任務
▁Jonathan
▁Test
itou
▁mito
65)
▁Leer
ijos
quez
▁35%
▁Tug
▁familia
▁noir
的学生
L
▁51
公式
wini
▁Talent
buy
uka
tax
rush
▁Franci
名的
▁Omega
229
tada
cane
辦法
▁DOS
▁255
害怕
差不多
36
corp
▁1992.
▁beginning
tar
不大
▁flow
Mit
linis
办公
上涨
桃園
▁Nico
▁ending
▁Ky
▁notar
screen
▁loss
▁anno
that
iding
delle
▁Yn
▁seeing
▁applications
▁Marvel
serve
▁Tamil
武汉
中华人民共和国
軸
孝
▁channel
▁NOT
线上
ffet
isena
▁hus
ette
铁路
▁laboratori
▁administrative
▁Ah
▁gold
▁Penis
▁Option
▁BA
▁VW
▁kri
求
amore
又有
的数据
missi
venti
(3
gott
▁sini
mobile
─
usias
▁defender
▁Cristina
錯誤
一支
▁solve
▁ej
▁license
▁judici
loom
知道
▁Raza
▁Regul
▁imagin
年以上
draw
▁Bureau
▁Franz
無線
solve
VT
完整的
新时代
curso
▁Ste
trico
▁hotels
bella
▁(7)
的照片
▁Mura
▁cake
不住
legal
▁moc
桂
▁Browser
iro
▁desktop
tuba
▁middle
▁thread
▁el
▁Alka
結局
▁167
usi
▁deficit
▁Staat
▁paradis
mona
frau
ple
union
iska
▁Mene
67)
▁Think
▁AMD
▁LRT
事物
八
fal
▁volunt
▁Pension
ig
▁requisit
崇
ionis
bash
▁Och
橫
購物網
▁morbi
management
▁families
防
有没有
▁Alman
▁habilita
ography
bury
▁180
diens
▁maximus
▁Hed
▁7000
▁teams
▁kayak
▁Be
▁ton
▁hul
ARIA
SHO
▁bell
▁punk
議員
▁seminari
cchio
ANZA
▁optimiza
损
wiel
▁2-4
什
gil
TO
一下
▁posed
▁Forest
Ten
balu
bio
▁Only
▁sel
北京
▁Denis
Bur
▁justice
▁Trust
▁provides
▁healthy
555
tono
▁Pf
▁rast
▁dw
edes
▁medio
▁Zak
▁Posi
▁Change
內的
是你
▁minera
▁remove
▁Reci
WD
股份
梨
▁Communication
kin
▁Allen
vika
▁throughout
▁pang
trix
▁Stal
racht
▁Samsung
fero
gros
Om
韓国
有哪些
tress
sol
▁officia
situ
更大
baut
▁Sweet
▁administrat
▁b
▁gamma
side
balan
▁Dho
▁band
▁Tac
内心
▁Sydney
▁COL
▁Cer
liance
hart
▁Vaj
moda
▁True
▁truly
US
▁4%
▁Sein
的速度
▁Safari
▁루
▁trapp
location
isio
IMU
turer
nc
▁Observa
▁dole
tikas
▁mara
趨勢
衰
▁Electronic
wear
ow
Þ
▁Prix
▁Tax
pong
▁Kings
instrument
大丈夫
▁capable
oshi
▁fate
gli
證明
utili
ometr
▁panne
-05
▁二
OOD
▁Lehr
▁dual
nggang
▁Fantas
經歷
▁Every
8000
▁Ferra
士
ism
▁plenty
丢
▁dia
▁simple
債
萊
ule
휘
▁pay
▁preventiv
處
DAT
mega
▁rop
▁asta
稱為
alaba
nab
絶
中学
▁infant
but
看見
鬆
增長
▁sin
▁fece
▁chica
71)
▁engine
▁Qaz
▁Satan
Cap
trait
料
zidi
▁calendar
oko
凝
▁brand
gos
裁判
順利
dhi
▁wou
▁Pand
и
▁min
▁Tam
鼠
zili
▁Sankt
innova
care
▁slipper
▁hool
堪
thu
▁Fuck
IBA
一起
▁complementar
▁stadi
wort
记得
▁bale
macht
▁gadget
ru
▁madde
▁domes
tako
▁Domine
的价格
▁IQ
看起来
▁Kr
210
ichi
74)
Internet
▁Libre
▁ridic
▁Pasta
▁Arabia
甚
▁174
iai
偉
95
▁macar
▁jump
▁lili
是为了
▁seren
下跌
zni
Plus
培訓
嫩
LEX
64)
▁BG
▁Huy
컬
▁viral
▁Stadium
选择
kle
▁sona
漫畫
-02
尚未
▁Al
dere
▁built
现代化
▁trick
/19
phen
▁pic
▁Minsk
▁Gener
▁Groot
应
▁articula
cipit
dalo
工作中
踢
襲
NAR
小组
hier
▁Marathi
mood
drive
ina
各式
▁Ful
112
▁pena
▁Active
抓住
分享
不行
确认
zh
444
地点
香
▁ferment
▁frank
barra
也
▁Kuma
▁Macron
RIT
ells
IN
▁Quest
签证
考生
ettes
culture
▁Erasmus
▁porn
之后
▁significant
重要
▁wellness
therapie
一杯
世界杯
Si
roko
▁Sales
一面
60)
▁corpus
全市
▁2016)
就
09)
▁Defini
▁Wana
gradu
帶
malle
趣味
135
280
▁dai
▁Tij
▁Eel
▁Detail
▁explicat
▁encore
agam
獻
GD
▁peace
展
px
▁setter
▁DAS
証
▁Riv
▁Tous
pros
먹
案
riza
Sz
鐘
nel
雙方
ezer
▁milli
▁boutique
有趣的
paro
▁quantitat
场比赛
▁Loc
volt
ISE
jamas
▁Hakim
▁Kura
啥
▁Blut
▁Madrid
marks
▁Coll
▁Bela
▁2003,
MMA
saken
lulu
GN
▁Norm
▁Shab
SIN
▁IB
matica
rania
▁Odense
yer
第十
riji
紀
▁sabo
▁explore
▁ji
▁promo
▁FAR
▁dop
▁199
▁coro
▁22.
國立
▁2000,
▁Sare
490
41
▁Vou
MX
emper
25)
▁Because
ði
▁emotional
义务
harmoni
otin
feat
▁Lange
bang
▁Spiritu
▁2013)
▁module
es
▁Il
▁Del
▁Reco
▁recrea
▁urgent
▁Romano
SW
▁Ander
▁Quick
nado
▁redact
lope
ushi
▁Uk
蟲
wyll
▁LED
BIT
ifique
败
卢
摘要
▁veterinar
▁inte
YB
pido
tool
So
美好的
auto
态度
午後
”“
行的
콜
andi
70)
▁sector
▁Kirke
▁render
▁traditional
我都
彩票
▁Koti
eau
機関
▁Italian
肉
▁EI
▁Naj
litz
唇
▁Dje
▁An
維護
炮
▁Lac
▁carti
AM
ŷ
▁Malagasy
ovanie
▁fresco
青
▁politie
▁stole
국
▁salvo
▁Virgin
▁BD
ozni
teen
▁proposition
slova
▁junta
Vil
指数
的東西
shar
kande
▁waiting
▁Dong
▁Panda
▁sud
trica
机遇
Arti
▁53
sust
氧
祝福
细节
扮演
▁Aq
囊
玲
▁Schwarz
▁Morten
kut
▁빠
▁reasons
pyr
▁tweet
▁Helena
山东
▁Inc
▁Salud
完
zino
的一种
是一種
oma
sty
來看
萌
曾
aja
▁Nielsen
永遠
▁Pla
▁KW
更高
▁Corp
▁direct
西安
ufa
▁relevan
▁Aar
▁heel
接到
wada
obla
llab
▁Exam
DON
供應
▁partners
LAB
▁fully
▁Woo
kie
lotte
utum
城市的
▁Skole
euses
▁tales
疏
▁Jr
italia
否则
坑
oj
grad
ith
▁kook
▁MG
thala
▁Mey
22)
▁things
▁Leonardo
guar
▁Agenda
▁5-
▁Bolo
▁Mies
▁Nutri
话题
▁Hui
▁Mendi
▁0.0
cel
▁Sharma
strom
之路
fore
▁Viol
urban
660
cul
▁Monster
▁focal
▁Advent
只需
▁33.
▁Never
手法
▁Bodi
▁Views
still
▁Une
Fer
腾
涂
金融
不容易
▁whatever
▁Biz
▁lago
我会
▁Vincent
▁173
bind
▁54
▁porter
cted
dzi
setting
ssem
isia
要有
▁melding
▁Deutsch
40%
▁CEN
见到
▁Blond
kreis
照
INN
憂
広告
▁Stuttgart
inni
▁KU
vette
一場
▁messages
▁Records
▁Electric
▁Sne
sek
cred
日报
tsar
▁poi
▁absolute
天堂
▁vitae
强烈
▁propagand
ctio
lec
▁dine
daug
bull
▁Nacional
▁cais
有利
▁excess
▁world
▁avo
ALU
▁a
▁s
报
军
▁BM
iset
是中国
女兒
并非
閣
▁Glad
线
▁Display
▁Kara
app
▁Ronald
quat
uncu
▁modest
到了
▁2,2
▁pese
zik
▁Gori
rim
▁Laba
▁Kiri
▁Engine
商務
bie
包装
▁Tina
arth
event
吃的
▁FRA
06
编辑
▁Pol
▁London
repet
▁this
存在
寻
▁Palo
▁Waren
▁Luther
ern
approche
▁sc
▁retire
▁ceno
兒子
▁strength
stamine
TAI
先生
▁Benz
India
rein
bl
抜
敲
bulu
纷纷
祥
指标
materi
iche
ments
cuba
▁affida
▁branche
▁multimedia
▁engagement
▁taste
了吧
▁친
Ger
550
pien
▁Gand
成功
也不会
▁王
68)
STEM
▁textu
▁trop
hear
▁Tym
藉由
shti
bore
▁bolt
culis
翔
▁Philip
脳
陷入
VET
▁Jessica
▁151
手工
▁shah
其次
mani
▁Sorry
懂得
▁Official
▁Vijay
trend
▁fett
▁Basta
gere
常見
tyl
▁Rut
▁IBM
班
空氣
RUS
▁Juha
名单
PS
道理
▁negat
献
▁gas
一口
kash
뜨
鳳
愉快
玩具
▁Bho
给他
zara
Het
▁mature
才会
網
▁192
▁auditori
▁Creative
电池
verband
qab
▁Elite
▁RE
排放
▁island
▁considered
▁Per
▁50%
▁Christen
▁banal
pico
▁Josip
ratta
▁accessori
▁dha
湾
带
皆様
yu
再加上
▁sure
▁161
▁Vai
▁Location
▁finding
▁alig
▁Biel
▁GL
▁Mash
tania
▁General
▁relativi
▁forget
Mo
wise
stav
proba
論壇
组织
▁Vega
▁Mato
hero
rnir
过的
MP
问题的
币
優勢
XE
鏈
語
倉
▁Stok
▁aur
6
alan
▁souvenir
▁worry
OK
▁Right
▁Toronto
▁levels
▁24/7
racia
政
▁Deal
▁SB
Van
IDI
▁CNC
▁unica
chang
-2009
▁Gard
▁China
▁4-6
先進
▁shr
(10
▁Kyl
▁MAD
▁Imran
k
▁Ma
▁Beau
了解到
▁retard
▁56
25%
幣
奴
審査
▁visi
按摩
▁brought
hagen
▁reference
unt
▁meaning
▁lido
magi
680
axi
▁cold
民間
▁Barcelo
▁Cal
Gre
▁integr
panel
naga
boni
▁Romani
▁fallen
sexual
表情
bird
▁Daw
委员
▁bay
▁intention
大众
墓
▁cry
lic
ita
噴
各级
WER
立場
960
▁1907
▁gur
boro
▁tinc
登記
▁1901
▁wider
給予
▁Wander
SE
fax
夺
▁nest
▁ef
▁Graf
▁Ove
管道
日的
▁ga
吗
此时
If
▁Ted
▁lama
pori
pent
▁Welcome
基础设施
▁furt
▁Children
tz
的前
▁Flam
▁Ā
▁protocol
▁Breaking
▁퍼
▁Loh
▁victor
▁published
▁Programme
得很
POS
Eng
NEC
來源
▁p
市場
dimension
▁carica
mination
iek
▁Rural
们
aber
▁Liberal
▁episod
▁Apel
fall
日子
▁gull
盈
中有
▁Gym
fac
▁Parti
▁disposi
歡
Yes
▁bene
黎
爐
▁Hamar
▁Lever
單
欧盟
au
禮物
▁victim
quad
▁6.1
▁Sancti
NJ
vino
rido
便是
▁stand
▁Paolo
먼
▁breed
tall
私
ssie
jing
20,000
▁relations
pama
▁insulin
trage
▁venis
有任何
频
Mod
▁Baik
改革开放
▁Cura
hockey
▁Solidari
繳
▁tabul
妹妹
▁Iqbal
kaze
bia
▁Chand
Hor
▁quorum
rup
▁Valor
nad
-08
haber
▁Diet
▁Basic
string
▁Dara
▁LGBT
哥哥
gib
kille
▁2015
adam
抑
▁redd
▁tuba
orin
▁Moc
事項
▁champ
發布
▁spray
得以
▁Fri
argi
▁Client
▁rules
▁lancer
▁6%
▁LLC
ケア
▁acum
▁delibera
▁magni
▁income
承诺
▁intellectu
情緒
労働
▁Aalborg
alta
F
▁actuar
▁195
全文
▁sequi
▁prosti
33
lood
travel
达
▁Juda
▁division
ridge
这个问题
一看
▁Clark
plat
先后
32)
▁OC
bot
▁amb
▁page
▁Adapt
集体
LAG
▁UU
-10
▁civiliza
▁dab
所谓
▁Skip
▁Integra
出发
udi
很久
1.4
▁95
▁ventila
足
▁replace
ni
▁park
▁Wad
▁Rais
psu
▁Twin
態度
Win
▁Rica
▁predict
▁PAL
▁Gal
雕
所以我
配套
决赛
▁Att
熱門
朝
病気
▁Utrecht
旅館
fusion
張
▁172
更好地
hiko
sensi
▁Kapital
社員
pew
1.1
▁9.00
▁quiet
規格
acce
Rus
▁margin
▁Stav
我说
▁Gim
▁realize
▁horo
zsa
spe
▁Hyper
▁bel
督
▁Luca
出售
▁ali
戈
鸟
欣賞
mini
▁pronuncia
▁Tall
初
表達
▁Sino
▁gen
▁Murat
▁presentation
hida
▁Gib
aka
▁medieval
▁French
▁Matu
▁Tool
前景
很重要
▁Mika
▁unde
Lie
▁lower
ude
▁182
▁Period
▁EH
unha
strik
stel
▁Brig
▁Tipp
▁Peda
髪
逸
Mil
▁Pali
的目的
▁Boz
nam
endam
arten
主流
VL
▁Government
9/
书
▁Somali
▁Yun
▁gente
▁Abo
▁Ane
sumi
早已
stille
造成的
▁apne
kes
TTA
精心
人數
nelli
早就
账
▁Lak
4,000
▁Live
實施
ffo
▁머
▁reso
char
▁XML
▁grandes
entur
plate
HY
▁Kreis
piti
查
▁LEO
▁lumina
▁stabil
xl
▁首頁
th
▁Aile
▁suspect
SAM
stall
▁Handy
▁lack
▁Jos
▁fide
伊朗
财富
動畫
▁Mad
▁MA
卵
▁Manifest
▁Hotels
tages
▁vat
▁β
評論
nadi
46
▁noto
▁Sudan
beck
3,5
▁SHA
kai
続
▁advert
then
▁Colle
轉
soni
还没
▁Response
nir
▁privati
承认
應
clin
度假
▁Rafi
▁concentr
huri
上帝
▁assure
郁
乾燥
elia
ol
tarian
▁doubt
RIO
奇怪
UO
llo
drow
XD
48
如同
▁Tomas
▁players
展览
队
racha
▁Barra
▁fertil
YL
▁Da
格式
▁glori
▁Sri
▁Pea
LOS
blement
培育
▁Anni
▁advantage
▁Ol
▁weather
▁Avant
str
▁Fet
▁Import
yin
▁horror
新竹
還要
▁Brno
▁melde
▁mo
▁knows
▁Elect
worth
这也是
elwe
建造
anak
bergs
新生
▁adora
gler
▁Nr
▁soba
支撑
显然
▁ze
▁Bilbao
▁Full
构成
▁(2009)
▁Pip
難以
UTI
provi
違
▁Zi
Info
uli
▁fruits
▁concede
▁Voll
▁58
▁Punt
ther
▁Cic
▁conclusion
Ul
ts
食用
▁employees
▁HY
▁Heli
39
Line
走出
▁sent
寂
▁Frederik
AN
大数据
▁Napa
ach
低于
事实上
▁Balo
▁cookie
一把
▁Marte
▁cinc
piri
▁officer
▁simile
UAR
▁Ella
▁Lei
limit
wch
▁Hod
orto
nsa
▁Traum
提升
▁repo
▁tens
把自己
raca
▁your
柜
▁phase
▁spread
打击
bw
▁tale
▁Dom
Hz
▁effects
幾年
▁Tel
拒絕
▁Forum
▁metabol
assemble
tig
▁Cyber
不受
fuck
dir
▁name
▁Numer
高端
iseach
▁Keli
▁haute
▁kept
贯彻
屈
全国
ska
▁bile
vassa
▁pulsa
▁85
一個人
0.5
ZAR
168
efect
▁Raa
▁shit
一声
aran
spire
所得
isch
”),
▁Domain
1,000
北海道
컴
慈
▁Friedrich
宗旨
riya
株式会社
▁TB
9,5
▁efficient
形
fair
▁FS
發展
prise
cultural
ty
cas
75)
SAS
奇
人心
▁format
[...]
